, 182828
. 151702
the 119161
to 73308
of 69591
a 62777
and 60313
that 53044
I 48229
in 44625
is 38873
you 38410
it 36528
&apos;s 34683
we 32078
And 29189
this 25163
&quot; 21340
-- 19680
was 17591
for 16629
on 16200
have 16098
are 16067
they 15477
with 14437
can 13991
@-@ 13972
&gt; 13971
&lt; 13971
So 13274
&apos;t 13193
what 13072
about 12872
? 12591
/ 11930
be 11852
at 11222
as 10957
all 10895
do 10543
&apos;re 10394
not 10301
there 10296
: 9964
one 9717
It 9589
like 9314
from 9169
people 9102
so 8824
an 8689
my 8610
but 7840
just 7802
or 7585
We 7517
very 7503
The 7483
But 7443
out 7433
these 7427
our 7426
if 7374
know 7252
going 7094
up 7004
_ 6778
them 6776
by 6741
me 6568
he 6332
when 6223
which 6219
think 6209
because 6201
see 6164
had 6108
more 6039
really 5928
how 5832
get 5772
your 5676
&apos;ve 5663
who 5601
would 5568
here 5489
were 5486
their 5400
This 5379
&apos;m 5322
world 5287
then 5256
time 5254
us 5185
You 5175
actually 5015
has 4960
into 4885
some 4827
things 4813
don 4803
way 4797
years 4549
now 4421
where 4418
will 4413
go 4360
want 4320
other 4275
Now 4131
make 4064
could 4061
They 4018
been 3954
said 3919
something 3766
two 3582
little 3551
thing 3550
right 3523
first 3447
got 3424
than 3347
no 3308
look 3285
back 3238
those 3229
say 3189
That 3185
much 3162
also 3156
his 3138
life 3112
over 3053
; 3049
kind 3038
work 3022
she 2920
only 2832
take 2826
In 2821
most 2784
lot 2783
need 2782
What 2724
&apos;ll 2707
around 2653
did 2641
new 2631
There 2608
even 2607
good 2579
down 2574
many 2566
different 2549
through 2428
her 2413
title 2411
description 2357
url 2348
same 2347
keywords 2339
talkid 2338
come 2326
transcript 2325
Well 2314
being 2313
doing 2308
He 2293
every 2272
put 2270
If 2269
use 2269
year 2263
three 2214
called 2104
well 2047
day 2035
talk 1994
&apos;d 1990
made 1976
any 1965
tell 1870
why 1853
able 1852
percent 1849
technology 1835
human 1827
fact 1813
great 1780
idea 1771
change 1769
its 1766
find 1765
big 1700
didn 1691
went 1678
own 1677
last 1676
today 1665
off 1658
thought 1647
course 1624
after 1623
should 1618
started 1596
another 1587
story 1580
important 1573
give 1570
show 1565
before 1548
let 1528
problem 1512
start 1502
part 1498
ago 1494
better 1490
brain 1487
might 1487
A 1475
never 1461
bit 1458
together 1455
again 1452
next 1452
system 1451
long 1446
came 1441
him 1437
place 1433
talks 1421
does 1419
♫ 1415
sort 1403
each 1398
Because 1395
old 1381
mean 1380
design 1378
few 1368
water 1364
still 1362
used 1350
&apos; 1349
looking 1346
end 1335
whole 1332
done 1322
point 1321
between 1305
too 1279
When 1274
question 1249
real 1243
example 1239
million 1239
doesn 1235
try 1234
understand 1234
How 1222
children 1216
found 1208
10 1189
science 1189
call 1188
love 1186
four 1174
person 1174
http 1173
wanted 1173
www.ted.com 1169
data 1168
always 1155
live 1155
working 1151
trying 1150
women 1142
away 1141
believe 1139
ever 1125
may 1125
space 1119
feel 1095
using 1072
took 1064
kids 1062
five 1060
school 1059
Thank 1057
power 1055
thinking 1054
light 1051
ed 1049
everything 1042
man 1042
stuff 1042
create 1041
future 1041
food 1040
One 1031
help 1031
country 1028
! 1025
energy 1023
says 1020
building 1018
money 1017
information 1014
Africa 1011
less 1010
making 1005
play 1003
sense 1000
second 994
getting 990
high 990
comes 988
maybe 987
These 986
means 985
un@@ 984
global 982
small 980
quite 979
left 974
Here 970
enough 964
probably 962
interesting 955
coming 940
number 936
best 928
talking 928
become 921
She 918
side 918
times 908
ing 898
happened 897
dollars 895
business 889
pretty 887
social 887
home 886
body 884
without 881
am 879
My 878
half 877
room 867
goes 863
simple 862
anything 859
re@@ 857
20 852
makes 846
ways 845
No 842
hand 833
health 831
across 827
Why 825
ask 825
happen 824
saw 822
seen 822
ideas 817
such 816
build 815
culture 806
case 805
Earth 802
OK 801
living 801
told 799
else 797
lives 793
hard 790
move 788
moment 787
computer 785
planet 784
problems 784
countries 783
days 783
basically 782
happens 781
Let 774
book 772
experience 771
picture 771
having 770
mind 768
care 759
history 759
bad 757
car 757
inside 757
six 747
learn 746
process 745
saying 745
age 743
far 743
project 741
looks 740
music 739
asked 738
single 738
billion 736
child 732
open 729
cells 728
later 728
art 726
top 724
All 720
reason 719
both 716
yet 712
As 711
universe 708
set 707
line 706
within 704
almost 701
family 700
For 698
form 697
self 696
guy 692
possible 692
nature 691
community 687
heard 687
once 686
piece 686
... 685
video 681
bring 680
while 679
young 679
New 678
wrong 678
beautiful 677
looked 670
nothing 670
city 668
imagine 664
true 664
couple 663
matter 663
TED 662
places 660
works 660
already 659
keep 658
sure 657
months 656
read 654
hope 653
often 652
species 651
God 650
men 650
India 647
education 647
answer 645
cancer 645
language 641
whether 640
face 639
group 634
head 631
in@@ 628
level 625
words 624
under 623
kinds 622
built 619
everybody 618
United 617
amazing 617
stories 617
war 617
control 614
ate 613
S@@ 611
taking 611
order 610
50 609
remember 608
30 606
turn 605
itself 604
someone 600
environment 596
animals 595
myself 595
completely 589
woman 589
Internet 585
research 585
until 584
large 583
mother 583
gets 581
al 578
heart 578
run 576
somebody 575
happening 574
Then 573
ated 573
must 573
word 572
though 571
States 570
decided 570
wasn 569
job 568
isn 567
minutes 565
since 564
company 563
exactly 562
figure 562
disease 561
turns 560
guys 559
ones 559
ourselves 558
government 557
model 557
particular 557
huge 554
learned 552
public 551
100 550
Oh 547
game 546
hear 544
issues 544
rather 544
society 544
stop 544
America 543
per 541
shows 540
state 540
front 538
oil 538
house 535
hours 534
third 533
name 532
air 531
share 531
along 530
early 528
won 527
sound 526
American 525
night 525
free 524
e@@ 522
Okay 520
couldn 520
lots 520
study 520
happy 519
moving 519
ability 518
century 518
knew 517
takes 517
themselves 517
became 516
s 516
wonderful 515
past 514
students 514
ocean 513
created 512
news 512
&#91; 509
&#93; 509
At 509
against 509
based 509
worked 509
questions 507
sometimes 507
least 505
outside 501
seven 500
area 499
difference 499
dis@@ 499
taken 497
natural 496
gave 493
cell 492
terms 492
friends 491
scale 491
ers 489
learning 487
close 486
China 485
market 484
land 483
beginning 481
cost 480
entire 479
others 478
systems 478
view 478
thousands 477
15 475
B@@ 475
everyone 473
full 473
machine 473
middle 473
fish 472
black 470
instead 470
ating 469
y 469
population 467
Or 466
needs 465
size 465
York 464
seeing 461
certain 458
es 458
perhaps 456
eight 455
difficult 454
finally 454
deal 453
turned 450
whatever 450
green 449
image 448
easy 447
parts 447
powerful 447
d@@ 446
grow 445
red 445
amount 443
leave 441
G@@ 440
during 440
ting 439
short 438
ted 437
film 434
gone 433
buy 432
eyes 432
media 432
feet 431
low 431
known 429
walk 429
given 428
DNA 427
er 426
k@@ 426
surface 423
changed 422
interested 422
o 420
C@@ 419
cities 418
Do 416
began 416
economic 416
quickly 416
A@@ 415
cannot 415
spend 415
eat 414
hands 414
common 413
P@@ 412
yourself 412
behind 411
needed 411
longer 410
father 406
simply 406
team 405
tried 405
week 405
complex 404
Yeah 402
step 400
T@@ 398
realized 398
.html 396
M@@ 396
evolution 395
rest 395
climate 393
humans 393
Is 390
behavior 390
force 390
local 389
write 388
incredible 387
fun 386
sitting 386
Some 385
born 385
opportunity 385
test 385
ice 384
o@@ 384
poor 384
animal 383
bottom 383
growing 383
spent 383
People 382
starting 382
lost 380
structure 379
F@@ 378
theory 378
weeks 378
economy 377
forward 377
program 377
non 376
R@@ 375
books 375
reality 375
brought 374
death 374
personal 374
felt 373
blue 372
companies 372
phone 372
computers 371
paper 371
average 370
die 370
growth 370
Just 369
Right 369
ation 369
feeling 369
developed 368
s@@ 368
Yes 367
field 367
images 367
changes 366
cut 366
wrote 366
40 365
World 365
miles 365
speak 365
either 363
led 363
value 363
deep 361
political 361
To 360
gives 360
stage 360
friend 359
girl 358
parents 358
de@@ 357
English 356
pay 356
t 356
technologies 356
12 355
center 355
watch 355
ground 354
literally 354
map 354
patient 353
tools 353
playing 351
giving 350
U.S. 349
attention 348
fast 348
happiness 348
areas 347
knowledge 347
nice 347
individual 346
material 346
shape 346
discovered 344
en@@ 344
running 344
ts 344
L@@ 343
morning 343
understanding 343
wouldn 343
Not 342
white 340
audience 339
fly 339
scientists 339
developing 338
challenge 337
compassion 336
relationship 336
seems 336
telling 336
sea 335
On 334
knows 334
ous 334
rules 334
D@@ 333
H@@ 332
begin 332
blood 332
b@@ 331
focus 331
movement 331
product 331
cool 330
dark 330
ates 329
girls 329
absolutely 328
act 327
son 327
type 327
incredibly 326
physical 326
talked 326
Can 325
met 324
situation 324
w@@ 324
N@@ 323
g@@ 323
result 323
stand 323
color 322
key 322
modern 320
showed 320
generation 319
CA 318
hold 318
creating 317
realize 317
development 316
hundreds 316
millions 316
save 316
Our 315
haven 315
involved 315
produce 315
allow 314
becomes 314
experiment 314
industry 314
changing 313
hour 313
i 313
major 313
present 313
guess 312
device 311
medicine 311
South 310
clear 310
numbers 310
solution 310
available 309
biology 309
Europe 308
lab 308
source 308
seem 307
putting 306
cars 305
lived 304
alone 303
box 303
patients 303
pictures 303
reasons 303
writing 302
dead 301
digital 301
recently 301
tiny 301
rate 300
support 300
tells 300
access 299
anyone 298
baby 298
meet 298
minute 298
aren 297
died 297
teach 297
drive 296
h@@ 296
pattern 296
table 296
entertainment 295
kid 295
robot 295
towards 295
thank 294
designed 293
solve 293
action 292
politics 292
bigger 291
explain 291
beyond 290
especially 290
risk 290
effect 289
groups 289
E@@ 288
choice 288
materials 288
object 288
worth 288
eye 287
normal 287
potential 287
schools 287
class 286
ity 286
law 286
y@@ 286
resources 285
speed 285
starts 285
Google 284
al@@ 284
issue 284
creativity 283
hundred 283
innovation 283
nobody 283
t@@ 283
Chinese 282
Look 282
chance 282
perfect 282
term 282
K@@ 281
an@@ 281
asking 281
impact 281
network 281
nine 281
obviously 281
wants 281
anybody 280
mass 280
Of 279
er@@ 279
medical 279
projects 279
scientific 279
certainly 278
i@@ 278
showing 278
carbon 276
p@@ 276
quality 276
solar 276
special 276
architecture 275
extraordinary 275
fear 275
sh@@ 275
similar 275
African 274
month 274
office 274
software 274
wish 274
25 273
By 273
fall 273
wall 273
yes 273
approach 272
several 272
games 271
measure 270
basic 269
onto 269
ally 268
moved 268
plants 268
security 268
send 268
skin 268
village 268
walking 268
period 267
truth 267
voice 267
ended 266
exciting 266
n@@ 266
nuclear 266
online 266
soon 266
success 266
evidence 265
king 265
ly 265
objects 265
hit 264
examples 263
poverty 263
wind 263
200 262
First 262
message 262
moral 262
street 262
11 261
interest 261
movie 261
positive 261
vision 261
HIV 260
k 260
develop 259
follow 259
screen 259
de 258
im@@ 258
over@@ 258
arts 257
further 257
ic 257
named 257
particularly 257
sex 257
sit 256
teacher 256
engineering 255
forms 255
uses 255
Chris 254
bunch 254
en 254
Maybe 253
points 253
activity 252
camera 252
fire 252
student 252
sun 252
thousand 252
totally 252
60 251
beauty 251
ch@@ 251
extremely 251
m 251
plan 251
ready 251
sorts 251
18 250
Don 250
door 250
likely 250
sounds 250
zero 250
West 249
co@@ 249
rich 249
serious 249
East 248
code 247
journey 247
listen 247
physics 247
als 246
break 246
connected 246
everywhere 246
lose 246
pick 246
add 245
favorite 245
spread 245
Every 244
complicated 244
general 244
lead 244
mine 244
strong 244
version 244
allowed 243
creative 243
el@@ 243
goal 243
peace 243
trees 243
Where 242
biggest 242
concept 242
foot 242
lines 242
stay 242
O@@ 241
site 241
bacteria 240
genes 240
smart 240
tool 240
tree 240
wife 240
After 239
f@@ 239
higher 239
products 239
ar@@ 238
buildings 238
math 238
reach 238
80 237
brains 237
notice 237
series 237
teachers 237
Even 236
W@@ 236
board 236
l@@ 236
price 236
visual 236
eventually 235
faster 235
leaders 235
communities 234
late 234
results 234
touch 234
watching 234
Which 233
continue 233
di@@ 233
military 233
page 233
grew 232
main 232
standing 232
Most 231
ds 231
expect 231
ks 231
perspective 231
position 231
response 231
road 231
content 230
supposed 230
Who 229
bed 229
gas 229
pieces 229
taught 229
among 228
crazy 228
democracy 228
impossible 228
somewhere 228
st@@ 228
suddenly 228
rise 227
essentially 226
hospital 226
humanity 226
models 226
fine 225
larger 225
plant 225
reading 225
shown 225
stars 225
above 224
cause 224
individuals 224
killed 224
performance 224
truly 224
virus 224
as@@ 223
crisis 223
decision 223
fundamental 223
largest 223
role 223
sell 223
sent 223
beings 222
hot 222
meant 222
robots 222
Are 221
conditions 221
excited 221
listening 221
am@@ 220
c@@ 220
web 220
North 219
cases 219
kill 219
a@@ 218
arm 218
revolution 218
worse 218
em@@ 217
es@@ 217
national 217
smaller 217
successful 217
tr@@ 217
alive 216
r@@ 216
somehow 216
traditional 216
With 215
finding 215
inter@@ 215
okay 215
patterns 215
song 215
written 215
including 214
slide 214
violence 214
college 213
forth 213
safe 213
training 213
decisions 212
older 212
studies 212
subject 212
tic 212
wait 212
David 211
TV 211
except 211
healthy 211
list 211
lower 211
v@@ 211
actual 210
allows 210
genetic 210
ist 210
meaning 210
plastic 210
pull 210
seconds 210
con@@ 209
drugs 209
machines 209
pain 209
service 209
usually 209
aid 208
dance 208
fantastic 208
recognize 208
religion 208
skills 208
doctor 207
dollar 207
drug 207
earlier 207
on@@ 207
trust 207
upon 207
waste 207
&amp; 206
bodies 206
direction 206
temperature 206
Americans 205
dangerous 205
organization 205
2@@ 204
context 204
famous 204
region 204
wonder 204
choose 203
dream 203
greater 203
indeed 203
kept 203
500 202
boy 202
critical 202
est 202
fully 202
magic 202
teaching 202
th@@ 202
ti@@ 202
walked 202
conference 201
following 201
hole 201
oh 201
solutions 201
tend 201
In@@ 200
electricity 200
g 200
income 200
increase 200
record 200
slow 200
I@@ 199
Mars 199
Those 199
e 199
exist 199
invented 199
legs 199
strange 199
treatment 199
John 198
War 198
draw 198
range 198
- 197
ans 197
anymore 197
current 197
himself 197
jobs 197
remarkable 197
store 197
2 196
ant 196
becoming 196
ding 196
evolved 196
expensive 196
mis@@ 196
shot 196
town 196
Another 195
ants 195
connect 195
connection 195
ings 195
production 195
re 195
sky 195
ter 195
therefore 195
active 194
ad@@ 194
conflict 194
p 194
television 194
urban 194
communication 193
dog 193
instance 193
University 192
ations 192
decade 192
flying 192
ri@@ 192
Web 191
clearly 191
website 191
whose 191
Like 190
Two 190
ac@@ 190
anyway 190
complexity 190
floor 190
flow 190
ked 190
near 190
please 190
types 190
z@@ 190
driving 189
earth 189
se@@ 189
specific 189
track 189
train 189
travel 189
Imagine 188
ab@@ 188
etc 188
international 188
levels 188
li@@ 188
policy 188
ship 188
City 187
ator 187
character 187
familiar 187
fight 187
immediately 187
summer 187
anywhere 186
choices 186
economics 186
final 186
meeting 186
protect 186
square 186
surgery 186
understood 186
win 186
yeah 186
16 185
clean 185
intelligence 185
provide 185
90 184
Western 184
costs 184
cultural 184
designers 184
throughout 184
various 184
London 183
artist 183
chemical 183
obvious 183
photograph 183
survive 183
values 183
Your 182
conversation 182
function 182
organisms 182
press 182
AIDS 181
ahead 181
although 181
le 181
minds 181
pressure 181
treat 181
Afghanistan 180
fit 180
focused 180
progress 180
stick 180
X 179
aware 179
cold 179
directly 179
drop 179
glass 179
out@@ 179
path 179
rights 179
babies 178
funny 178
heat 178
inspired 178
oxygen 178
race 178
terrible 178
useful 178
weren 178
Indian 177
National 177
environmental 177
extra 177
produced 177
rule 177
14 176
invention 176
les 176
played 176
practice 176
task 176
trade 176
Dr. 175
effective 175
enormous 175
forces 175
networks 175
or@@ 175
original 175
private 175
atmosphere 174
bought 174
challenges 174
feed 174
freedom 174
fuel 174
speaking 174
u@@ 174
V@@ 173
ar 173
birds 173
causes 173
families 173
mostly 173
ro@@ 173
sleep 173
under@@ 173
10,000 172
E 172
boys 172
experiments 172
financial 172
mental 172
sat 172
sustainable 172
J@@ 171
Richard 171
carry 171
consider 171
decide 171
el 171
greatest 171
massive 171
paid 171
possibly 171
weight 171
molecules 170
nation 170
oceans 170
purpose 170
unique 170
24 169
Middle 169
biological 169
bringing 169
n 169
notion 169
states 169
stem 169
300 168
Ch@@ 168
below 168
eating 168
ran 168
His 167
discover 167
mobile 167
sharing 167
sign 167
straight 167
ancient 166
at@@ 166
birth 166
event 166
ness 166
scientist 166
search 166
shared 166
Hey 165
ball 165
doctors 165
governments 165
ine 165
mo@@ 165
particles 165
quick 165
th 165
waiting 165
apart 164
capacity 164
creatures 164
emotional 164
genome 164
la 164
planets 164
supply 164
willing 164
workers 164
bo@@ 163
degrees 163
passion 163
programs 163
tremendous 163
worst 163
1 162
70 162
From 162
Man 162
complete 162
creates 162
ism 162
trouble 162
twice 162
Life 161
capital 161
diseases 161
ent 161
gotten 161
memory 161
neurons 161
per@@ 161
career 160
forget 160
j@@ 160
le@@ 160
lights 160
possibility 160
surprising 160
b 159
basis 159
easily 159
explore 159
institutions 159
services 159
trial 159
3@@ 158
C 158
calls 158
charge 158
communicate 158
effects 158
et@@ 158
graph 158
ized 158
markets 158
police 158
ps 158
raise 158
ty 158
worry 158
closer 157
cover 157
is@@ 157
recent 157
to@@ 157
B 156
Today 156
artists 156
be@@ 156
bridge 156
farmers 156
ling 156
none 156
push 156
related 156
si@@ 156
Asia 155
California 155
attack 155
bl@@ 155
corner 155
definition 155
diversity 155
hearing 155
industrial 155
mom 155
pass 155
popular 155
res@@ 155
secret 155
Think 154
fl@@ 154
helped 154
loved 154
mountain 154
rock 154
standard 154
Iraq 153
achieve 153
daughter 153
differences 153
et 153
hair 153
responsibility 153
shift 153
sold 153
sub@@ 153
address 152
brand 152
mission 152
seemed 152
slightly 152
18@@ 151
balance 151
boat 151
fairly 151
gene 151
helping 151
imagination 151
ists 151
lo@@ 151
passed 151
shares 151
significant 151
societies 151
statistics 151
tive 151
Great 150
ance 150
ators 150
car@@ 150
decades 150
elements 150
m@@ 150
missing 150
necessarily 150
tion 150
13 149
bread 149
colleagues 149
devices 149
dying 149
forest 149
infrastructure 149
male 149
post 149
religious 149
tissue 149
1,000 148
answers 148
check 148
flu 148
highly 148
published 148
3 147
ary 147
effort 147
feels 147
it@@ 147
noticed 147
trained 147
turning 147
window 147
$ 146
Instead 146
brings 146
broken 146
central 146
cl@@ 146
coffee 146
cross 146
h 146
pe@@ 146
total 146
Many 145
Mr. 145
bone 145
d 145
figured 145
interact 145
moments 145
reduce 145
structures 145
aging 144
ded 144
edge 144
flight 144
pro@@ 144
sequence 144
virtual 144
Al 143
ch 143
civilization 143
dimensional 143
female 143
plane 143
sick 143
star 143
studying 143
tail 143
throw 143
D 142
Paul 142
base 142
billions 142
differently 142
molecule 142
saving 142
typical 142
wing 142
17 141
400 141
fascinating 141
ia 141
ish 141
laws 141
return 141
text 141
Con@@ 140
Japan 140
distance 140
engineers 140
helps 140
knowing 140
spending 140
stopped 140
streets 140
visit 140
Again 139
French 139
card 139
fashion 139
ian 139
leading 139
negative 139
psychology 139
respect 139
suffering 139
4@@ 138
competition 138
era 138
held 138
jump 138
quote 138
radio 138
slowly 138
sorry 138
yellow 138
Actually 137
An 137
Big 137
Second 137
benefit 137
benefits 137
desire 137
fix 137
letter 137
loss 137
nearly 137
prison 137
se 137
9 136
ap@@ 136
caught 136
consciousness 136
degree 136
heads 136
ho@@ 136
party 136
sing 136
thinks 136
wisdom 136
Good 135
Very 135
afraid 135
core 135
describe 135
electric 135
fighting 135
galaxies 135
holding 135
intelligent 135
landscape 135
relationships 135
ties 135
versus 135
bird 134
citizens 134
colors 134
commercial 134
engage 134
failure 134
moon 134
organizations 134
sudden 134
ton 134
vast 134
apply 133
collaboration 133
double 133
ence 133
everyday 133
insects 133
theater 133
7@@ 132
Ar@@ 132
MIT 132
Sun 132
bits 132
catch 132
cheap 132
discovery 132
net 132
phenomenon 132
6@@ 131
Thanks 131
agree 131
background 131
bi@@ 131
circle 131
dr@@ 131
driven 131
efficient 131
engine 131
forever 131
meat 131
mouth 131
organic 131
pages 131
painting 131
planning 131
viruses 131
warming 131
CO2 130
adults 130
blind 130
block 130
brother 130
do@@ 130
finished 130
ic@@ 130
identity 130
ir@@ 130
languages 130
leads 130
museum 130
noise 130
opportunities 130
profound 130
responsible 130
stuck 130
weapons 130
ages 129
brilliant 129
concerned 129
crime 129
dimensions 129
events 129
evolutionary 129
experiences 129
faces 129
finger 129
giant 129
improve 129
opened 129
shoes 129
steps 129
ters 129
walls 129
Sh@@ 128
T 128
chemistry 128
l 128
lesson 128
necessary 128
po@@ 128
ultimately 128
British 127
Einstein 127
Once 127
Take 127
bees 127
c 127
investment 127
leaving 127
ons 127
operating 127
photo 127
report 127
sister 127
sp@@ 127
2,000 126
Sometimes 126
Washington 126
affect 126
ality 126
dad 126
damage 126
drawing 126
engineer 126
enjoy 126
fields 126
importantly 126
influence 126
mathematics 126
perfectly 126
photos 126
separate 126
signal 126
transform 126
wild 126
5,000 125
Charles 125
advantage 125
ag@@ 125
breast 125
bu@@ 125
childhood 125
cycle 125
designer 125
disaster 125
entirely 125
equivalent 125
fied 125
inner 125
join 125
keeping 125
meters 125
opposite 125
pl@@ 125
spot 125
9@@ 124
Re@@ 124
article 124
begins 124
der 124
galaxy 124
grown 124
lucky 124
mothers 124
neighborhood 124
phones 124
rid 124
wearing 124
Y@@ 123
airplane 123
note 123
predict 123
soil 123
spaces 123
weird 123
Bill 122
San 122
argument 122
capable 122
compared 122
emotions 122
extreme 122
failed 122
mile 122
moves 122
principle 122
random 122
whom 122
wide 122
Everything 121
ad 121
easier 121
ends 121
factory 121
link 121
offer 121
park 121
principles 121
seat 121
spirit 121
survival 121
tens 121
unfortunately 121
8@@ 120
Al@@ 120
See 120
ative 120
civil 120
desert 120
ec@@ 120
gr@@ 120
leadership 120
ma@@ 120
motion 120
mouse 120
otherwise 120
prevent 120
soldiers 120
x 120
Each 119
George 119
R 119
Z@@ 119
alternative 119
chemicals 119
covered 119
pounds 119
producing 119
protein 119
signals 119
worried 119
yesterday 119
account 118
afford 118
agriculture 118
believed 118
bio@@ 118
closed 118
creation 118
despite 118
ently 118
ex@@ 118
exists 118
filled 118
il@@ 118
justice 118
magazine 118
managed 118
ordinary 118
rural 118
toward 118
4 117
Audience 117
European 117
Everybody 117
Go 117
argue 117
artificial 117
contact 117
continent 117
deeply 117
dinosaurs 117
enter 117
foreign 117
hidden 117
invisible 117
metal 117
movies 117
muscle 117
par@@ 117
sum 117
super@@ 117
trip 117
8 116
Anderson 116
Did 116
More 116
adult 116
arms 116
breath 116
co 116
count 116
described 116
designing 116
ending 116
ets 116
faith 116
interface 116
lack 116
no@@ 116
normally 116
ors 116
tech 116
tough 116
treated 116
appear 115
bank 115
ching 115
details 115
distribution 115
end@@ 115
hopefully 115
invited 115
island 115
legal 115
members 115
organized 115
ously 115
pleasure 115
pre 115
shapes 115
shouldn 115
vehicle 115
150 114
3D 114
Over 114
br@@ 114
classroom 114
consequences 114
coral 114
cultures 114
dinner 114
fat 114
feelings 114
fourth 114
har@@ 114
holes 114
joy 114
ol@@ 114
raised 114
seriously 114
studied 114
tomorrow 114
universal 114
wealth 114
Mexico 113
NASA 113
Times 113
bear 113
cognitive 113
collective 113
condition 113
constantly 113
debate 113
electrical 113
exploration 113
grade 113
grandmother 113
highest 113
independent 113
letters 113
malaria 113
metaphor 113
om@@ 113
philosophy 113
represent 113
s.html 113
speech 113
storytelling 113
&apos;@@ 112
100,000 112
Anyway 112
Japanese 112
Prize 112
Th@@ 112
anti 112
coast 112
ful 112
ies 112
layer 112
leader 112
losing 112
majority 112
married 112
mistakes 112
names 112
picked 112
professional 112
ring 112
sugar 112
wire 112
An@@ 111
However 111
arrived 111
avoid 111
deliver 111
dynamic 111
husband 111
ically 111
labor 111
marketing 111
multiple 111
photographs 111
row 111
threat 111
ze 111
20th 110
5@@ 110
James 110
bright 110
businesses 110
demand 110
des 110
email 110
formed 110
generations 110
hell 110
ker 110
players 110
respond 110
roughly 110
strategy 110
traffic 110
Michael 109
Nigeria 109
Three 109
campaign 109
com@@ 109
copy 109
date 109
harder 109
honest 109
match 109
player 109
possibilities 109
print 109
restaurant 109
scene 109
teeth 109
tumor 109
wave 109
35 108
U@@ 108
addition 108
battery 108
chair 108
currently 108
followed 108
hadn 108
hate 108
izing 108
lie 108
matters 108
ment 108
mentioned 108
nations 108
opening 108
paying 108
selling 108
station 108
te 108
ul@@ 108
unless 108
worldwide 108
z 108
England 107
associated 107
beat 107
compare 107
construction 107
consumption 107
due 107
fresh 107
kilometers 107
ky 107
lessons 107
lunch 107
nervous 107
president 107
property 107
proud 107
puts 107
resource 107
reward 107
roll 107
south 107
target 107
um 107
Come 106
acting 106
ain 106
analysis 106
belief 106
curious 106
drink 106
empty 106
fold 106
leaves 106
processes 106
sharks 106
stream 106
te@@ 106
99 105
Britain 105
Pacific 105
bar 105
carefully 105
cre@@ 105
cu@@ 105
dealing 105
detail 105
dry 105
emerging 105
essential 105
experts 105
expression 105
finish 105
ical 105
invest 105
launched 105
medium 105
poetry 105
practical 105
represents 105
round 105
stone 105
surprise 105
thoughts 105
vote 105
weather 105
12@@ 104
Harvard 104
Have 104
Kenya 104
controlled 104
dec@@ 104
dreams 104
ely 104
em 104
existence 104
folks 104
hydrogen 104
north 104
organs 104
promise 104
rain 104
remote 104
sand 104
sides 104
silk 104
suggest 104
super 104
testing 104
theme 104
university 104
wear 104
wood 104
Their 103
affected 103
asks 103
bottle 103
caused 103
cloud 103
collect 103
direct 103
du@@ 103
equipment 103
exercise 103
for@@ 103
humor 103
importance 103
presentation 103
prove 103
river 103
setting 103
so@@ 103
solved 103
spectrum 103
string 103
technical 103
war@@ 103
16@@ 102
45 102
Pro@@ 102
Would 102
YouTube 102
ble 102
bus 102
buying 102
cameras 102
cutting 102
daily 102
effectively 102
evil 102
fell 102
hasn 102
leg 102
molecular 102
sector 102
sentence 102
sites 102
steel 102
stood 102
str@@ 102
ter@@ 102
wine 102
7 101
Dan 101
Institute 101
President 101
according 101
ah 101
characters 101
computing 101
crowd 101
dots 101
flat 101
gravity 101
hand@@ 101
increasing 101
introduced 101
location 101
op@@ 101
saved 101
shaped 101
spoke 101
sw@@ 101
up@@ 101
valuable 101
ying 101
21st 100
Center 100
Facebook 100
Mar@@ 100
absolute 100
acts 100
chain 100
clinical 100
cr@@ 100
ear 100
equal 100
factor 100
generate 100
houses 100
newspaper 100
organism 100
partner 100
primary 100
radiation 100
ses 100
stupid 100
tu@@ 100
um@@ 100
videos 100
13@@ 99
3,000 99
6 99
Darwin 99
Iran 99
Islam 99
Wikipedia 99
define 99
definitely 99
diet 99
facing 99
farm 99
infected 99
interaction 99
lies 99
limited 99
mortality 99
photography 99
rapidly 99
rates 99
safety 99
sub 99
tions 99
trans@@ 99
variety 99
5 98
alized 98
connections 98
driver 98
emissions 98
instrument 98
killing 98
ler 98
library 98
liked 98
trick 98
ve 98
warm 98
waves 98
worlds 98
10@@ 97
accept 97
awful 97
budget 97
calling 97
coal 97
considered 97
cur@@ 97
curve 97
display 97
emotion 97
environments 97
forced 97
grid 97
heavy 97
introduce 97
pre@@ 97
regular 97
serve 97
sets 97
shop 97
struggle 97
swim 97
techniques 97
tons 97
users 97
vaccine 97
ard 96
epidemic 96
fellow 96
generally 96
ingly 96
intellectual 96
lets 96
liquid 96
ma 96
manage 96
master 96
radical 96
ride 96
satellite 96
sources 96
specifically 96
status 96
style 96
transformation 96
underneath 96
75 95
Thomas 95
ars 95
bs 95
cor@@ 95
den@@ 95
feedback 95
fill 95
graduate 95
lifetime 95
maps 95
me@@ 95
ory 95
ought 95
personally 95
processing 95
rare 95
ten 95
user 95
Twitter 94
accident 94
architect 94
ched 94
consumer 94
convince 94
cortex 94
ders 94
ears 94
gu@@ 94
ill 94
laptop 94
lay 94
logic 94
microbes 94
movements 94
passionate 94
perception 94
platform 94
pollution 94
ray 94
requires 94
ry 94
sensitive 94
shark 94
tically 94
19 93
600 93
Muslim 93
Please 93
Robert 93
Street 93
atoms 93
bomb 93
cooking 93
destruction 93
experienced 93
gap 93
gold 93
hits 93
identify 93
ke 93
ni@@ 93
protected 93
proteins 93
relatively 93
reverse 93
sad 93
suppose 93
surprised 93
unusual 93
.@@ 92
School 92
added 92
combination 92
comfortable 92
credit 92
dy 92
employees 92
entrepreneurs 92
expected 92
explains 92
grain 92
he@@ 92
horse 92
interests 92
marriage 92
mention 92
motor 92
previous 92
reaction 92
sphere 92
sunlight 92
transportation 92
Co@@ 91
U.N. 91
Women 91
Wow 91
carrying 91
defined 91
efficiency 91
fail 91
fair 91
fossil 91
gi@@ 91
homes 91
increasingly 91
logical 91
micro@@ 91
mistake 91
naturally 91
peak 91
ph@@ 91
pop 91
profit 91
quiet 91
smell 91
studio 91
suggests 91
sustainability 91
swimming 91
switch 91
technological 91
tradition 91
typically 91
voices 91
winter 91
Last 90
amp 90
ancestors 90
blocks 90
boring 90
burn 90
chicken 90
click 90
components 90
convinced 90
creature 90
discussion 90
falling 90
go@@ 90
goods 90
joke 90
lady 90
ley 90
mathematical 90
paint 90
penguins 90
risks 90
sees 90
situations 90
skill 90
2008 89
Francisco 89
Her 89
King 89
Mo@@ 89
Pakistan 89
St@@ 89
U.K. 89
advanced 89
broke 89
clip 89
encourage 89
explained 89
foundation 89
honor 89
mirror 89
occurred 89
opinion 89
presence 89
pulled 89
quantum 89
relevant 89
sample 89
sending 89
singing 89
smile 89
tri@@ 89
unit 89
wars 89
watched 89
21 88
Five 88
Steve 88
ably 88
aspect 88
camp 88
centers 88
ens 88
express 88
fingers 88
flowers 88
kitchen 88
mar@@ 88
neighbors 88
piano 88
plus 88
release 88
rooms 88
solving 88
strength 88
the@@ 88
therapy 88
trials 88
visible 88
wake 88
zing 88
Could 87
S 87
alize 87
bar@@ 87
climb 87
depends 87
els 87
error 87
ess 87
exchange 87
her@@ 87
ing@@ 87
method 87
operation 87
percentage 87
polio 87
prepared 87
protection 87
researchers 87
roof 87
split 87
u 87
ultimate 87
upper 87
violent 87
whenever 87
wondering 87
Bank 86
Ex@@ 86
GDP 86
admit 86
appropriate 86
boxes 86
feeding 86
films 86
fishing 86
input 86
keeps 86
kers 86
literature 86
mid 86
mountains 86
received 86
require 86
selection 86
sophisticated 86
traveling 86
tw@@ 86
ves 86
w 86
wh@@ 86
writer 86
2000 85
Project 85
September 85
ats 85
attempt 85
ber 85
decline 85
der@@ 85
ering 85
exact 85
explanation 85
factors 85
fewer 85
ff 85
framework 85
garden 85
gentlemen 85
gift 85
goals 85
management 85
notes 85
odd 85
qu@@ 85
quarter 85
relative 85
runs 85
shoot 85
solid 85
staff 85
surgeon 85
transition 85
Arab 84
Bo@@ 84
Gulf 84
II 84
Ro@@ 84
attacks 84
awareness 84
capture 84
cards 84
collapse 84
conscious 84
dancing 84
democratic 84
dogs 84
dropped 84
engaged 84
figures 84
gain 84
hero 84
hoping 84
insight 84
length 84
linked 84
musical 84
organ 84
powered 84
st 84
tries 84
ur@@ 84
vulnerable 84
Also 83
Brazil 83
Chicago 83
Germany 83
amounts 83
angle 83
applied 83
ay@@ 83
blog 83
burning 83
confidence 83
da 83
depression 83
ecosystem 83
eggs 83
element 83
evolve 83
falls 83
load 83
monkeys 83
pair 83
productive 83
properties 83
reached 83
roads 83
senses 83
star@@ 83
sweet 83
tape 83
unknown 83
2007 82
Boston 82
Bush 82
Per@@ 82
ass@@ 82
axis 82
behavioral 82
breathe 82
designs 82
director 82
ery 82
ge@@ 82
ics 82
il 82
mer@@ 82
olds 82
pr@@ 82
professor 82
proof 82
regions 82
suit 82
60s 81
Canada 81
O 81
Science 81
abstract 81
alism 81
architects 81
behaviors 81
conclusion 81
connecting 81
continued 81
deeper 81
existing 81
facts 81
lying 81
messages 81
monkey 81
ne@@ 81
nose 81
papers 81
participate 81
plays 81
pure 81
puzzle 81
replace 81
shame 81
shoulder 81
tests 81
volume 81
22 80
Par@@ 80
TEDx@@ 80
Valley 80
actions 80
activities 80
advice 80
ational 80
cents 80
ches 80
combine 80
dramatic 80
ed@@ 80
frame 80
gram 80
grand 80
hi@@ 80
measured 80
member 80
mor@@ 80
ner 80
paradigm 80
ping 80
pollen 80
prize 80
reference 80
relate 80
ru@@ 80
squ@@ 80
taste 80
tea 80
trillion 80
unlike 80
us@@ 80
1@@ 79
26 79
About 79
Australia 79
Union 79
church 79
closely 79
determine 79
dies 79
drives 79
entrepreneur 79
fundamentally 79
gl@@ 79
gun 79
instruments 79
novel 79
partners 79
ped 79
plans 79
poem 79
records 79
religions 79
resolution 79
seed 79
vessels 79
villages 79
zoom 79
95 78
Basically 78
Israel 78
afternoon 78
appreciate 78
back@@ 78
battle 78
circumstances 78
equation 78
ev@@ 78
expert 78
features 78
gray 78
handle 78
hospitals 78
innovative 78
institution 78
limits 78
pack 78
politicians 78
remains 78
sexual 78
sl@@ 78
soft 78
we@@ 78
wheel 78
wherever 78
20,000 77
Apple 77
Me@@ 77
accurate 77
ack 77
aries 77
ber@@ 77
bones 77
brief 77
challenging 77
combined 77
concepts 77
correct 77
crash 77
dense 77
dly 77
electronic 77
horrible 77
however 77
iPhone 77
implications 77
include 77
inspiration 77
largely 77
multi 77
pping 77
presented 77
recorded 77
remind 77
sculpture 77
shall 77
symmetry 77
tie 77
unclear 77
vi@@ 77
Africans 76
Day 76
France 76
Since 76
State 76
Yet 76
biodiversity 76
blow 76
busy 76
classic 76
commitment 76
ess@@ 76
ey 76
invent 76
ize 76
laugh 76
ours 76
outcome 76
parking 76
signs 76
soul 76
spider 76
spoken 76
tag 76
technique 76
ten@@ 76
trend 76
whales 76
zone 76
AB 75
Ah 75
Paris 75
agreed 75
algorithms 75
bling 75
can@@ 75
cow 75
dozen 75
embrace 75
faced 75
fund 75
hurt 75
increased 75
launch 75
manufacturing 75
min@@ 75
pa@@ 75
potentially 75
prices 75
ris@@ 75
sensors 75
somewhat 75
songs 75
tics 75
treating 75
unexpected 75
vehicles 75
zed 75
2005 74
27 74
Art 74
Does 74
applications 74
authority 74
automatically 74
causing 74
component 74
density 74
detect 74
down@@ 74
fed 74
gang 74
ge 74
generated 74
infinite 74
interview 74
liver 74
mystery 74
options 74
physically 74
plate 74
productivity 74
raw 74
released 74
required 74
simplicity 74
spiritual 74
statement 74
tor@@ 74
ture 74
un 74
victims 74
wireless 74
Bang 73
German 73
Muslims 73
Woman 73
appears 73
av@@ 73
bag 73
carried 73
celebrate 73
centuries 73
clothes 73
collected 73
comfort 73
constant 73
corruption 73
deaths 73
doubt 73
enti@@ 73
false 73
former 73
frankly 73
ha 73
id@@ 73
identical 73
inspiring 73
intense 73
ite 73
joined 73
marine 73
mark 73
meaningful 73
nor 73
occur 73
ology 73
operate 73
os 73
particle 73
performing 73
poorest 73
ra@@ 73
remain 73
sive 73
thin 73
topic 73
tour 73
transformed 73
translate 73
whale 73
19th 72
65 72
Bible 72
DH 72
De@@ 72
Foundation 72
Microsoft 72
Really 72
Unfortunately 72
While 72
actors 72
ads 72
au@@ 72
balloon 72
bike 72
birthday 72
bubble 72
bur@@ 72
claim 72
conventional 72
danger 72
depend 72
divided 72
eg@@ 72
emergency 72
evening 72
extent 72
heroes 72
hotel 72
ig@@ 72
incentives 72
interactive 72
latest 72
locked 72
mate 72
nest 72
nets 72
orbit 72
perform 72
r 72
scan 72
stable 72
stress 72
thanks 72
touched 72
tube 72
underwater 72
50,000 71
Be@@ 71
Car@@ 71
El@@ 71
Four 71
Los 71
Something 71
Tom 71
accessible 71
advertising 71
aged 71
air@@ 71
author 71
breathing 71
careful 71
chip 71
directions 71
distributed 71
dynamics 71
economies 71
economists 71
empathy 71
exploring 71
fake 71
feature 71
flew 71
funding 71
fying 71
ial 71
ion 71
laser 71
measuring 71
ms 71
ning 71
option 71
pregnant 71
rising 71
section 71
ships 71
stronger 71
su@@ 71
subjects 71
tonight 71
tur@@ 71
walks 71
wed 71
younger 71
ys 71
19@@ 70
BF 70
Christmas 70
Islamic 70
Number 70
Peter 70
Sweden 70
White 70
all@@ 70
anger 70
animation 70
army 70
assume 70
ay 70
band 70
beach 70
desk 70
enemy 70
exhibition 70
finance 70
friendly 70
fy 70
globe 70
links 70
logy 70
lovely 70
mechanism 70
ments 70
ob@@ 70
origami 70
overall 70
painful 70
parent 70
pig 70
placed 70
root 70
season 70
seeds 70
sm@@ 70
sports 70
spring 70
stands 70
telephone 70
till 70
tracking 70
x@@ 70
2004 69
70s 69
Haiti 69
actor 69
aircraft 69
chart 69
clever 69
consumers 69
divide 69
election 69
ese 69
f 69
funded 69
golf 69
hu@@ 69
immune 69
increases 69
inf@@ 69
laboratory 69
lt 69
lung 69
mat@@ 69
mon@@ 69
neuro@@ 69
output 69
passing 69
rational 69
rem@@ 69
remove 69
samples 69
seats 69
severe 69
smallpox 69
spreading 69
standards 69
sur@@ 69
wondered 69
15@@ 68
32 68
Ad@@ 68
Before 68
Com@@ 68
Di@@ 68
Hollywood 68
Island 68
Nobel 68
Nobody 68
Oxford 68
Pl@@ 68
allowing 68
aw@@ 68
cure 68
dignity 68
dish 68
embedded 68
forming 68
frequency 68
functions 68
ged 68
gender 68
ier 68
loop 68
mess 68
micro 68
mix 68
oldest 68
organize 68
recording 68
repair 68
rocket 68
sal@@ 68
sho@@ 68
tic@@ 68
toxic 68
toy 68
windows 68
2009 67
80s 67
Gu@@ 67
Museum 67
Never 67
Obama 67
Pole 67
Red 67
cat 67
che@@ 67
department 67
disappear 67
drinking 67
educational 67
enable 67
exposed 67
floating 67
fo@@ 67
furniture 67
grows 67
hide 67
inch 67
lighting 67
opposed 67
paintings 67
peer 67
pi@@ 67
printing 67
probability 67
pushing 67
removed 67
shock 67
sight 67
speakers 67
ver@@ 67
wanting 67
ws 67
23 66
Any 66
Eastern 66
Finally 66
Ghana 66
Gore 66
June 66
RB 66
Video 66
adventure 66
application 66
architectural 66
aspects 66
astonishing 66
bars 66
brothers 66
cas@@ 66
clock 66
conflicts 66
controlling 66
cook 66
demo 66
depending 66
des@@ 66
ear@@ 66
equally 66
estimate 66
existed 66
facial 66
ff@@ 66
genius 66
graphics 66
holds 66
housing 66
hunger 66
id 66
ingredients 66
iron 66
ise 66
land@@ 66
morality 66
ot 66
pace 66
parallel 66
phase 66
pocket 66
polar 66
properly 66
robotic 66
romantic 66
savings 66
scared 66
scary 66
surfaces 66
truck 66
weak 66
wi@@ 66
wise 66
Congress 65
Martin 65
May 65
Other 65
Russia 65
Rwanda 65
acy 65
ai@@ 65
anti@@ 65
artistic 65
ass 65
behave 65
breaking 65
button 65
chest 65
chose 65
contains 65
disappeared 65
expand 65
fe@@ 65
fifth 65
fr@@ 65
grab 65
gs 65
hall 65
healthcare 65
illusion 65
inspire 65
internal 65
ished 65
layers 65
limb 65
man@@ 65
os@@ 65
overcome 65
pen 65
plenty 65
prototype 65
raising 65
reaching 65
recognition 65
roots 65
script 65
session 65
snow 65
spots 65
surrounded 65
wired 65
Latin 64
Li@@ 64
Narrator 64
adapt 64
apple 64
ce@@ 64
chocolate 64
concrete 64
corn 64
destroyed 64
dimension 64
dinosaur 64
dioxide 64
dramatically 64
educated 64
engaging 64
fixed 64
frozen 64
fuels 64
genetics 64
graphic 64
gt 64
host 64
journalist 64
lens 64
lock 64
maintain 64
meetings 64
milk 64
narrative 64
obesity 64
pile 64
provides 64
pyramid 64
qualities 64
recognized 64
silence 64
slides 64
smoke 64
ste@@ 64
stores 64
succeed 64
symbol 64
synthetic 64
tical 64
ward 64
Child 63
Egypt 63
H 63
Le@@ 63
Long 63
Stanford 63
bee 63
cher 63
comedy 63
consequence 63
contain 63
cry 63
curiosity 63
diabetes 63
distant 63
diverse 63
extinct 63
flies 63
functional 63
graphy 63
grass 63
height 63
ideal 63
ization 63
jail 63
killer 63
ladies 63
lift 63
miss 63
nowhere 63
obsessed 63
physicist 63
scales 63
sheep 63
shirt 63
spin 63
stayed 63
sun@@ 63
survey 63
tall 63
tested 63
tragedy 63
vers 63
virtually 63
volunteers 63
17@@ 62
Be 62
General 62
Get 62
Mc@@ 62
Next 62
Un@@ 62
Y 62
afterwards 62
ak@@ 62
ang@@ 62
beer 62
bicycle 62
borders 62
channel 62
classes 62
collection 62
consume 62
contrast 62
corporate 62
demonstrate 62
drawn 62
elsewhere 62
eting 62
fiber 62
flower 62
ft 62
herself 62
illness 62
ines 62
ins 62
ites 62
ke@@ 62
met@@ 62
muscles 62
offered 62
offers 62
pen@@ 62
precise 62
precisely 62
provided 62
providing 62
psychological 62
recovery 62
reflect 62
rely 62
repeat 62
represented 62
rescue 62
rocks 62
shopping 62
signed 62
spec@@ 62
symptoms 62
tasks 62
tering 62
vertical 62
4,000 61
Green 61
K 61
Perhaps 61
Remember 61
ale 61
apartment 61
atic 61
atory 61
bet 61
chosen 61
contemporary 61
cute 61
dedicated 61
den 61
dirty 61
eds 61
entered 61
ep@@ 61
gen@@ 61
granted 61
industries 61
intuitive 61
istic 61
kes 61
laid 61
linear 61
ns 61
origin 61
pandemic 61
pump 61
rec@@ 61
reef 61
sales 61
shifting 61
skull 61
surely 61
teams 61
thrown 61
trends 61
winning 61
worker 61
2010 60
Atlantic 60
Ethiopia 60
G 60
Give 60
Italy 60
Korea 60
Mark 60
Moore 60
Park 60
Rome 60
Uganda 60
angry 60
appeared 60
attached 60
bly 60
cable 60
ce 60
characteristics 60
circuit 60
clients 60
clinic 60
copyright 60
destroy 60
ell@@ 60
ent@@ 60
ethical 60
globalization 60
hang 60
illegal 60
imagined 60
initial 60
iz@@ 60
jo@@ 60
legacy 60
lethal 60
mal@@ 60
missed 60
monitor 60
neighbor 60
nu@@ 60
opens 60
powers 60
pu@@ 60
pulling 60
serving 60
sion 60
spectacular 60
struck 60
ta 60
tone 60
tuna 60
ver 60
vital 60
whereas 60
250 59
Boy 59
F 59
Girl 59
Har@@ 59
Health 59
Hi 59
House 59
International 59
January 59
Manhattan 59
Only 59
Po@@ 59
Sea 59
Steven 59
agricultural 59
aside 59
awesome 59
backwards 59
boundaries 59
calculate 59
colleague 59
collecting 59
conclude 59
continues 59
contribute 59
crops 59
darkness 59
dependent 59
describes 59
drill 59
earn 59
east 59
escape 59
extract 59
farmer 59
fears 59
filter 59
footprint 59
grand@@ 59
headed 59
heaven 59
hitting 59
ie 59
interacting 59
magnetic 59
microscope 59
neither 59
owned 59
personality 59
populations 59
predictions 59
pur@@ 59
quest 59
shut 59
slavery 59
stations 59
stock 59
suicide 59
terrorism 59
ths 59
tly 59
tribes 59
units 59
2001 58
2003 58
2006 58
700 58
Angeles 58
Bi@@ 58
Howard 58
Jo@@ 58
Nothing 58
P 58
Qu@@ 58
Saturn 58
Six 58
Su@@ 58
ak 58
ash 58
bold 58
briefly 58
controls 58
cooperation 58
courage 58
crack 58
det@@ 58
dive 58
dot 58
facility 58
governance 58
hearts 58
hip 58
hire 58
ians 58
includes 58
involves 58
iting 58
likes 58
ls 58
maker 58
meal 58
ming 58
neuroscience 58
optimistic 58
organizing 58
ou@@ 58
philanthropy 58
picking 58
pin@@ 58
plot 58
pound 58
produces 58
sauce 58
sensory 58
separated 58
tied 58
tired 58
tro@@ 58
unbelievable 58
viral 58
vulnerability 58
90s 57
Congo 57
Isn 57
Ocean 57
Somebody 57
Time 57
V 57
achieved 57
ade 57
ake 57
alist 57
alization 57
beliefs 57
bing 57
brown 57
builds 57
by@@ 57
categories 57
colony 57
communications 57
crossing 57
del@@ 57
depth 57
diagram 57
dress 57
drove 57
dust 57
earthquake 57
ect 57
efforts 57
emerge 57
encounter 57
explosion 57
fabulous 57
fascinated 57
favor 57
finds 57
fits 57
focusing 57
football 57
founded 57
glamorous 57
integrated 57
judge 57
landed 57
license 57
loud 57
mechanical 57
meter 57
minister 57
neat 57
observation 57
ologist 57
oning 57
orange 57
phantom 57
phrase 57
pigs 57
realm 57
ridiculous 57
robust 57
served 57
shell 57
shrimp 57
smooth 57
theories 57
toys 57
traveled 57
ven@@ 57
via 57
west 57
Ben 56
Bronx 56
Everyone 56
Human 56
Mom 56
Nature 56
Northern 56
October 56
Se@@ 56
Ten 56
Wall 56
Will 56
agenda 56
ah@@ 56
asteroid 56
blogs 56
boom 56
bucks 56
bul@@ 56
cast 56
ci@@ 56
climbing 56
concern 56
crying 56
cycles 56
defense 56
discuss 56
document 56
fabric 56
fiction 56
habitat 56
hanging 56
harm 56
ina 56
inches 56
iness 56
intuition 56
mainly 56
methods 56
mice 56
mid@@ 56
mixed 56
northern 56
oc@@ 56
permanent 56
pool 56
prefer 56
privilege 56
rats 56
sharp 56
speaker 56
stages 56
ster 56
tes 56
thick 56
usual 56
vacuum 56
800 55
Department 55
Frank 55
Revolution 55
X@@ 55
activism 55
bizarre 55
breaks 55
captured 55
cartoon 55
chief 55
chimpanzees 55
compassionate 55
cup 55
dge 55
edges 55
engineered 55
fan 55
grandfather 55
harvest 55
hungry 55
instructions 55
interactions 55
leverage 55
magical 55
makers 55
neural 55
neuron 55
nurses 55
off@@ 55
om 55
onal 55
pilot 55
positions 55
relief 55
resistance 55
rice 55
sleeping 55
suffer 55
tap 55
tional 55
tip 55
tor 55
tracks 55
traditions 55
upset 55
van 55
wer 55
14@@ 54
30,000 54
85 54
En@@ 54
Florida 54
KB 54
Make 54
Nations 54
Ray 54
Soviet 54
Taliban 54
Tell 54
Texas 54
Tim 54
Voice 54
apparently 54
bre@@ 54
cave 54
chaos 54
cs 54
dung 54
explaining 54
fathers 54
fer@@ 54
flip 54
flu@@ 54
god 54
golden 54
gre@@ 54
guide 54
hey 54
hom@@ 54
ignore 54
innovations 54
letting 54
ne 54
official 54
ol 54
perceive 54
photographer 54
plug 54
predicted 54
programming 54
rays 54
regret 54
sandwich 54
shake 54
sticks 54
telescope 54
translation 54
transmission 54
ugly 54
ve@@ 54
writers 54
youth 54
.com 53
28 53
55 53
Cambridge 53
Minister 53
Or@@ 53
Research 53
balls 53
border 53
collaborative 53
conversations 53
counter 53
demos 53
depressed 53
discoveries 53
elected 53
entropy 53
flexible 53
fluid 53
genocide 53
glasses 53
gut 53
ils 53
improvement 53
insurance 53
lifestyle 53
lin@@ 53
males 53
mechanics 53
memes 53
mosquito 53
outer 53
paralyzed 53
physician 53
promote 53
relations 53
sc@@ 53
secure 53
strategies 53
tank 53
tax 53
tent 53
tribe 53
tru@@ 53
underground 53
unlikely 53
v 53
48 52
Adam 52
For@@ 52
Homo 52
Jewish 52
L 52
Mon@@ 52
To@@ 52
academic 52
ace 52
adding 52
af@@ 52
affects 52
affordable 52
agency 52
alien 52
and@@ 52
assembly 52
barely 52
bin 52
biologists 52
bound 52
clouds 52
conservation 52
constructed 52
contract 52
daughters 52
delivered 52
e.html 52
eling 52
ening 52
expanding 52
extended 52
fin@@ 52
fires 52
flag 52
forests 52
forgotten 52
genetically 52
greenhouse 52
hardware 52
historical 52
imagery 52
informed 52
logist 52
mail 52
mer 52
musicians 52
ned 52
nerve 52
originally 52
oxytocin 52
pres@@ 52
reduction 52
replicate 52
reports 52
representation 52
sacred 52
sheet 52
simulation 52
sisters 52
spo@@ 52
subtle 52
surprisingly 52
symbols 52
tendency 52
thirds 52
trash 52
tures 52
variation 52
visited 52
washing 52
weapon 52
yours 52
120 51
50s 51
Blue 51
Central 51
Hello 51
Jesus 51
Law 51
Whether 51
advance 51
ati@@ 51
bat@@ 51
bears 51
bio 51
buried 51
capita 51
cheaper 51
circles 51
clay 51
covering 51
dri@@ 51
eaten 51
emerged 51
engagement 51
ents 51
ew 51
exponential 51
ey@@ 51
fi@@ 51
figuring 51
foods 51
gather 51
gathering 51
glad 51
hal@@ 51
happier 51
hardly 51
historic 51
immediate 51
ink 51
insect 51
jumped 51
lecture 51
loc@@ 51
mad 51
mammals 51
methane 51
motivation 51
mu@@ 51
policies 51
prime 51
primitive 51
rarely 51
receive 51
restaurants 51
revenue 51
ser@@ 51
sits 51
soci@@ 51
southern 51
storm 51
tears 51
transparent 51
transplant 51
underlying 51
vegetables 51
whatsoever 51
work@@ 51
1990s 50
20@@ 50
33 50
Antarctica 50
Arctic 50
Br@@ 50
Brown 50
Her@@ 50
Secondly 50
Should 50
Space 50
U 50
accepted 50
accidents 50
airport 50
app 50
attract 50
bags 50
begun 50
bro@@ 50
capability 50
chapter 50
charges 50
closing 50
committed 50
computation 50
determined 50
dictionary 50
domestic 50
dominant 50
electronics 50
errors 50
fore@@ 50
fortunate 50
generating 50
geometry 50
invite 50
lawyer 50
limit 50
myth 50
needle 50
nurse 50
outcomes 50
parties 50
permission 50
pitch 50
por@@ 50
primarily 50
protecting 50
realistic 50
ren@@ 50
sciences 50
seek 50
senior 50
sle@@ 50
stops 50
successfully 50
supported 50
ther@@ 50
treatments 50
vagina 50
6,000 49
Children 49
Delhi 49
February 49
Feynman 49
Go@@ 49
Jim 49
Johnson 49
Kevin 49
MRI 49
Mal@@ 49
Saharan 49
Same 49
Sir 49
Stage 49
Sur@@ 49
Third 49
Tony 49
Watch 49
ab 49
abilities 49
agent 49
altitude 49
ances 49
announced 49
ately 49
bill 49
blown 49
bri@@ 49
bulb 49
chairs 49
clo@@ 49
command 49
cosmic 49
crucial 49
discovering 49
diving 49
drivers 49
ecosystems 49
entering 49
est@@ 49
expectations 49
fragile 49
garbage 49
glamour 49
globally 49
impacts 49
labs 49
located 49
lu@@ 49
mode 49
narrow 49
nuts 49
oo@@ 49
owner 49
photographed 49
precious 49
printer 49
pushed 49
puzzles 49
rebuild 49
recover 49
reefs 49
rel@@ 49
reminds 49
shadow 49
terror 49
troops 49
tsunami 49
tumors 49
ular 49
uncertainty 49
uncle 49
uncomfortable 49
worms 49
Bel@@ 48
Christian 48
Dutch 48
Jack 48
Lab 48
Ma@@ 48
Monterey 48
Put 48
SW 48
Stephen 48
TEDTalk 48
Turkey 48
US 48
aff@@ 48
ain@@ 48
alizing 48
ancy 48
ane 48
attitude 48
audio 48
ays 48
banks 48
bombs 48
bottles 48
broad 48
client 48
clothing 48
curriculum 48
dem@@ 48
demographic 48
diagnosed 48
empowered 48
ered 48
ero@@ 48
expectancy 48
experimental 48
gar@@ 48
gentleman 48
geo@@ 48
grandchildren 48
ine@@ 48
ited 48
lap 48
mapping 48
medi@@ 48
memories 48
opera 48
operations 48
partly 48
pink 48
pointed 48
rapid 48
recipe 48
reduced 48
regime 48
resistant 48
restore 48
reveal 48
rings 48
searching 48
seas 48
shooting 48
smallest 48
static 48
suck 48
suspect 48
talent 48
targets 48
throwing 48
toilet 48
trucks 48
wers 48
winds 48
wings 48
zation 48
72 47
Brian 47
Hong 47
Koran 47
Larry 47
MS 47
Mor@@ 47
No@@ 47
Obviously 47
River 47
Shanghai 47
Whereas 47
acid 47
airplanes 47
analyze 47
arrive 47
astronomy 47
att@@ 47
bas@@ 47
cash 47
category 47
cats 47
cent 47
charity 47
choosing 47
chromosome 47
connects 47
curves 47
customers 47
difficulty 47
domain 47
drops 47
ects 47
eless 47
ex 47
extend 47
failing 47
flowing 47
formula 47
gaps 47
head@@ 47
ily 47
ka 47
lands 47
lawyers 47
med 47
merely 47
mysterious 47
naked 47
odds 47
offices 47
ong 47
orchestra 47
origins 47
ownership 47
pon@@ 47
printed 47
proper 47
realizing 47
reliable 47
reported 47
responses 47
route 47
silent 47
silly 47
sk@@ 47
stroke 47
subway 47
threshold 47
threw 47
transfer 47
translated 47
transparency 47
tricks 47
ulate 47
wandering 47
wat@@ 47
welcome 47
1960 46
36 46
Au@@ 46
Bob 46
Bu@@ 46
Coke 46
Cor@@ 46
Design 46
Friday 46
Gates 46
Italian 46
JH 46
Listen 46
None 46
Russian 46
Santa 46
Zero 46
adopted 46
ail 46
ali@@ 46
alities 46
amongst 46
answered 46
articles 46
ash@@ 46
assumptions 46
atomic 46
besides 46
boards 46
bubbles 46
canopy 46
ces 46
clu@@ 46
club 46
colored 46
compelling 46
confident 46
continuous 46
cricket 46
dear 46
demonstration 46
detailed 46
devil 46
din@@ 46
dough 46
drawings 46
ecological 46
elections 46
enabled 46
expansion 46
external 46
extinction 46
fastest 46
flows 46
formation 46
fortune 46
fraction 46
guns 46
honey 46
imaging 46
improving 46
inevitable 46
insights 46
jellyfish 46
jihad 46
lake 46
luck 46
mechanisms 46
multi@@ 46
ologists 46
painted 46
penguin 46
portion 46
refer 46
relation 46
rent 46
rolling 46
rush 46
salt 46
scores 46
sentences 46
shit 46
signature 46
simultaneously 46
soldier 46
stability 46
sti@@ 46
struggling 46
suggesting 46
syndrome 46
terribly 46
ticket 46
tiles 46
tune 46
universities 46
views 46
wor@@ 46
1,@@ 45
29 45
40,000 45
April 45
Back 45
Ge@@ 45
Hu@@ 45
Indeed 45
Lee 45
PM 45
Smith 45
Spanish 45
We@@ 45
Within 45
abuse 45
adapted 45
amed 45
atively 45
belong 45
blame 45
bles 45
bo 45
bon@@ 45
caring 45
ceiling 45
cellular 45
channels 45
cho@@ 45
court 45
deserve 45
detection 45
dialogue 45
dig 45
dozens 45
ecology 45
elementary 45
elephant 45
established 45
exception 45
expedition 45
fre@@ 45
fusion 45
ging 45
hum@@ 45
humanitarian 45
hur@@ 45
identified 45
injury 45
innocent 45
integration 45
interestingly 45
interpretation 45
kindness 45
lea@@ 45
logo 45
mas@@ 45
meme 45
mesh 45
miracle 45
nerves 45
od@@ 45
ooh 45
ore 45
pan@@ 45
pointing 45
poster 45
presents 45
preserve 45
prevention 45
queen 45
radi@@ 45
react 45
reform 45
researcher 45
sec@@ 45
seeking 45
sensation 45
sequences 45
shelter 45
sixth 45
smarter 45
spr@@ 45
steal 45
stones 45
strike 45
sum@@ 45
sustain 45
tends 45
ther 45
thers 45
transport 45
urge 45
warning 45
zes 45
2002 44
37 44
Abraham 44
Act 44
Amazon 44
Benjamin 44
Daniel 44
Ford 44
Islands 44
Me 44
Ne@@ 44
Ph.D. 44
Things 44
Vietnam 44
Without 44
administration 44
aking 44
ana 44
ant@@ 44
antibiotics 44
appearance 44
array 44
assemble 44
biologist 44
bored 44
burden 44
cheese 44
comic 44
comment 44
comparison 44
covers 44
dilemma 44
disorder 44
dressed 44
dy@@ 44
egg 44
eng@@ 44
eter 44
ethnic 44
expertise 44
fruit 44
garage 44
grant 44
ham 44
homework 44
hunting 44
ick@@ 44
ill@@ 44
islands 44
ken 44
kills 44
la@@ 44
liberal 44
marks 44
marry 44
masses 44
mathematicians 44
miserable 44
ner@@ 44
openness 44
planes 44
planetary 44
poly@@ 44
prediction 44
prepare 44
prisoners 44
pursuit 44
rat 44
rhythm 44
richer 44
scanning 44
scenario 44
shots 44
silver 44
staying 44
storage 44
suspended 44
tac@@ 44
teenagers 44
traits 44
wash 44
wider 44
win@@ 44
wires 44
47 43
CEO 43
Greek 43
He@@ 43
LG 43
M 43
Mu@@ 43
Sch@@ 43
Stop 43
System 43
Talk 43
Up 43
Virginia 43
accounts 43
ach@@ 43
algorithm 43
alists 43
ards 43
assumption 43
bend 43
beneath 43
bor@@ 43
camps 43
cap@@ 43
capabilities 43
chips 43
civilizations 43
coat 43
comp@@ 43
continents 43
convert 43
criminal 43
cuts 43
database 43
deaf 43
dev@@ 43
discipline 43
download 43
economist 43
elite 43
enables 43
ency 43
equations 43
eu@@ 43
facilities 43
fancy 43
federal 43
footage 43
gesture 43
gradually 43
gri@@ 43
headlines 43
hired 43
hypothesis 43
influenced 43
inging 43
initially 43
initiative 43
internet 43
investing 43
ishing 43
izes 43
laptops 43
lic@@ 43
manual 43
mem@@ 43
minimum 43
my@@ 43
nutrients 43
obstacles 43
partnership 43
performed 43
physicists 43
poet 43
pretend 43
reminded 43
replaced 43
review 43
sheets 43
shelf 43
sis 43
sized 43
spill 43
substance 43
teaches 43
tele@@ 43
tin@@ 43
toes 43
trajectory 43
ubiquitous 43
unhappy 43
van@@ 43
vessel 43
volunteer 43
wheat 43
widely 43
wn 43
1980s 42
200,000 42
Ac@@ 42
Council 42
December 42
Except 42
Force 42
Hall 42
Hans 42
Henry 42
N 42
SS 42
Was 42
ach 42
affecting 42
ams 42
antly 42
apes 42
audiences 42
authentic 42
backs 42
boats 42
branch 42
chances 42
closest 42
comics 42
concert 42
consciously 42
cotton 42
cour@@ 42
cylinder 42
deals 42
delivery 42
documents 42
donor 42
drew 42
drum 42
earliest 42
educate 42
experiencing 42
fa@@ 42
farming 42
firm 42
freely 42
generous 42
gods 42
hat 42
healing 42
healthier 42
hear@@ 42
hy@@ 42
ignored 42
illustrate 42
impression 42
ination 42
infection 42
instant 42
interior 42
isolated 42
kick 42
landscapes 42
leap 42
machinery 42
meals 42
microbial 42
ongoing 42
package 42
packed 42
peaceful 42
pers 42
plain 42
port 42
practices 42
profits 42
profoundly 42
proportion 42
prosthetic 42
purposes 42
resilience 42
retro@@ 42
score 42
shine 42
shocking 42
sli@@ 42
sons 42
sport 42
stored 42
suffered 42
suggested 42
tension 42
trace 42
tragic 42
uc@@ 42
unable 42
upside 42
visualization 42
wealthy 42
witness 42
wrap 42
1960s 41
AK 41
Age 41
Alexander 41
Alzheimer 41
Am@@ 41
Anybody 41
Arabic 41
College 41
Eric 41
Grand 41
Greenland 41
Indus 41
Inter@@ 41
Iranian 41
Scott 41
Ti@@ 41
Way 41
analogy 41
assignment 41
autonomous 41
bil@@ 41
biosphere 41
burned 41
cake 41
cart 41
cat@@ 41
chromosomes 41
collapsed 41
concentration 41
conservative 41
correctly 41
counter@@ 41
def@@ 41
despair 41
destiny 41
distinct 41
dominated 41
dropping 41
duc@@ 41
dumb 41
electron 41
elegant 41
ene 41
equ@@ 41
failures 41
folding 41
forgot 41
foundations 41
gorgeous 41
handed 41
hardest 41
horizon 41
household 41
incentive 41
included 41
infections 41
invested 41
jazz 41
laughing 41
lit 41
locations 41
marketplace 41
measures 41
motivated 41
newspapers 41
occasionally 41
occurs 41
ot@@ 41
participation 41
passive 41
peoples 41
perceived 41
phenomena 41
pills 41
plastics 41
rac@@ 41
reasonable 41
reducing 41
remaining 41
retina 41
returned 41
reveals 41
scenes 41
sem@@ 41
significantly 41
smoking 41
stretch 41
strings 41
supplies 41
tale 41
tered 41
voting 41
water@@ 41
waters 41
wr@@ 41
zones 41
1970s 40
1990 40
98 40
Air 40
Bar@@ 40
Bay 40
Bur@@ 40
El 40
Everest 40
Jones 40
Lo@@ 40
Moon 40
Probably 40
Pu@@ 40
Q@@ 40
Redwood 40
Sorry 40
Southern 40
Titan 40
Wait 40
Whatever 40
Wright 40
ai 40
alistic 40
ann@@ 40
approaches 40
approaching 40
attractive 40
batteries 40
beating 40
beautifully 40
bled 40
branches 40
breakthrough 40
bridges 40
bug 40
cancers 40
cap 40
capitalism 40
cartoons 40
char@@ 40
citizen 40
classical 40
column 40
communicating 40
compete 40
consistent 40
counting 40
cul@@ 40
defining 40
dic@@ 40
ement 40
endangered 40
enjoyed 40
evolving 40
expressions 40
extension 40
farms 40
favorites 40
fire@@ 40
gathered 40
gener@@ 40
graphs 40
grasp 40
hop 40
hor@@ 40
intensity 40
interviewed 40
inventor 40
ious 40
ju@@ 40
judgment 40
leaf 40
listened 40
lowest 40
lungs 40
magnitude 40
offering 40
orders 40
overwhelmed 40
pairs 40
pal@@ 40
patent 40
probe 40
procedure 40
proposed 40
recession 40
recycling 40
regard 40
ritual 40
secrets 40
sensor 40
span 40
spreads 40
stepped 40
streams 40
strip 40
surgeries 40
ta@@ 40
thr@@ 40
thy 40
trigger 40
vaccines 40
ved 40
venture 40
visualizations 40
y.html 40
&apos;clock 39
42 39
43 39
96 39
Aristotle 39
Chile 39
Clinton 39
Cre@@ 39
Cro@@ 39
Dean 39
Dis@@ 39
Do@@ 39
Ireland 39
Joshua 39
Ladies 39
Lincoln 39
Love 39
Mandela 39
Mike 39
Newton 39
Nor@@ 39
Norden 39
Peace 39
Res@@ 39
Ser@@ 39
Square 39
Sunday 39
Tr@@ 39
abundance 39
additional 39
adoption 39
advances 39
ained 39
annual 39
ap 39
armed 39
az@@ 39
badly 39
bang 39
blowing 39
boss 39
cal@@ 39
carpet 39
charter 39
claims 39
clue 39
commit 39
confused 39
continuing 39
contr@@ 39
contributed 39
crows 39
customer 39
damn 39
dar@@ 39
decrease 39
diameter 39
digit 39
distances 39
downtown 39
dro@@ 39
duck 39
ek 39
enemies 39
essence 39
females 39
fies 39
frightening 39
fro@@ 39
genomes 39
ger 39
gh@@ 39
gotta 39
habits 39
highway 39
interpret 39
intriguing 39
jet 39
ko 39
limitations 39
locally 39
magnificent 39
mainstream 39
manipulate 39
mobility 39
onstage 39
oral 39
panels 39
parenting 39
passes 39
phenomenal 39
poison 39
preparing 39
professionals 39
proven 39
pursue 39
rap@@ 39
remained 39
shifts 39
sible 39
significance 39
skeletal 39
slums 39
spinning 39
staring 39
supermarket 39
surgeons 39
tags 39
telescopes 39
threats 39
tra 39
trains 39
unprecedented 39
ut 39
valley 39
ving 39
zz@@ 39
350 38
60,000 38
97 38
Cyrus 38
Geographic 38
Indians 38
Jeff 38
Kong 38
Mother 38
Open 38
Pal@@ 38
Shakespeare 38
So@@ 38
Spain 38
St. 38
Star 38
TEDTalks 38
Tanzania 38
William 38
Z 38
absence 38
achievement 38
actively 38
agencies 38
ains 38
authors 38
autism 38
aver@@ 38
bacterial 38
ball@@ 38
beaten 38
believes 38
believing 38
berg 38
biomass 38
calories 38
charged 38
cheat 38
colonies 38
condoms 38
conf@@ 38
connectivity 38
controversial 38
crew 38
crop 38
cy@@ 38
damaged 38
demands 38
division 38
dness 38
doors 38
encouraging 38
es.html 38
excellent 38
eyed 38
flash 38
folded 38
funds 38
gate 38
glue 38
gonna 38
gras 38
guarantee 38
helium 38
hierarchy 38
historically 38
ide@@ 38
institutional 38
interviews 38
item 38
juice 38
lat@@ 38
loves 38
luxury 38
measurements 38
narratives 38
nearest 38
neutral 38
occurring 38
ony 38
pad 38
pause 38
photo@@ 38
pipe 38
playful 38
pp@@ 38
predictable 38
proposition 38
prosperity 38
psycho@@ 38
ran@@ 38
ratio 38
reproduce 38
reserves 38
rough 38
rubber 38
sake 38
scanner 38
scratch 38
selected 38
sexy 38
shocked 38
shoe 38
ski 38
smiling 38
someday 38
soup 38
spell 38
sting 38
surrounding 38
survived 38
syn@@ 38
technically 38
tively 38
tivity 38
tle 38
tower 38
transforming 38
tubes 38
ty@@ 38
utterly 38
versions 38
vert 38
visually 38
voted 38
with@@ 38
worthy 38
0@@ 37
17th 37
AM 37
Anyone 37
Bangladesh 37
Bell 37
Berlin 37
Copenhagen 37
Gandhi 37
Gene 37
Ger@@ 37
Its 37
July 37
La 37
Library 37
Mary 37
NGOs 37
Nigerian 37
Pi@@ 37
SETI 37
Seattle 37
Security 37
Someone 37
Sp@@ 37
Suddenly 37
TED@@ 37
Trade 37
Using 37
Wh@@ 37
accelerating 37
activist 37
aesthetic 37
anatomy 37
anxiety 37
arguments 37
arr@@ 37
ast 37
automobile 37
bedroom 37
brands 37
breakfast 37
ca 37
cal 37
calculations 37
catching 37
cellphone 37
challenged 37
cliff 37
codes 37
col@@ 37
commodity 37
concentrated 37
confront 37
corals 37
cord 37
courses 37
coverage 37
dawn 37
debt 37
determines 37
ea@@ 37
ell 37
ensure 37
estate 37
estimates 37
exposure 37
extraordinarily 37
fence 37
firing 37
foie 37
follows 37
frustrated 37
gam@@ 37
ges 37
glimpse 37
helicopter 37
hun@@ 37
illa 37
ind@@ 37
installation 37
instantly 37
interventions 37
itting 37
landing 37
loads 37
log 37
lottery 37
loving 37
mag@@ 37
mathematician 37
mimic 37
mines 37
motors 37
mushrooms 37
mutation 37
neighborhoods 37
non@@ 37
op 37
ories 37
picks 37
pockets 37
portrait 37
posted 37
pot 37
predators 37
propose 37
prostate 37
quit 37
readers 37
sale 37
scans 37
sen@@ 37
spl@@ 37
stays 37
straightforward 37
strongly 37
structural 37
summit 37
tolerance 37
tors 37
uni@@ 37
vegetable 37
victim 37
visions 37
vo@@ 37
western 37
wil@@ 37
wildlife 37
,000 36
1998 36
2020 36
52 36
Alex 36
Almost 36
Although 36
Andrew 36
August 36
BG 36
Being 36
Both 36
Church 36
Coast 36
County 36
GPS 36
Global 36
Im@@ 36
JA 36
Jane 36
L.A. 36
Lewis 36
March 36
Media 36
Nelson 36
Philip 36
Silicon 36
Stewart 36
accomplished 36
approved 36
aps 36
ation@@ 36
atom 36
banking 36
barrel 36
barrier 36
blank 36
burst 36
caps 36
cer@@ 36
chi@@ 36
clubs 36
collectively 36
competing 36
competitive 36
completed 36
concentrate 36
concerns 36
copies 36
craf@@ 36
craft 36
cro@@ 36
deck 36
deployed 36
detector 36
district 36
dolphins 36
electro@@ 36
engines 36
ep 36
extr@@ 36
file 36
fortunately 36
fun@@ 36
gallery 36
gear 36
guilty 36
halfway 36
harmful 36
hill 36
honored 36
ick 36
improved 36
inevitably 36
infant 36
introduction 36
kidney 36
knee 36
lam@@ 36
lined 36
lists 36
livestock 36
maintenance 36
managers 36
mindset 36
minus 36
musician 36
nearby 36
neck 36
ners 36
nitrogen 36
ols 36
participants 36
plates 36
pole 36
processor 36
pulls 36
raped 36
reaches 36
recommend 36
remembered 36
rivers 36
rope 36
sa@@ 36
scaling 36
sed 36
seemingly 36
selfish 36
sil@@ 36
spe@@ 36
speci@@ 36
stunning 36
succeeded 36
sulfide 36
symmetries 36
tables 36
tackle 36
temperatures 36
terrific 36
texture 36
transformative 36
ung 36
universes 36
ups 36
variations 36
vary 36
vice 36
wedding 36
woke 36
wooden 36
worrying 36
wound 36
1950s 35
76 35
Am 35
Amy 35
Arthur 35
Bas@@ 35
Cal@@ 35
Cam@@ 35
Egyptian 35
Em@@ 35
Half 35
Joe 35
Lu@@ 35
Pe@@ 35
Play 35
Queen 35
Ste@@ 35
Str@@ 35
Swiss 35
Technology 35
abundant 35
acids 35
activated 35
ades 35
ading 35
aggressive 35
aim 35
aluminum 35
applying 35
arguing 35
ath 35
bel@@ 35
belt 35
ben@@ 35
bite 35
boo@@ 35
broader 35
camel 35
carries 35
ck 35
ck@@ 35
composition 35
computational 35
construct 35
cooling 35
cooperative 35
cop@@ 35
cosmos 35
cows 35
cups 35
dolphin 35
electrons 35
elev@@ 35
emergence 35
ender 35
fallen 35
fibers 35
flavor 35
folds 35
gases 35
grateful 35
honestly 35
hopes 35
horses 35
iconic 35
ills 35
ishes 35
journalists 35
kets 35
kin 35
lamp 35
lev@@ 35
loan 35
mentor 35
mi@@ 35
mind@@ 35
mining 35
mycelium 35
namely 35
native 35
palm 35
pleasant 35
pour 35
previously 35
prey 35
prisoner 35
ra 35
reactions 35
regardless 35
rep@@ 35
retirement 35
rituals 35
rotate 35
sacrifice 35
safer 35
satellites 35
scar@@ 35
sch@@ 35
scope 35
sectors 35
selves 35
sensing 35
shed 35
sir 35
sizes 35
smo@@ 35
spheres 35
spray 35
strands 35
switched 35
sy 35
tagged 35
terrifying 35
themes 35
threatened 35
tin 35
tion@@ 35
tom@@ 35
tongue 35
touching 35
trading 35
translator 35
ue 35
useless 35
vis@@ 35
welfare 35
wishes 35
worm 35
yourselves 35
30s 34
38 34
44 34
Afghan 34
Black 34
Bre@@ 34
Craig 34
Des@@ 34
Hawaii 34
Jill 34
Ko@@ 34
Lake 34
Lea@@ 34
Lego 34
Little 34
Milo 34
Pol@@ 34
Professor 34
Sylvia 34
TEDGlobal 34
Through 34
Vi@@ 34
Yemen 34
adjust 34
agreement 34
alcohol 34
amazingly 34
ancestor 34
angiogenesis 34
angles 34
ank@@ 34
ape 34
app@@ 34
authorities 34
ax@@ 34
bias 34
binary 34
blo@@ 34
caves 34
chem@@ 34
chemist 34
cher@@ 34
cleaning 34
cocaine 34
convenient 34
convey 34
corporations 34
cream 34
creator 34
deepest 34
defend 34
delicious 34
dial 34
disagree 34
disorders 34
dopamine 34
dose 34
doubled 34
drag 34
du 34
dum@@ 34
eled 34
enjoying 34
estimated 34
excitement 34
factories 34
fle@@ 34
fought 34
founder 34
frequently 34
frog 34
fu@@ 34
functioning 34
habit 34
harbor 34
harmony 34
helpful 34
homeless 34
hood 34
hostile 34
hyper 34
iPod 34
iled 34
ingredient 34
integrate 34
involve 34
joint 34
logists 34
loses 34
mal 34
mall 34
manager 34
marrow 34
maximum 34
melt 34
melting 34
metabolism 34
mic 34
missions 34
mol@@ 34
mutations 34
objective 34
ok 34
oring 34
pan 34
parachute 34
pas@@ 34
pays 34
personalized 34
pharmaceutical 34
plankton 34
ple 34
pos@@ 34
posed 34
pped 34
pressing 34
pride 34
privileged 34
psychologist 34
pulse 34
pun@@ 34
quo@@ 34
radically 34
reg@@ 34
repeated 34
revealed 34
rewards 34
rolled 34
safely 34
sav@@ 34
seal 34
sends 34
simplest 34
sin@@ 34
singer 34
sings 34
spacecraft 34
spare 34
stack 34
strangers 34
supporting 34
terrain 34
therapies 34
towns 34
transmit 34
tting 34
tuned 34
uck 34
unseen 34
wrapped 34
20s 33
3.@@ 33
34 33
46 33
Asian 33
Buddhist 33
Cape 33
Carolina 33
Catholic 33
Christians 33
Golden 33
Jay 33
Joseph 33
Jupiter 33
Keep 33
McDonald 33
Ni@@ 33
Rick 33
Ru@@ 33
Sarah 33
Young 33
Zealand 33
algae 33
aliens 33
aling 33
anna 33
apples 33
ari@@ 33
arrested 33
ave 33
backyard 33
baseball 33
beetle 33
bers 33
bility 33
boundary 33
break@@ 33
budgets 33
bush 33
calculus 33
calm 33
cardiac 33
cel@@ 33
chase 33
chers 33
civic 33
clear@@ 33
clinics 33
communic@@ 33
comparing 33
conducted 33
constraints 33
contributing 33
contribution 33
corners 33
corresponds 33
crimes 33
crum@@ 33
desktop 33
di 33
eliminate 33
empowering 33
essing 33
excuse 33
expressed 33
farther 33
fores@@ 33
gestures 33
grades 33
grams 33
heading 33
hook 33
horror 33
icon 33
ign@@ 33
independence 33
insane 33
intended 33
intensive 33
investors 33
items 33
iv@@ 33
kle 33
knife 33
lin 33
lion 33
literacy 33
meditation 33
monitoring 33
museums 33
mushroom 33
na 33
navigate 33
nowadays 33
obese 33
occasion 33
oned 33
opinions 33
oven 33
ox@@ 33
paradox 33
planned 33
poems 33
predic@@ 33
profession 33
programmed 33
psychologists 33
publish 33
reflected 33
reflection 33
scre@@ 33
seals 33
shi@@ 33
shy 33
simulate 33
slower 33
soccer 33
socially 33
sor@@ 33
spaghetti 33
steam 33
strategic 33
strikes 33
striking 33
suits 33
territory 33
theoretical 33
tis 33
torture 33
transmitted 33
tunnel 33
unfortunate 33
verse 33
wai@@ 33
wheelchair 33
winner 33
1,500 32
1999 32
2,@@ 32
2050 32
56 32
59 32
Academy 32
Atlanta 32
Cambodia 32
Cold 32
Court 32
Elizabeth 32
Fe@@ 32
Galapagos 32
Johnny 32
Kids 32
Kosovo 32
LED 32
Laden 32
Mi@@ 32
Milky 32
Neanderthals 32
PC 32
PR 32
Sal@@ 32
Stone 32
Sure 32
Watson 32
a.m. 32
aces 32
acquire 32
acquired 32
agents 32
allo@@ 32
anesthesia 32
appreciation 32
argues 32
attacked 32
awe 32
bacterium 32
bal@@ 32
bath 32
bills 32
biotech 32
ca@@ 32
candidate 32
chamber 32
clips 32
clues 32
coll@@ 32
congestion 32
consumed 32
converted 32
counts 32
crap 32
cru@@ 32
currency 32
decent 32
demonstrated 32
denial 32
destroying 32
devoted 32
diagnosis 32
eighth 32
ened 32
equals 32
expanded 32
exploit 32
fulness 32
gaming 32
gle 32
green@@ 32
gross 32
guitar 32
hopeful 32
hormone 32
impressive 32
incident 32
inequality 32
investments 32
key@@ 32
keyboard 32
keys 32
kingdom 32
label 32
lanes 32
lifespan 32
linking 32
manner 32
matched 32
mates 32
mature 32
mayor 32
metals 32
multiply 32
nat@@ 32
nutrition 32
observe 32
officer 32
optical 32
oriented 32
ov@@ 32
overwhelming 32
pat@@ 32
person@@ 32
platforms 32
politician 32
pray 32
predator 32
premise 32
profile 32
quarters 32
rape 32
realization 32
recognizing 32
reproduction 32
reputation 32
scaled 32
shipping 32
shops 32
simpler 32
skeleton 32
solo 32
sooner 32
speaks 32
spiral 32
ss@@ 32
staircase 32
sters 32
stomach 32
storyteller 32
stu@@ 32
sty 32
surgical 32
tar 32
temporary 32
textbook 32
thrilled 32
thumb 32
til@@ 32
tissues 32
triangle 32
truths 32
ultraviolet 32
vent 32
viewing 32
virtue 32
wheels 32
wow 32
ya 32
0.@@ 31
130 31
1994 31
2011 31
57 31
Ben@@ 31
Bor@@ 31
Brooklyn 31
Buddha 31
DR 31
Dad 31
Du@@ 31
During 31
FDA 31
Fin@@ 31
Gen@@ 31
Heart 31
Iceland 31
Lord 31
Montana 31
Mumbai 31
Natasha 31
Olympics 31
Palestinian 31
Pri@@ 31
Sam@@ 31
Seven 31
Shar@@ 31
Si@@ 31
Tokyo 31
U.S 31
Until 31
WK 31
Whenever 31
acted 31
airline 31
alarm 31
amazed 31
attracted 31
aus@@ 31
authoritarian 31
aving 31
bee@@ 31
beef 31
belongs 31
blogging 31
bow 31
breeding 31
broccoli 31
bugs 31
but@@ 31
campus 31
cann@@ 31
classrooms 31
compl@@ 31
conductor 31
consent 31
continuously 31
contrary 31
copied 31
counted 31
cracks 31
crude 31
cyber@@ 31
devastating 31
diplomacy 31
dirt 31
documented 31
dragonflies 31
eak 31
ected 31
elaborate 31
emails 31
encouraged 31
entry 31
expecting 31
fever 31
frequencies 31
fri@@ 31
frontal 31
gained 31
girlfriend 31
gy 31
headquarters 31
heavily 31
horizontal 31
ids 31
ing.html 31
installed 31
interconnected 31
intimate 31
ior 31
ised 31
jaw 31
junk 31
kin@@ 31
knock 31
lic 31
lions 31
lows 31
markers 31
messy 31
millimeter 31
mixing 31
mood 31
mud 31
noisy 31
nonprofit 31
observations 31
observed 31
octopus 31
oms 31
parks 31
paste 31
pencil 31
pet 31
physicians 31
pill 31
ple@@ 31
potent 31
powder 31
prem@@ 31
pricing 31
projection 31
promising 31
proposal 31
publishing 31
renewable 31
responding 31
robotics 31
sand@@ 31
segment 31
sel@@ 31
separation 31
sequencing 31
shore 31
silicon 31
sn@@ 31
sol@@ 31
sometime 31
son@@ 31
specialized 31
symmetrical 31
systematically 31
tan@@ 31
temple 31
thus 31
tight 31
tric 31
ultrasound 31
verbal 31
warmer 31
wet 31
woods 31
wrist 31
yield 31
.C. 30
1950 30
25,000 30
31 30
Ab@@ 30
BJ 30
Bio@@ 30
Canyon 30
Char@@ 30
Charlie 30
Cl@@ 30
Compassion 30
ED 30
I.@@ 30
IBM 30
Jonathan 30
Ken 30
Kennedy 30
Mel@@ 30
Min@@ 30
Netherlands 30
Phoenix 30
Public 30
Qaeda 30
Rosling 30
Saudi 30
Sol@@ 30
Sputnik 30
Still 30
Teszler 30
Try 30
USA 30
Wilson 30
Wr@@ 30
activists 30
addressing 30
analog 30
ang 30
anonymous 30
applies 30
approximately 30
aun@@ 30
ayed 30
ba 30
beam 30
beds 30
bes@@ 30
blah 30
ble@@ 30
blew 30
bombsight 30
bother 30
brave 30
brick 30
capit@@ 30
cardboard 30
cattle 30
cheating 30
chemotherapy 30
circuits 30
climbed 30
collision 30
colorful 30
comm@@ 30
conduct 30
connectome 30
cope 30
crashes 30
david 30
deadly 30
deciding 30
defl@@ 30
depic@@ 30
destination 30
disappears 30
duty 30
eBay 30
ection 30
ectors 30
ego 30
electrodes 30
elo@@ 30
eness 30
enormously 30
equality 30
esses 30
eted 30
ethic 30
fac@@ 30
fantasy 30
fatal 30
feeds 30
fication 30
gardens 30
gasoline 30
ger@@ 30
hallucinations 30
hot@@ 30
households 30
hunt 30
hybrid 30
imagining 30
install 30
intention 30
intervention 30
intimacy 30
irrational 30
ities 30
jar 30
jewelry 30
journal 30
kicked 30
kit 30
lectures 30
legitimate 30
leopard 30
les@@ 30
magician 30
mapped 30
mating 30
mere 30
motor@@ 30
nar@@ 30
nights 30
nodes 30
offs 30
onic 30
oph@@ 30
outbreak 30
passage 30
peculiar 30
periods 30
poles 30
politically 30
portraits 30
ports 30
praying 30
prevalence 30
prior 30
pro 30
programmers 30
progression 30
projected 30
protocell 30
qui@@ 30
rail 30
randomly 30
read@@ 30
recall 30
reporting 30
residents 30
risky 30
satisfaction 30
secular 30
shelves 30
shoulders 30
sink 30
sted 30
stolen 30
strand 30
stranger 30
stri@@ 30
tal@@ 30
tar@@ 30
temporal 30
thermal 30
tile 30
titles 30
ums 30
upward 30
verb 30
vibrating 30
websites 30
weigh 30
witnessed 30
workplace 30
yeast 30
yo 30
+ 29
12,000 29
86 29
94 29
Air@@ 29
Albert 29
Bosnia 29
Brothers 29
CD 29
Carl 29
Coca 29
Cola 29
Danny 29
Dec@@ 29
Disney 29
Gr@@ 29
Julia 29
Leonardo 29
Mer@@ 29
Monday 29
Natural 29
Organization 29
Part 29
Prince 29
Rover 29
Sierra 29
Simon 29
Social 29
Telescope 29
Tri@@ 29
Turns 29
Wolfram 29
accelerate 29
acres 29
adaptation 29
aining 29
ais@@ 29
ama@@ 29
aming 29
analyzed 29
anniversary 29
associate 29
au 29
baseline 29
basking 29
borrow 29
bowl 29
bust 29
cables 29
characteristic 29
chronic 29
clusters 29
coin 29
comments 29
compound 29
consul@@ 29
convicted 29
correlation 29
cousins 29
criminals 29
cyber 29
democrati@@ 29
denti@@ 29
dering 29
dig@@ 29
disability 29
disabled 29
dishes 29
donors 29
drunk 29
eck 29
ecting 29
editor 29
ee 29
ee@@ 29
emphasize 29
ences 29
ental 29
entrepreneurial 29
exploded 29
famine 29
findings 29
formal 29
format 29
founding 29
frontier 29
frustration 29
generates 29
gers 29
gged 29
glorious 29
grapher 29
grocery 29
hi 29
holy 29
hometown 29
hormones 29
human@@ 29
humility 29
hydro@@ 29
iceberg 29
ici@@ 29
illusions 29
implant 29
implemented 29
infectious 29
insul@@ 29
intact 29
investigate 29
involving 29
irony 29
isted 29
labeled 29
lec@@ 29
liber@@ 29
libraries 29
lifted 29
lo 29
loaded 29
longevity 29
loose 29
managing 29
matrix 29
medication 29
minority 29
mit@@ 29
monsoon 29
mysteries 29
ney 29
nom@@ 29
observing 29
offspring 29
ome 29
operates 29
optimism 29
ow@@ 29
panel 29
peers 29
pin 29
ply 29
pouring 29
promoting 29
prot@@ 29
purple 29
reasoning 29
refugee 29
richest 29
routine 29
scheme 29
shining 29
sketch 29
sni@@ 29
stopping 29
submit 29
surviving 29
textbooks 29
tim@@ 29
tomato 29
topics 29
trivial 29
und@@ 29
uniform 29
ut@@ 29
visiting 29
wel@@ 29
wiped 29
wore 29
yard 29
yn@@ 29
1.@@ 28
15,000 28
49 28
8,000 28
87 28
92 28
Alice 28
Berkeley 28
Brad 28
Cancer 28
Civil 28
Col@@ 28
Country 28
Featured 28
Harry 28
High 28
History 28
Ho@@ 28
Indonesia 28
Israeli 28
KA 28
Kelly 28
Korean 28
Mount 28
News 28
Norman 28
Norway 28
November 28
Olympic 28
Pen@@ 28
Ph@@ 28
Pittsburgh 28
Pretty 28
Ross 28
Singapore 28
Susan 28
Sweeney 28
Switzerland 28
Tuesday 28
Val@@ 28
abandoned 28
abroad 28
absorb 28
ack@@ 28
acknowledge 28
adolescence 28
adopt 28
ailed 28
alike 28
apping 28
approached 28
aquatic 28
artifacts 28
assumed 28
asteroids 28
atives 28
augmented 28
basket 28
behalf 28
belly 28
bribe 28
cares 28
catastrophic 28
checks 28
chickens 28
cholera 28
chop 28
cli@@ 28
climbers 28
columns 28
composed 28
conceptual 28
contained 28
copying 28
cratic 28
critically 28
dare 28
dding 28
deb@@ 28
debris 28
delivering 28
derived 28
diagnostic 28
diarrhea 28
digging 28
disasters 28
discussions 28
disk 28
displays 28
distinction 28
documentary 28
doses 28
ease 28
elephants 28
elevator 28
emotionally 28
enterprise 28
enters 28
entrance 28
equilibrium 28
err@@ 28
eternal 28
etic 28
exam 28
fungi 28
fur@@ 28
gen 28
goat 28
grabbed 28
hard@@ 28
hemisphere 28
hills 28
hop@@ 28
ili@@ 28
immense 28
implement 28
integrity 28
invasive 28
inventing 28
ir 28
iss@@ 28
jam 28
lers 28
lobby 28
locks 28
medit@@ 28
mel@@ 28
mil@@ 28
nasty 28
networking 28
new@@ 28
nor@@ 28
nut 28
ome@@ 28
onally 28
ors@@ 28
pants 28
pe 28
philosopher 28
philosophical 28
pie 28
pleased 28
plum@@ 28
portable 28
pose 28
presenting 28
professors 28
promised 28
promises 28
punishment 28
py 28
que 28
receiving 28
recur@@ 28
regional 28
regularly 28
remarkably 28
rowing 28
run@@ 28
screens 28
sections 28
semi 28
shorter 28
shortly 28
slope 28
smells 28
spatial 28
sticking 28
substantial 28
surround 28
symbolic 28
talents 28
tanks 28
tear 28
teenage 28
tem@@ 28
terrified 28
thereby 28
thinkers 28
tho@@ 28
thro@@ 28
tioned 28
tooth 28
top@@ 28
toss 28
traces 28
tre@@ 28
tress 28
tricky 28
trips 28
trusted 28
tural 28
ulation 28
ultra 28
vely 28
visi@@ 28
vitamin 28
wasted 28
watts 28
weekend 28
wo@@ 28
workforce 28
yards 28
yl@@ 28
youngest 28
.org 27
18th 27
51 27
53 27
58 27
62 27
64 27
Alright 27
Bruce 27
Building 27
CO 27
Canadian 27
Caribbean 27
Cur@@ 27
Ed@@ 27
Jews 27
Mad@@ 27
Mat@@ 27
Meanwhile 27
Men 27
Nathan 27
Pas@@ 27
Pennsylvania 27
Physi@@ 27
Republican 27
Rob 27
Rule 27
Society 27
Tasmanian 27
Therefore 27
Tor@@ 27
Toronto 27
W 27
Water 27
Zipcar 27
accompanied 27
addiction 27
afterward 27
aggreg@@ 27
alphabet 27
anes@@ 27
ani 27
animate 27
apartments 27
appeal 27
apps 27
asleep 27
astronomers 27
ath@@ 27
attach 27
attacking 27
attempts 27
axes 27
balanced 27
band@@ 27
barriers 27
bell 27
bin@@ 27
biologically 27
black@@ 27
blindness 27
book@@ 27
broad@@ 27
cally 27
celebrated 27
celebration 27
chimpanzee 27
choir 27
circular 27
circulation 27
cluster 27
compli@@ 27
compounds 27
compute 27
cou@@ 27
cri@@ 27
crossed 27
dating 27
deception 27
degraded 27
dependence 27
desperate 27
desperately 27
dest 27
disappearing 27
disturbing 27
ead 27
earned 27
electr@@ 27
electromagnetic 27
elling 27
embarrassed 27
encyclopedia 27
eradication 27
essed 27
explores 27
exponentially 27
expose 27
fails 27
fate 27
filling 27
flo@@ 27
forgive 27
freezing 27
friendship 27
fuse 27
generic 27
gg@@ 27
glacier 27
gli@@ 27
grace 27
grandparents 27
grassroots 27
hairs 27
happiest 27
heating 27
hel@@ 27
helmet 27
hiding 27
hint 27
iPad 27
ight 27
iling 27
impressed 27
indigenous 27
inform 27
injuries 27
injustice 27
ish@@ 27
itable 27
iti@@ 27
je@@ 27
jumps 27
ki 27
laughed 27
learns 27
legislation 27
lou@@ 27
lun@@ 27
mask 27
metric 27
midst 27
mixture 27
nation@@ 27
negotiate 27
nurture 27
ordered 27
ow 27
panic 27
parasite 27
persuade 27
planting 27
popul@@ 27
practicing 27
preventing 27
prim@@ 27
processed 27
producers 27
profitable 27
protest 27
purchase 27
ram@@ 27
refuse 27
regulation 27
regulations 27
replacement 27
request 27
reserve 27
rethink 27
ridge 27
roofs 27
rose 27
rows 27
sang 27
scream 27
select 27
sensitivity 27
seventh 27
shifted 27
shor@@ 27
singers 27
spiders 27
squid 27
statistical 27
stealing 27
sts 27
suitcase 27
supportive 27
tab@@ 27
tan 27
tangible 27
teenager 27
terrorist 27
timing 27
transit 27
trapped 27
twist 27
upright 27
variable 27
ville 27
viol@@ 27
visualize 27
wal@@ 27
wells 27
whoever 27
wins 27
wonderfully 27
1.5 26
11th 26
1945 26
1980 26
Alan 26
Alpha 26
Amsterdam 26
Ap@@ 26
Armstrong 26
Army 26
Camp 26
DVD 26
Dalai 26
Emily 26
Empire 26
Far@@ 26
Having 26
IM 26
Jerusalem 26
Julian 26
Keith 26
Kibera 26
Ku@@ 26
Lama 26
Light 26
Mac 26
Man@@ 26
Marcus 26
Moses 26
Namibia 26
Neil 26
Notice 26
Rather 26
Republic 26
Rio 26
Sil@@ 26
Spring 26
TEDsters 26
Thailand 26
Twenty 26
Van 26
Yves 26
accuracy 26
ace@@ 26
achieving 26
acre 26
aled 26
ales 26
amateur 26
ambition 26
ambitious 26
anding 26
anticipate 26
apo@@ 26
assembled 26
asset 26
attitudes 26
atur@@ 26
aud@@ 26
authenticity 26
aves 26
award 26
ban@@ 26
bare 26
basement 26
bat 26
bed@@ 26
bonds 26
bumps 26
calculation 26
canvas 26
cared 26
carrot 26
certainty 26
chains 26
checking 26
chef 26
chimps 26
chunk 26
colon@@ 26
considering 26
convincing 26
coordination 26
copper 26
cosmo@@ 26
couch 26
cube 26
dated 26
dd@@ 26
dealt 26
decor@@ 26
defines 26
demonstrates 26
describing 26
diamonds 26
discussing 26
distinguish 26
draws 26
dreaming 26
embracing 26
emp@@ 26
empire 26
enc@@ 26
eradicate 26
establish 26
examine 26
exhibit 26
eye@@ 26
famously 26
feminist 26
fetus 26
filmmaker 26
flexibility 26
flights 26
float 26
flood 26
forcing 26
form@@ 26
frightened 26
gains 26
galleries 26
gecko 26
generosity 26
genomics 26
genuine 26
glaciers 26
graduated 26
grains 26
guards 26
gy@@ 26
hackers 26
headline 26
hoped 26
ility 26
impulse 26
indicates 26
infer@@ 26
informal 26
innovate 26
insi@@ 26
instruction 26
int@@ 26
interfaces 26
intern@@ 26
inv@@ 26
isting 26
journalism 26
lasting 26
lied 26
mac@@ 26
magazines 26
mankind 26
matic 26
men@@ 26
ment@@ 26
mentally 26
microscopic 26
millennia 26
mirrors 26
mite 26
modest 26
mul@@ 26
mus@@ 26
naive 26
nano 26
nevertheless 26
nicely 26
nonetheless 26
nurturing 26
oll@@ 26
ona 26
operator 26
ounce 26
outs 26
owners 26
packaging 26
partnerships 26
patch 26
paths 26
pathways 26
pho@@ 26
play@@ 26
predicting 26
prefrontal 26
preparation 26
preserved 26
priorities 26
proved 26
radius 26
rainforest 26
reader 26
recognizes 26
recycled 26
regenerate 26
rejected 26
relativity 26
reli@@ 26
resolve 26
resolved 26
revolutions 26
riding 26
sa 26
screening 26
scrip@@ 26
serves 26
settled 26
sexually 26
shar@@ 26
sheer 26
speeds 26
spontaneous 26
stadium 26
stamp 26
stat@@ 26
stunt 26
suggestion 26
summary 26
surplus 26
tattoo 26
texts 26
ti 26
tours 26
trac@@ 26
twins 26
unconscious 26
ush 26
utter 26
va 26
viable 26
viewer 26
violin 26
was@@ 26
watt 26
weighs 26
wid@@ 26
yo@@ 26
2.0 25
4.@@ 25
68 25
71 25
74 25
89 25
93 25
Alaska 25
Arabia 25
Bal@@ 25
Barry 25
Beach 25
Columbia 25
Conference 25
Cu@@ 25
Darwinian 25
Defense 25
Eve 25
Fund 25
Gre@@ 25
Ivan 25
Jefferson 25
Ju@@ 25
Kansas 25
Laptop 25
Looking 25
Luther 25
MT 25
Margaret 25
Marine 25
Medical 25
Native 25
Nicholas 25
Nick 25
OECD 25
Ooh 25
Out 25
Photo@@ 25
RNA 25
Rachel 25
Ri@@ 25
San@@ 25
Sar@@ 25
Show 25
Sudan 25
Suppose 25
Theater 25
Venezuela 25
Virgin 25
Wal@@ 25
Wil@@ 25
accountability 25
acked 25
actu@@ 25
ag 25
ail@@ 25
ails 25
allies 25
anim@@ 25
appreciated 25
arena 25
arily 25
ashamed 25
assets 25
assistance 25
assuming 25
atheist 25
attributes 25
autonomy 25
avian 25
bandwidth 25
banjo 25
banned 25
behold 25
bench 25
bian 25
bluefin 25
brush 25
burg 25
buttons 25
calculating 25
candidates 25
captain 25
catastrophe 25
celebrity 25
cell@@ 25
cello 25
census 25
ceremony 25
cha@@ 25
chasing 25
commons 25
compromise 25
conception 25
condom 25
confined 25
conscience 25
consuming 25
correc@@ 25
crab 25
culturally 25
default 25
destructive 25
diagnose 25
dic 25
disap@@ 25
distribute 25
easiest 25
eats 25
eman 25
encountered 25
endeavor 25
enthusiasm 25
entities 25
erectus 25
escal@@ 25
ever@@ 25
exotic 25
fault 25
filters 25
fired 25
fixing 25
frogs 25
ga@@ 25
gallon 25
gay 25
genic 25
gentle 25
germs 25
glo@@ 25
gravitational 25
ha@@ 25
handful 25
hated 25
highlight 25
hol@@ 25
home@@ 25
honesty 25
humankind 25
im 25
incidentally 25
index 25
indicate 25
inherently 25
injured 25
insulin 25
ire 25
ium 25
ive 25
juvenile 25
kindergarten 25
lighter 25
limbs 25
loans 25
logically 25
longest 25
lowing 25
luckily 25
manufacture 25
microphone 25
mod@@ 25
momentum 25
mono@@ 25
motivate 25
mythology 25
neocortex 25
net@@ 25
night@@ 25
nings 25
node 25
notions 25
ny 25
odor 25
ound 25
outdoor 25
pay@@ 25
perceptions 25
planted 25
pollutants 25
practically 25
pressures 25
pric@@ 25
prototypes 25
pul@@ 25
pursuing 25
rains 25
realities 25
recovered 25
reforms 25
refugees 25
replacing 25
representing 25
respected 25
responded 25
revenues 25
rockets 25
scientifically 25
screaming 25
sculptures 25
secondary 25
secondly 25
sh 25
shield 25
sively 25
skep@@ 25
skilled 25
slum 25
spike 25
stairs 25
stake 25
statements 25
steady 25
stimulation 25
sto@@ 25
strains 25
stressed 25
sucks 25
sul@@ 25
tains 25
talented 25
tales 25
tations 25
tedly 25
teen 25
tend@@ 25
threatening 25
tionally 25
trait 25
travels 25
tribal 25
typing 25
understands 25
vocabulary 25
volcanic 25
wiring 25
wonders 25
150,000 24
1997 24
2.@@ 24
2015 24
73 24
Ag@@ 24
Around 24
BC 24
Bangalore 24
Beijing 24
C. 24
CEOs 24
Caltech 24
Can@@ 24
Consider 24
DARPA 24
Dallas 24
Denmark 24
Development 24
Dylan 24
Education 24
Fi@@ 24
Fr@@ 24
Francis 24
Free 24
Going 24
Gordon 24
Gro@@ 24
Hill 24
Industrial 24
Interestingly 24
Interviewer 24
Jackson 24
Joel 24
Leone 24
Linux 24
Louis 24
MO 24
Mac@@ 24
Mas@@ 24
Massachusetts 24
Mur@@ 24
Parkinson 24
RISD 24
Rec@@ 24
Ros@@ 24
SJ 24
SP 24
Sahara 24
Secretary 24
T. 24
Tas@@ 24
Tibet 24
Williams 24
Windows 24
Wor@@ 24
ables 24
acceler@@ 24
accomplish 24
accumulate 24
acoustic 24
agon@@ 24
ailing 24
aiming 24
ala 24
alternatives 24
analyzing 24
anny 24
ara 24
aria 24
arm@@ 24
atheists 24
attraction 24
avatar 24
aver 24
awkward 24
ban 24
bathroom 24
beneficial 24
bert 24
biomimicry 24
bond 24
bounce 24
breed 24
bulbs 24
bum@@ 24
calcium 24
cane 24
capacities 24
chaotic 24
chim@@ 24
chin 24
circul@@ 24
collaborate 24
color@@ 24
coma 24
combat 24
configuration 24
confronted 24
cont@@ 24
convention 24
corporation 24
coun@@ 24
countless 24
criteria 24
cruel 24
dan 24
dancers 24
declared 24
delay 24
delivers 24
depths 24
deserves 24
detected 24
disciplines 24
dome 24
eing 24
elders 24
embarrassing 24
emerges 24
empower 24
ems 24
entertaining 24
envelope 24
eth@@ 24
ethanol 24
evol@@ 24
exceptions 24
expense 24
explanations 24
far@@ 24
fights 24
fil@@ 24
floors 24
fruits 24
geography 24
gig@@ 24
governmental 24
guard 24
happily 24
heal 24
heritage 24
heroic 24
hooked 24
hunter 24
idity 24
ign 24
imperative 24
individu@@ 24
inherent 24
ino 24
instinct 24
institute 24
intangible 24
intentions 24
intricate 24
investigation 24
invitation 24
itation 24
judgments 24
juggling 24
ki@@ 24
kilometer 24
likelihood 24
lobe 24
losses 24
manipulation 24
matches 24
membrane 24
migraine 24
misery 24
modeling 24
motiv@@ 24
myths 24
nes@@ 24
nonsense 24
norms 24
occupy 24
oma 24
overnight 24
oyster 24
painter 24
paper@@ 24
paralysis 24
parameters 24
parked 24
pathogens 24
pathway 24
pipeline 24
pixels 24
precision 24
precon@@ 24
procedures 24
propaganda 24
pt 24
q@@ 24
quietly 24
relates 24
relax 24
remix 24
rendered 24
repeatedly 24
researching 24
revol@@ 24
ries 24
rises 24
roles 24
rou@@ 24
scanned 24
school@@ 24
sells 24
si 24
skeptical 24
sketches 24
ski@@ 24
slowing 24
spi@@ 24
spinal 24
spontaneously 24
squee@@ 24
ster@@ 24
storms 24
stunts 24
summarize 24
surveys 24
systematic 24
taxes 24
tled 24
transistor 24
transported 24
tremendously 24
ts@@ 24
tured 24
uniquely 24
unity 24
ure 24
vable 24
vation 24
veness 24
vivid 24
wage 24
waited 24
wind@@ 24
wives 24
180 23
1930s 23
1991 23
1995 23
300,000 23
450 23
7,000 23
77 23
84 23
900 23
AIMS 23
Absolutely 23
Abu 23
Agnes 23
Ask 23
At@@ 23
BL 23
Business 23
Cameron 23
Cassini 23
Cs 23
Darfur 23
Data 23
Dead 23
Desert 23
Dick 23
Especially 23
Evan 23
Fellow 23
Graham 23
Greeks 23
Happy 23
Hawking 23
Hum@@ 23
Jamie 23
Jazeera 23
Jobs 23
Ka@@ 23
Ke@@ 23
Kiribati 23
Lawrence 23
Liberia 23
MA 23
Matt 23
Mil@@ 23
Prime 23
Reagan 23
SMS 23
Saturday 23
Sev@@ 23
Sho@@ 23
Similarly 23
Step 23
Supreme 23
Together 23
Trans@@ 23
Tur@@ 23
Under@@ 23
Wouldn 23
Year 23
Yu@@ 23
acks 23
acti@@ 23
activate 23
acu@@ 23
addressed 23
aggregate 23
altered 23
amino 23
answering 23
anthropology 23
anytime 23
apped 23
argued 23
arise 23
arose 23
artwork 23
ases 23
ashing 23
assessment 23
assure 23
ato@@ 23
awake 23
backed 23
beloved 23
bioluminescence 23
biotechnology 23
blink 23
bloody 23
boots 23
broadcast 23
browser 23
buses 23
calculated 23
cerebral 23
certified 23
charcoal 23
chat@@ 23
chron@@ 23
chy 23
circuitry 23
cloth 23
commodities 23
commonly 23
composer 23
conceive 23
concer@@ 23
contradiction 23
controversy 23
council 23
countryside 23
courageous 23
cousin 23
cus@@ 23
dancer 23
defen@@ 23
delight 23
delighted 23
deploy 23
depos@@ 23
developers 23
develops 23
dges 23
dings 23
direc@@ 23
distorted 23
divine 23
dle 23
dodo 23
don@@ 23
dreamed 23
economically 23
edit 23
elle 23
elled 23
embodied 23
enabling 23
enhance 23
environmentally 23
epo@@ 23
ere 23
erotic 23
ests 23
eve 23
exclu@@ 23
expectation 23
explored 23
filmed 23
finishing 23
fishermen 23
flesh 23
flourish 23
fossils 23
fractal 23
frames 23
freak 23
fulfilling 23
gging 23
gigantic 23
glory 23
god@@ 23
goodness 23
govern 23
greatly 23
guidance 23
habitats 23
ham@@ 23
hamburger 23
hatred 23
heart@@ 23
helpless 23
hotter 23
hugely 23
illustration 23
imp@@ 23
impaired 23
inexpensive 23
infinitely 23
influences 23
initi@@ 23
instruc@@ 23
inventions 23
jokes 23
jum@@ 23
jungle 23
justify 23
kidding 23
kiss 23
labels 23
lasts 23
lately 23
laughter 23
laundry 23
laying 23
leap@@ 23
limestone 23
logging 23
lonely 23
louder 23
mark@@ 23
materi@@ 23
med@@ 23
medic@@ 23
medicines 23
meets 23
migration 23
mild 23
minerals 23
mon 23
mur@@ 23
murder 23
nam@@ 23
nanotechnology 23
negotiating 23
nucleus 23
obstacle 23
optimal 23
ora 23
orgasm 23
parliament 23
perspectives 23
photographers 23
piles 23
pled 23
prayer 23
prisons 23
pristine 23
psych@@ 23
qualified 23
racing 23
radar 23
randomness 23
ranging 23
receptor 23
recycle 23
reduces 23
refined 23
refl@@ 23
rehabilitation 23
releases 23
representative 23
returns 23
revolutionary 23
rides 23
rier 23
rob@@ 23
sanitary 23
scru@@ 23
see@@ 23
sely 23
sequenced 23
shaking 23
sion@@ 23
slo@@ 23
ss 23
stocks 23
sty@@ 23
successes 23
surfing 23
sustaining 23
synthesis 23
tas@@ 23
tastes 23
tes@@ 23
thin@@ 23
tips 23
topo@@ 23
touches 23
toxins 23
trailer 23
ute 23
vacation 23
varieties 23
vel@@ 23
vents 23
viewed 23
vol@@ 23
wards 23
washed 23
winners 23
worship 23
.7 22
125 22
140 22
1968 22
1984 22
3,@@ 22
39 22
54 22
66 22
78 22
79 22
81 22
88 22
According 22
Andy 22
Arizona 22
Ash@@ 22
Best 22
Brazilian 22
Bri@@ 22
Che@@ 22
Christ 22
Cri@@ 22
Cy@@ 22
Deep 22
Doctor 22
Evolution 22
FG 22
Flickr 22
Galileo 22
Grand@@ 22
Hy@@ 22
Ice 22
Is@@ 22
Jersey 22
Kyoto 22
Lagos 22
Large 22
League 22
Lis@@ 22
Luckily 22
Mexican 22
Mozart 22
Nike 22
PH 22
Pat@@ 22
Poli@@ 22
Pr@@ 22
Q 22
Roman 22
Rose 22
SARS 22
Sa@@ 22
Say 22
Scottish 22
Sen@@ 22
Solar 22
TEDMED 22
The@@ 22
Too 22
Tre@@ 22
Ty@@ 22
Village 22
Warren 22
Who@@ 22
a.html 22
acc@@ 22
accurately 22
aci@@ 22
adaptive 22
advantages 22
ager 22
alls 22
ambiguous 22
ans@@ 22
arrows 22
ase 22
association 22
asthma 22
atrazine 22
balloons 22
beg@@ 22
bes 22
beside 22
bit@@ 22
blood@@ 22
blows 22
breakdown 22
butt 22
candy 22
centered 22
centric 22
checked 22
cies 22
clapping 22
coff@@ 22
commentary 22
compass 22
compatible 22
conditioning 22
congr@@ 22
consensus 22
container 22
continually 22
coordinate 22
cracked 22
crushed 22
cular 22
custom 22
decides 22
diamond 22
dil@@ 22
directed 22
disconnect 22
disconnected 22
discussed 22
dividing 22
documenting 22
duration 22
eastern 22
educating 22
elec@@ 22
enced 22
ens@@ 22
enth 22
entrepreneurship 22
equity 22
eradicated 22
esting 22
ethics 22
evapor@@ 22
even@@ 22
fame 22
fisheries 22
flat@@ 22
flown 22
fog 22
fool 22
foster 22
fuzzy 22
gaze 22
geese 22
gel 22
geo 22
globalized 22
goats 22
grave 22
gro@@ 22
gru@@ 22
hacking 22
harness 22
heal@@ 22
heated 22
hes@@ 22
hive 22
huh 22
hunters 22
illing 22
improvise 22
infect 22
infl@@ 22
ingenious 22
ingenuity 22
inger 22
injection 22
instances 22
int 22
intentional 22
interrupted 22
intersection 22
ions 22
ishment 22
isolation 22
itated 22
iving 22
jun@@ 22
kable 22
knees 22
ko@@ 22
lar@@ 22
launching 22
li 22
lightning 22
literal 22
low@@ 22
mammography 22
marked 22
marker 22
marvelous 22
matching 22
minded 22
mini 22
moun@@ 22
mutual 22
ni 22
nightmare 22
noticing 22
novelty 22
nur@@ 22
onics 22
oper@@ 22
operated 22
ori@@ 22
owe 22
owns 22
patho@@ 22
paul 22
pets 22
pigeon 22
placebo 22
post@@ 22
pregnancy 22
presidential 22
pressed 22
primates 22
prints 22
priority 22
problematic 22
publicly 22
quar@@ 22
questioning 22
reads 22
reas@@ 22
reck@@ 22
reflects 22
refused 22
regimes 22
regrets 22
remembering 22
replicating 22
reporter 22
rescued 22
resilient 22
resist 22
reson@@ 22
responsibilities 22
retreat 22
rh@@ 22
rhythms 22
riots 22
salary 22
satisfied 22
scarce 22
screw 22
sen 22
sessions 22
shells 22
shu@@ 22
similarly 22
sions 22
skip 22
sky@@ 22
slowed 22
slu@@ 22
solemn 22
specialist 22
spir@@ 22
stare 22
sterile 22
strengths 22
stretched 22
stun@@ 22
sup@@ 22
surroundings 22
survivors 22
sweat 22
swing 22
tails 22
tally 22
targeted 22
tennis 22
thesis 22
tick 22
tourist 22
transi@@ 22
trap 22
treaty 22
triple 22
velocity 22
vic@@ 22
voc@@ 22
voters 22
votes 22
voyage 22
warfare 22
wheel@@ 22
whi@@ 22
worthwhile 22
writes 22
zo@@ 22
00@@ 21
40s 21
41 21
83 21
91 21
Aid 21
Allen 21
Argentina 21
BMW 21
Bl@@ 21
Carnegie 21
Computer 21
Den@@ 21
Didn 21
Digital 21
Ear@@ 21
Edinburgh 21
Eight 21
Enceladus 21
Europa 21
Eventually 21
Fi 21
Food 21
Fortunately 21
Fri@@ 21
Higgs 21
Himalayas 21
Hold 21
Hor@@ 21
Hospital 21
Jerry 21
Juan 21
Kamen 21
Katrina 21
Khan 21
Kim 21
Lau@@ 21
MM 21
Maldives 21
Map 21
May@@ 21
Medicine 21
Mountain 21
NGO 21
Nairobi 21
Office 21
Post 21
RS 21
Radio 21
Royal 21
Russians 21
Sam 21
Scotland 21
She@@ 21
Siberia 21
Somalia 21
Sony 21
Speaking 21
Star@@ 21
Start 21
Swedish 21
Syria 21
TS 21
Tower 21
Truth 21
Tu@@ 21
Venter 21
Venus 21
Wal 21
Walker 21
Wars 21
Welcome 21
Wide 21
abandon 21
accepting 21
accounting 21
acker 21
acute 21
addicted 21
adds 21
aded 21
advocate 21
aimed 21
alert 21
ali 21
ambiguity 21
ame 21
anging 21
ard@@ 21
arian 21
arry 21
assistant 21
attribute 21
ature 21
auditory 21
bamboo 21
bananas 21
bay 21
beetles 21
biases 21
bind 21
blade 21
blast 21
blessed 21
bow@@ 21
breasts 21
buc@@ 21
cafe 21
cage 21
calendar 21
candle 21
categor@@ 21
centimeter 21
chat 21
cist 21
civilian 21
clarity 21
coastal 21
coined 21
collaborators 21
collar 21
combining 21
commissioned 21
comparable 21
compressed 21
conservatives 21
consideration 21
constrained 21
constructing 21
consumerism 21
continuity 21
continuum 21
coo@@ 21
cookie 21
cooperate 21
cop 21
county 21
crank 21
cues 21
delu@@ 21
depressing 21
desertification 21
dictionaries 21
differ 21
differential 21
disappointed 21
disruptive 21
doodling 21
door@@ 21
doubling 21
drift 21
duce 21
dump 21
eam 21
editing 21
ef 21
elbow 21
elderly 21
employ 21
employment 21
enzyme 21
episode 21
equipped 21
ested 21
eter@@ 21
ette 21
executive 21
exquisite 21
fashioned 21
fat@@ 21
fe 21
fee 21
feminine 21
fertilizer 21
finite 21
firms 21
folk 21
footprints 21
foreground 21
frustrating 21
geographic 21
gifts 21
graffiti 21
grim 21
guilt 21
gun@@ 21
hack 21
hair@@ 21
hammer 21
handy 21
harvesting 21
heights 21
humble 21
hung 21
hut 21
icious 21
icons 21
idal 21
ide 21
ile 21
imaginary 21
inc@@ 21
independently 21
indication 21
individually 21
ined 21
infrared 21
inity 21
integrating 21
introducing 21
invade 21
inventors 21
jam@@ 21
jer@@ 21
joining 21
jumping 21
labor@@ 21
lapse 21
lenses 21
lining 21
listed 21
lit@@ 21
lithium 21
ly@@ 21
magnets 21
mammal 21
manufacturer 21
march 21
massively 21
medications 21
meg@@ 21
melody 21
menu 21
mes@@ 21
metaphors 21
minimal 21
mold 21
morph@@ 21
mosque 21
mosquitoes 21
mouths 21
mp@@ 21
nail 21
nails 21
nano@@ 21
nec@@ 21
nectar 21
needles 21
neg@@ 21
news@@ 21
numerous 21
obsolete 21
obtained 21
od 21
olive 21
orientation 21
ou 21
overhead 21
oxide 21
p.m. 21
participating 21
pathetic 21
patience 21
permanently 21
personalities 21
pervasive 21
philosophers 21
physiology 21
poses 21
posi@@ 21
potato 21
pret@@ 21
pri@@ 21
principal 21
prop@@ 21
protocells 21
prototyping 21
pulses 21
purely 21
rage 21
rainfall 21
rainforests 21
rap 21
reasonably 21
red@@ 21
redefine 21
regulate 21
reject 21
relatives 21
retire 21
road@@ 21
routinely 21
ruins 21
scaffolding 21
scor@@ 21
scr@@ 21
seawater 21
sensible 21
she@@ 21
sian 21
slice 21
soap 21
som@@ 21
spar@@ 21
spine 21
spite 21
staggering 21
standpoint 21
statue 21
stein 21
sticky 21
stimulate 21
strang@@ 21
struggled 21
sulfur 21
supermassive 21
surveillance 21
sustained 21
swap 21
synthesize 21
tal 21
tax@@ 21
techno@@ 21
terrorists 21
thread 21
throat 21
tible 21
tickets 21
tightly 21
tipping 21
towers 21
transistors 21
trauma 21
tray 21
triangles 21
tropical 21
troubled 21
tu 21
tunas 21
twenty 21
typed 21
unintended 21
vaccin@@ 21
voluntary 21
ware 21
weed 21
wer@@ 21
widespread 21
willingness 21
ze@@ 21
1.2 20
1970 20
250,000 20
A.@@ 20
AI 20
AV 20
Aimee 20
Alabama 20
Anything 20
Apollo 20
Barack 20
Bro@@ 20
Bruno 20
CNN 20
Cho@@ 20
Clay 20
DE@@ 20
Danish 20
Dave 20
Del@@ 20
Despite 20
Detroit 20
Doesn 20
Ed 20
Fol@@ 20
Fort 20
Fur@@ 20
Gar@@ 20
Gary 20
Gener@@ 20
Georgia 20
Ground 20
Hel@@ 20
Hudson 20
Humans 20
I. 20
ID 20
IM@@ 20
J 20
Jason 20
Jennifer 20
Joh@@ 20
Journal 20
Kepler 20
Lady 20
Lakota 20
Learning 20
Liber@@ 20
Lots 20
Mart 20
Met@@ 20
Mission 20
Moreover 20
Murray 20
Neanderthal 20
Negroponte 20
Neuro@@ 20
Nice 20
Power 20
Pres@@ 20
Princeton 20
Reed 20
Roc@@ 20
Roger 20
Romo 20
Roy 20
SB 20
Sec@@ 20
Shi@@ 20
Sobule 20
Such 20
Super@@ 20
U.K 20
Unlike 20
Vegas 20
Ver@@ 20
Virtual 20
Vo@@ 20
War@@ 20
Wi 20
Yo 20
Yor@@ 20
Zimbabwe 20
accelerated 20
acceptable 20
accidentally 20
adjust@@ 20
admire 20
ago@@ 20
aire 20
album 20
ank 20
antibodies 20
appropriately 20
arch@@ 20
archive 20
arg@@ 20
ari 20
art@@ 20
ashes 20
astronomical 20
ater 20
athletes 20
attachment 20
attempted 20
automobiles 20
aw 20
barrels 20
beaches 20
beans 20
bear@@ 20
bent 20
billboard 20
block@@ 20
blocked 20
blu@@ 20
blueprint 20
bot@@ 20
camp@@ 20
cardiovascular 20
cartoonist 20
cataly@@ 20
cathedral 20
character@@ 20
cleaner 20
cliffs 20
cocktail 20
command@@ 20
communal 20
conce@@ 20
conclusions 20
conducting 20
consists 20
conspiracy 20
contents 20
convergence 20
cracy 20
creators 20
cultivate 20
custom@@ 20
cycl@@ 20
d.html 20
declining 20
defeat 20
desires 20
developmental 20
developments 20
diplomat 20
discre@@ 20
dition 20
diver@@ 20
dom 20
dor@@ 20
drilling 20
drowning 20
dunes 20
dwar@@ 20
earning 20
eli@@ 20
elly 20
elu@@ 20
eman@@ 20
employed 20
employee 20
endless 20
entity 20
envy 20
erg@@ 20
ern@@ 20
exce@@ 20
extends 20
fatty 20
fertility 20
finger@@ 20
fluctuations 20
followers 20
fragments 20
gallons 20
ght 20
glow 20
glowing 20
grief 20
han@@ 20
hears 20
hij@@ 20
historian 20
holiday 20
hotels 20
ille 20
illnesses 20
imposed 20
improvements 20
improvisation 20
industrialized 20
inhi@@ 20
innovators 20
inputs 20
installations 20
intent 20
interviewing 20
intrinsically 20
inviting 20
involvement 20
itating 20
ket 20
kh@@ 20
laboratories 20
lays 20
lear@@ 20
liberals 20
lips 20
lized 20
lum@@ 20
maintaining 20
malnutrition 20
manifestation 20
mantis 20
mers 20
mic@@ 20
midnight 20
mir@@ 20
moms 20
monster 20
mou@@ 20
mounted 20
multinational 20
mustard 20
negotiation 20
negotiations 20
norm 20
notation 20
observer 20
obsession 20
occup@@ 20
officials 20
ok@@ 20
oney 20
operational 20
orbital 20
ous@@ 20
ozone 20
passions 20
peaks 20
penetr@@ 20
performs 20
periodic 20
pesticides 20
pic@@ 20
pies 20
pipes 20
pit 20
placing 20
poets 20
pond 20
potatoes 20
predicts 20
prescri@@ 20
prescription 20
privacy 20
projections 20
pumps 20
quantities 20
recipes 20
refer@@ 20
reflective 20
relevance 20
rever@@ 20
reviewed 20
rolls 20
romance 20
san@@ 20
sau@@ 20
scal@@ 20
schooling 20
scripts 20
seasons 20
shirts 20
shower 20
sign@@ 20
simul@@ 20
slaves 20
slept 20
slight 20
slip 20
sman 20
snakes 20
spades 20
spills 20
squares 20
squeeze 20
starvation 20
stated 20
stereo@@ 20
strictly 20
suff@@ 20
sufficient 20
supports 20
suspicious 20
symbo@@ 20
symphony 20
taboo 20
tattoos 20
tel@@ 20
telephones 20
thirdly 20
throws 20
tiger 20
tops 20
tortured 20
transcend 20
transcendence 20
translating 20
une 20
unpredictable 20
unstable 20
urgency 20
valve 20
variability 20
vector 20
victory 20
visuals 20
wasting 20
wit@@ 20
womb 20
worldview 20
0 19
1.3 19
160 19
5.@@ 19
500,000 19
63 19
80,000 19
82 19
AC@@ 19
AR@@ 19
Acumen 19
Ages 19
Amanda 19
Bertie 19
Better 19
Bond 19
Bono 19
Brilliant 19
Buil@@ 19
CA@@ 19
Cities 19
Clearly 19
Cuba 19
DG 19
DP 19
Excuse 19
Falcon 19
Forget 19
Gl@@ 19
Got 19
Has 19
Hillis 19
Hol@@ 19
Huh 19
Hur@@ 19
IMF 19
IQ 19
Je@@ 19
Kar@@ 19
Kingdom 19
La@@ 19
Le 19
Lebanon 19
Mediterranean 19
Miller 19
Mountains 19
Move 19
Music 19
Nicole 19
Oliver 19
Ori@@ 19
Panbanisha 19
Pepsi 19
Pers@@ 19
Port 19
Portugal 19
PowerPoint 19
Qatar 19
RG 19
RSW 19
Recently 19
Rom@@ 19
SE@@ 19
Simple 19
Skype 19
Sri 19
Stirling 19
Stories 19
Studio 19
Talks 19
Tamiflu 19
Tar@@ 19
Tennessee 19
Tom@@ 19
Uh 19
Vir@@ 19
Whoa 19
Win@@ 19
Witness 19
Working 19
abalone 19
absorbed 19
absurd 19
acceleration 19
accent 19
accidental 19
accountable 19
acious 19
ada 19
advis@@ 19
ae 19
aerial 19
affairs 19
agnostic 19
ald 19
algebra 19
alling 19
alter 19
analy@@ 19
animated 19
anism 19
ano 19
antenna 19
antibiotic 19
anxious 19
appliances 19
are@@ 19
aring 19
arity 19
arrest 19
arrow 19
arteries 19
aspir@@ 19
assigned 19
asts 19
autistic 19
availability 19
awards 19
aying 19
bab@@ 19
bble 19
beginnings 19
bited 19
blur@@ 19
bomb@@ 19
breakthroughs 19
bricks 19
broadly 19
bru@@ 19
bullet 19
bump 19
bun@@ 19
buys 19
camels 19
campaigns 19
chalk 19
charts 19
chess 19
choreo@@ 19
circum@@ 19
citizenship 19
claws 19
coherent 19
coincidence 19
collabor@@ 19
complaining 19
compose 19
contest 19
conve@@ 19
convenience 19
conver@@ 19
cooked 19
cooler 19
corrupt 19
cos@@ 19
couples 19
credible 19
criticized 19
crowds 19
curator 19
deficit 19
deforestation 19
dered 19
developer 19
digitize 19
distinctive 19
distingu@@ 19
distr@@ 19
dragged 19
drama 19
dune 19
ect@@ 19
ees 19
effectiveness 19
emission 19
emo@@ 19
emphasis 19
empires 19
encies 19
enlightened 19
equator 19
eries 19
etics 19
evolves 19
excess 19
exclusive 19
execution 19
exit 19
exp@@ 19
explorers 19
export 19
extending 19
extensive 19
extro@@ 19
ez 19
fel@@ 19
fet@@ 19
ffs 19
fic@@ 19
fications 19
fidd@@ 19
filmmakers 19
fin 19
financially 19
fishes 19
flap 19
forbid 19
free@@ 19
fulfill 19
fulfilled 19
fungus 19
gin 19
gratitude 19
handling 19
heck 19
hopeless 19
ich 19
ideology 19
ignorance 19
illed 19
implants 19
implication 19
inclusive 19
incorpor@@ 19
indoor 19
inefficient 19
ington 19
ink@@ 19
inorganic 19
insisted 19
instincts 19
inter 19
interference 19
investig@@ 19
ira 19
ist@@ 19
ita 19
jacket 19
jeans 19
jury 19
kies 19
kilograms 19
kings 19
kly 19
lean 19
leather 19
lightweight 19
lim@@ 19
lingu@@ 19
linguistic 19
lob@@ 19
log@@ 19
macro 19
mammogram 19
manifest 19
meaningless 19
measurable 19
melted 19
mentors 19
mess@@ 19
metabolic 19
million@@ 19
ministers 19
mobil@@ 19
morally 19
murdered 19
newly 19
occupation 19
offshore 19
oo 19
ore@@ 19
organiz@@ 19
our@@ 19
param@@ 19
partial 19
pathology 19
payload 19
peace@@ 19
pedal 19
peri@@ 19
pilots 19
pioneer 19
pirate 19
pity 19
plas@@ 19
playground 19
poorer 19
pops 19
posters 19
pot@@ 19
presentations 19
preventable 19
prevents 19
priest 19
producer 19
puppet 19
raises 19
rear 19
reconstruct 19
referred 19
register 19
rein@@ 19
relaxed 19
repe@@ 19
responds 19
retired 19
revealing 19
rotating 19
rupt 19
salmon 19
schizophrenia 19
searches 19
seriousness 19
server 19
sey 19
sha 19
shipped 19
shrink 19
shrinking 19
sia 19
siblings 19
sin 19
skies 19
slave 19
slices 19
slogan 19
smiles 19
snow@@ 19
solves 19
souls 19
sounded 19
sponsor 19
squared 19
stereo 19
strips 19
structured 19
stumbled 19
submitted 19
tagging 19
tant 19
tenth 19
tern@@ 19
textile 19
thri@@ 19
thrust 19
toll 19
tory 19
total@@ 19
tra@@ 19
traditionally 19
traw@@ 19
tribute 19
unacceptable 19
unequal 19
unfair 19
unite 19
update 19
urgent 19
usage 19
ushing 19
valid 19
verted 19
veterans 19
volumes 19
wa 19
wan@@ 19
warrior 19
watches 19
whistle 19
whistling 19
wipe 19
worn 19
zy 19
110 18
11@@ 18
15th 18
1989 18
2030 18
400,000 18
61 18
Agency 18
Ass@@ 18
BP 18
Band 18
Ber@@ 18
Bhutan 18
Biosphere 18
Bol@@ 18
CIA 18
Carter 18
Christopher 18
Collider 18
Commun@@ 18
Company 18
Conn@@ 18
Costa 18
Cup 18
D.C. 18
DL 18
Dev@@ 18
Diana 18
Early 18
Easter 18
Either 18
Energy 18
Engine@@ 18
FOXO 18
Fer@@ 18
Galois 18
Gehry 18
Gold 18
Hadron 18
Harris 18
Haw@@ 18
Help 18
Hyun 18
IDEO 18
IR@@ 18
IT 18
Ide@@ 18
Intel 18
Jimmy 18
Jonas 18
Jordan 18
Kal@@ 18
LEDs 18
Labs 18
Less 18
MR 18
MacArthur 18
Mag@@ 18
Mark@@ 18
Mau@@ 18
Miss 18
My@@ 18
Natalie 18
Nepal 18
Noah 18
Pakistani 18
Peru 18
Philadelphia 18
Point 18
Por@@ 18
Quite 18
Road 18
Rouge 18
Saint 18
Save 18
Scientists 18
Sergio 18
Service 18
Sing@@ 18
Small 18
Sook 18
Soon 18
Te@@ 18
Trust 18
Turkish 18
Type 18
U.@@ 18
UCLA 18
Ur@@ 18
Ven@@ 18
Vietnamese 18
WHO 18
Whit@@ 18
Wi@@ 18
YR 18
Yorker 18
abo@@ 18
acceptance 18
acity 18
acking 18
adventures 18
adver@@ 18
airports 18
airs 18
akers 18
alongside 18
ancestry 18
angels 18
anic 18
announcement 18
annoying 18
anticipated 18
apparent 18
appealing 18
appearing 18
arbitrary 18
ared 18
arithmetic 18
artery 18
articulate 18
ashed 18
aspirations 18
ast@@ 18
attempting 18
aura 18
auto@@ 18
bands 18
bea@@ 18
bending 18
bia 18
biased 18
bioluminescent 18
birth@@ 18
bladder 18
bli@@ 18
blin@@ 18
blind@@ 18
boiling 18
bonus 18
booms 18
boun@@ 18
boyfriend 18
bread@@ 18
bright@@ 18
brilliance 18
capturing 18
cardi@@ 18
cav@@ 18
celebr@@ 18
cement 18
cereal 18
characterized 18
che 18
chil@@ 18
child@@ 18
cigarette 18
clap 18
cleaned 18
collapses 18
commercials 18
committee 18
competent 18
compu@@ 18
cons@@ 18
consistently 18
constitution 18
contagious 18
contracts 18
coordin@@ 18
correspond 18
creation@@ 18
crip@@ 18
criticism 18
crowded 18
crystal 18
cumulative 18
daylight 18
decentralized 18
degradation 18
delicate 18
demographics 18
deprivation 18
deriv@@ 18
dian 18
dians 18
diffusion 18
digits 18
directors 18
disgusting 18
dissem@@ 18
divergence 18
dog@@ 18
donated 18
dow@@ 18
drought 18
dys@@ 18
eas@@ 18
eco 18
eda 18
eded 18
edited 18
ements 18
enger 18
entitled 18
epi@@ 18
epiphany 18
ero 18
essay 18
ett 18
evaluate 18
evident 18
exceptional 18
exhausted 18
experimenting 18
faint 18
fees 18
fellows 18
firmly 18
flash@@ 18
focuses 18
fol@@ 18
foot@@ 18
ford 18
forehead 18
formul@@ 18
framed 18
freeze 18
frequent 18
fresh@@ 18
gan 18
gently 18
gn@@ 18
grabs 18
graders 18
guided 18
has@@ 18
hav@@ 18
hea@@ 18
heavens 18
heel 18
hid 18
highways 18
his@@ 18
hives 18
horrific 18
iPods 18
icity 18
icy 18
igh@@ 18
ights 18
igned 18
iles 18
illiterate 18
imbalance 18
immensely 18
immersed 18
inate 18
incremental 18
ining 18
inj@@ 18
introverts 18
iously 18
isms 18
issued 18
ja@@ 18
john 18
kil@@ 18
kilogram 18
lane 18
legendary 18
legisl@@ 18
lessness 18
literary 18
lor 18
magnet 18
manages 18
manipulated 18
mat 18
meantime 18
memorial 18
mentality 18
mes 18
minim@@ 18
mix@@ 18
modified 18
monthly 18
motorcycle 18
multiverse 18
navigation 18
neurological 18
nian 18
nour@@ 18
numb 18
objec@@ 18
oiled 18
ole 18
ong@@ 18
onia 18
onto@@ 18
optimize 18
orb@@ 18
orbiting 18
ordin@@ 18
ough 18
outrageous 18
oy@@ 18
pad@@ 18
passenger 18
patr@@ 18
peel 18
pel@@ 18
penetrate 18
pepper 18
pes 18
phon@@ 18
pit@@ 18
placement 18
pling 18
plotted 18
pol@@ 18
poll 18
polymer 18
pools 18
populated 18
ported 18
ppy 18
preservation 18
primordial 18
puberty 18
pushes 18
races 18
railroad 18
ration@@ 18
reactor 18
redesign 18
registered 18
regul@@ 18
reinventing 18
repertoire 18
replication 18
resid@@ 18
resonance 18
respiratory 18
ret 18
retain 18
returning 18
rigid 18
rip 18
roc@@ 18
rooted 18
rupees 18
sadness 18
sapiens 18
satisfy 18
scaffold 18
separ@@ 18
settle 18
sex@@ 18
shaping 18
shout 18
shouting 18
signing 18
smartest 18
snap 18
sought 18
sourcing 18
spac@@ 18
spins 18
stabilize 18
statistically 18
steak 18
steer 18
steering 18
stepping 18
stereotypes 18
submarine 18
substitute 18
sucked 18
suggestions 18
sums 18
sunny 18
swe@@ 18
synapses 18
sync 18
tail@@ 18
taller 18
tea@@ 18
technicians 18
temper@@ 18
temptation 18
tening 18
tense 18
testosterone 18
theirs 18
thful 18
thic 18
timeline 18
tion.html 18
tized 18
tman 18
tofu 18
tolerant 18
tom 18
ton@@ 18
tracked 18
transplan@@ 18
triggers 18
trunk 18
tus 18
undergraduate 18
unimaginable 18
united 18
uns 18
uph@@ 18
ur 18
ures 18
ust 18
val 18
variables 18
veri@@ 18
visionary 18
visualizing 18
wages 18
wallet 18
wander 18
wea@@ 18
weekends 18
wing@@ 18
wished 18
wounded 18
1,100 17
1985 17
1996 17
50@@ 17
67 17
69 17
7,@@ 17
8.@@ 17
AG 17
Announcer 17
Archie 17
Arts 17
As@@ 17
Bab@@ 17
Babylon 17
Barbara 17
Beethoven 17
Benki 17
Billy 17
Book 17
CDs 17
Cham@@ 17
Climate 17
Death 17
Dem@@ 17
Dubai 17
EB 17
Economist 17
Europeans 17
Exactly 17
FBI 17
Fields 17
Fifty 17
Fox 17
Fre@@ 17
Fro@@ 17
Given 17
Greg 17
Hiroshima 17
Holy 17
Hom@@ 17
Honey 17
Hopefully 17
ID@@ 17
Incredible 17
Jean 17
Khmer 17
Klein 17
Las 17
Lin@@ 17
Live 17
Mahatma 17
Mahmoud 17
Mama 17
Maryland 17
Max 17
Mermaid 17
Mes@@ 17
Mind 17
Mola 17
Movement 17
Mrs. 17
Mt 17
Nollywood 17
Often 17
Old 17
Pink 17
Rel@@ 17
Republicans 17
Rights 17
Ron 17
Roots 17
Shoots 17
Side 17
Some@@ 17
Students 17
Tomorrow 17
Treating 17
Tumor 17
Tw@@ 17
UV 17
Ultimately 17
Use 17
Yellow 17
Yesterday 17
abstraction 17
ac 17
academics 17
accompl@@ 17
adi@@ 17
ado@@ 17
adolescent 17
adolescents 17
adv@@ 17
aer@@ 17
aesthetics 17
affec@@ 17
after@@ 17
agrees 17
aisle 17
alis@@ 17
aliz@@ 17
alli@@ 17
altruism 17
ames 17
ange 17
animations 17
antiangiogenic 17
apartheid 17
apologize 17
apparatus 17
archae@@ 17
arians 17
assembling 17
astic 17
ateral 17
athlete 17
ation.html 17
atr@@ 17
attending 17
auditorium 17
automatic 17
backward 17
bad@@ 17
baker 17
balances 17
basin 17
beard 17
believ@@ 17
belonging 17
bicycles 17
bikes 17
billion@@ 17
bleeding 17
blend 17
bless 17
bon 17
bothered 17
branding 17
bronze 17
bulk 17
bury 17
cabinet 17
calibr@@ 17
cam@@ 17
carbonate 17
carve 17
ci 17
clic@@ 17
coach 17
cochlear 17
collaborator 17
come@@ 17
comet 17
commerce 17
commission 17
common@@ 17
competitors 17
complained 17
comprehensive 17
conclu@@ 17
conden@@ 17
confusing 17
containers 17
contamin@@ 17
cookies 17
cortical 17
cosmology 17
cradle 17
cran@@ 17
crawling 17
cris@@ 17
crises 17
cross@@ 17
crust 17
cubic 17
curved 17
cut@@ 17
cy 17
dangers 17
databases 17
ddled 17
deconstruc@@ 17
defending 17
deliberately 17
demanding 17
dent 17
deny 17
depended 17
descriptions 17
determination 17
diagrams 17
dining 17
displaced 17
distracted 17
donation 17
drinks 17
eager 17
echo 17
ector 17
eff@@ 17
eful 17
elites 17
embryonic 17
ement@@ 17
encing 17
enri@@ 17
enzymes 17
ers@@ 17
erup@@ 17
escaped 17
estrogen 17
etary 17
eters 17
exagger@@ 17
explicitly 17
explode 17
extinctions 17
extracted 17
fMRI 17
fal@@ 17
fills 17
fingertips 17
fishery 17
fitted 17
flags 17
flames 17
flock 17
floods 17
fool@@ 17
friction 17
gaining 17
gas@@ 17
generator 17
geometric 17
ghost 17
gic 17
glob@@ 17
gloves 17
gosh 17
grandmothers 17
grasses 17
gratification 17
grazing 17
grip 17
groundbreaking 17
grounded 17
grounds 17
grow@@ 17
guidelines 17
hacker 17
halls 17
harsh 17
hau@@ 17
headaches 17
helix 17
high@@ 17
holder 17
holders 17
hoo@@ 17
house@@ 17
hurricane 17
hurts 17
hydr@@ 17
hyper@@ 17
immortal 17
implanted 17
improves 17
incorporate 17
inject 17
ins@@ 17
insecure 17
inspec@@ 17
intellect 17
intend 17
invaded 17
irrelevant 17
irrigation 17
ises 17
ison 17
ity.html 17
judges 17
kilo@@ 17
kins 17
kite 17
knocked 17
larvae 17
lav@@ 17
lazy 17
legged 17
lem@@ 17
lessly 17
lik@@ 17
lip 17
locking 17
loo@@ 17
loops 17
lousy 17
lover 17
lure 17
mania 17
manu@@ 17
manufactured 17
margin 17
marin@@ 17
masters 17
mastery 17
mathematically 17
measurement 17
mechan@@ 17
mies 17
minimize 17
mom@@ 17
mor 17
motions 17
mut@@ 17
nitric 17
noble 17
noises 17
obscure 17
ola 17
opposition 17
optics 17
other@@ 17
oun@@ 17
ousness 17
packing 17
paradise 17
paro@@ 17
pass@@ 17
passengers 17
patents 17
payment 17
peanuts 17
pending 17
perceptual 17
perpetu@@ 17
pers@@ 17
personnel 17
peti@@ 17
pillars 17
pizza 17
plan@@ 17
pleasures 17
polit@@ 17
popped 17
pots 17
pou@@ 17
pper 17
preferences 17
preferred 17
primal 17
prizes 17
programmer 17
prone 17
pros@@ 17
protective 17
publication 17
py@@ 17
queens 17
quo 17
quotes 17
racial 17
rail@@ 17
rank 17
ratings 17
reclaim 17
refin@@ 17
regenerative 17
reinvent 17
releasing 17
remotely 17
rendering 17
replic@@ 17
replicator 17
requirements 17
reser@@ 17
retail 17
rex 17
rig 17
ringing 17
ruled 17
sadly 17
sanitation 17
scars 17
scholars 17
scholarship 17
scuba 17
seafood 17
sealed 17
servant 17
settings 17
sideways 17
similarities 17
simulated 17
sities 17
sound@@ 17
sourced 17
speeches 17
sperm 17
spores 17
stabil@@ 17
stap@@ 17
startling 17
statistic 17
stats 17
stimulus 17
stly 17
stock@@ 17
strain 17
stripped 17
strive 17
subjective 17
submersible 17
suburbs 17
suey 17
superpower 17
sures 17
susceptible 17
swear 17
switches 17
sympathy 17
tee 17
thir@@ 17
thoughtful 17
ticism 17
tool@@ 17
torn 17
toxin 17
traction 17
trav@@ 17
trea@@ 17
treats 17
tually 17
tuberculosis 17
tum 17
uh 17
ump 17
unc@@ 17
unch 17
underway 17
underwear 17
unified 17
union 17
uploaded 17
valves 17
varied 17
vastly 17
ven 17
vet 17
vis 17
vocal 17
volts 17
warehouse 17
warn 17
wavelength 17
wax 17
weakness 17
weir@@ 17
whip 17
whis@@ 17
worries 17
wrong@@ 17
zer 17
zip 17
-@@ 16
1900 16
1918 16
1949 16
1973 16
1975 16
1976 16
1982 16
1983 16
1992 16
2,500 16
2.5 16
50th 16
AT@@ 16
Ali 16
Already 16
Among 16
Architecture 16
Association 16
Aurora 16
Austria 16
Ba@@ 16
Bad 16
Bali 16
Believe 16
Between 16
Bonobo 16
Bos@@ 16
Bot@@ 16
C.@@ 16
CAPTCHA 16
CT 16
Cap@@ 16
Cen@@ 16
Certainly 16
Choir 16
Club 16
Cooper 16
Copernicus 16
Coun@@ 16
Cuban 16
DJ 16
Democratic 16
Democrats 16
Doha 16
Dolby 16
Down 16
Edward 16
Electr@@ 16
Full 16
Gi@@ 16
Grace 16
Greece 16
Grey 16
Han 16
Hindu 16
Hitler 16
Hubble 16
Hungarian 16
Information 16
Inside 16
Iraqi 16
Isaac 16
J. 16
Jacqueline 16
Justice 16
KT 16
Karen 16
Kh@@ 16
Langley 16
Language 16
Later 16
Ma 16
Mann 16
Marshall 16
Mem@@ 16
Millennium 16
Mississippi 16
Modern 16
Molas 16
Mont@@ 16
Muhammad 16
NM 16
Net 16
Nevada 16
Nine 16
Oprah 16
Palestine 16
Paulo 16
Pentagon 16
Perfect 16
Philippe 16
Police 16
Psycho@@ 16
Py@@ 16
Raise 16
Real 16
Rev@@ 16
Rift 16
Robin 16
Robo@@ 16
Roosevelt 16
Rory 16
Rus@@ 16
Rush 16
Russell 16
Saddam 16
Sebastian 16
Self 16
Senate 16
Sex 16
Slow 16
Somehow 16
Stanley 16
Stay 16
Stockholm 16
Sum@@ 16
TD 16
TEDster 16
Ted 16
Though 16
Treasure 16
Turn 16
Ushahidi 16
Vagina 16
Venice 16
Von 16
Walter 16
Wol@@ 16
Work 16
abused 16
accused 16
achievements 16
adjacent 16
affir@@ 16
aint 16
airing 16
akes 16
alarming 16
alle@@ 16
alo@@ 16
altogether 16
ambulance 16
amen@@ 16
amphi@@ 16
ancies 16
announcing 16
any@@ 16
applause 16
arrangement 16
ased 16
assign 16
aster 16
aston@@ 16
atch 16
ater@@ 16
atheism 16
atin 16
atmospheric 16
aunt 16
autom@@ 16
aven@@ 16
awak@@ 16
axe 16
ballet 16
ballot 16
bankers 16
basics 16
beekeepers 16
ben 16
binds 16
bis@@ 16
blocking 16
bol@@ 16
boost 16
bot 16
box@@ 16
brain@@ 16
broadcasting 16
brutal 16
bull 16
bund@@ 16
burns 16
bypass 16
calculators 16
capsule 16
carved 16
catalyst 16
ced 16
cellphones 16
centimeters 16
chan@@ 16
charming 16
chord 16
cigarettes 16
cin@@ 16
cles 16
clinically 16
cloned 16
cobra 16
collects 16
combinations 16
commands 16
commu@@ 16
communist 16
composing 16
conferences 16
constitu@@ 16
constr@@ 16
contacts 16
contaminated 16
contributions 16
copy@@ 16
correlated 16
corrup@@ 16
crashed 16
crater 16
crawl 16
cribe 16
critic 16
cruci@@ 16
cue 16
decep@@ 16
deser@@ 16
desirable 16
detectors 16
dged 16
dging 16
dim@@ 16
disc 16
dise 16
dispropor@@ 16
disturbed 16
dives 16
downstairs 16
drank 16
dumped 16
dye 16
earth@@ 16
ections 16
edible 16
edic@@ 16
een 16
eks 16
elessly 16
emergent 16
emphas@@ 16
enthusiastic 16
envision 16
enz@@ 16
eping 16
ert 16
esian 16
excerpt 16
experimentation 16
explicit 16
exploitation 16
explorer 16
expressing 16
extremism 16
facilit@@ 16
faculty 16
fai@@ 16
fairness 16
fairy 16
fall@@ 16
fantas@@ 16
fear@@ 16
feminism 16
ference 16
filming 16
fit@@ 16
fitting 16
fix@@ 16
fluids 16
folder 16
forecast 16
forgiveness 16
functionality 16
funeral 16
fur 16
gadgets 16
gamma 16
gears 16
gel@@ 16
genesis 16
genomic 16
genuinely 16
geny 16
germ 16
gh 16
gible 16
glori@@ 16
governed 16
graduates 16
gran@@ 16
guar@@ 16
haw@@ 16
heartbeat 16
hello 16
hem@@ 16
holistic 16
hoods 16
hug 16
hypo@@ 16
ials 16
ideals 16
ideological 16
idi@@ 16
igh 16
illion 16
illustr@@ 16
illustrates 16
ima 16
imitation 16
impe@@ 16
import 16
impose 16
impress 16
inadequate 16
incidence 16
indi@@ 16
induced 16
infinity 16
inflation 16
inges 16
injected 16
inos 16
insist 16
instinctively 16
intensely 16
intergalactic 16
intrigued 16
irrever@@ 16
iss 16
istan 16
itch 16
ition 16
ja 16
jac@@ 16
junction 16
justi@@ 16
kar@@ 16
kel 16
kno@@ 16
lacking 16
lau@@ 16
lava 16
law@@ 16
lay@@ 16
liberty 16
lifelike 16
lifetimes 16
limitation 16
lings 16
listen@@ 16
loser 16
luc@@ 16
lump 16
maggots 16
manufacturers 16
marriages 16
maternal 16
mega 16
memorize 16
metropolitan 16
microwave 16
migrate 16
mindful 16
mineral 16
missile 16
modeled 16
modes 16
mond 16
monsters 16
motivates 16
nanoscale 16
neo 16
neo@@ 16
nests 16
neurology 16
neutr@@ 16
newest 16
ninth 16
northeast 16
notebook 16
novels 16
numer@@ 16
nursing 16
nutritional 16
obligation 16
offensive 16
officers 16
ographic 16
oll 16
ological 16
onset 16
ops 16
optim@@ 16
org@@ 16
oting 16
overlap 16
packs 16
payoff 16
pedestrian 16
perpetr@@ 16
peter 16
phrases 16
pig@@ 16
pine 16
plo@@ 16
pneumonia 16
pois@@ 16
popping 16
pore 16
posts 16
poured 16
pred@@ 16
preserving 16
prev@@ 16
progr@@ 16
projecting 16
protocol 16
proves 16
provocative 16
puppy 16
quantity 16
rab@@ 16
rating 16
real@@ 16
realizes 16
rebel 16
rebuilding 16
regain 16
regarded 16
regulated 16
reminder 16
remix@@ 16
rented 16
requests 16
respectful 16
restricted 16
revelation 16
ridicul@@ 16
rom@@ 16
roughness 16
ruin 16
ry@@ 16
sac@@ 16
sar@@ 16
satisfying 16
scare 16
schedule 16
scri@@ 16
seas@@ 16
sect 16
selective 16
seller 16
serotonin 16
serv@@ 16
settlement 16
shoots 16
shortage 16
shr@@ 16
similarity 16
simplify 16
simplistic 16
slate 16
snea@@ 16
sof@@ 16
soils 16
som 16
someplace 16
spends 16
spines 16
sponsored 16
spouse 16
stole 16
storing 16
strangely 16
straw 16
strict 16
strokes 16
strongest 16
suburbia 16
suffers 16
supercomputer 16
symbio@@ 16
syringe 16
taxi 16
technician 16
theft 16
thrive 16
thu@@ 16
tide 16
timber 16
tings 16
tionary 16
titled 16
tizing 16
toilets 16
tourism 16
towel 16
translates 16
transplants 16
trick@@ 16
troubling 16
tter 16
twe@@ 16
ulated 16
umbrella 16
unfolding 16
unhealthy 16
unlock 16
urity 16
ush@@ 16
ushes 16
val@@ 16
var@@ 16
veil 16
versa 16
viewers 16
visceral 16
vy 16
workshops 16
zeros 16
zoo 16
,@@ 15
1,200 15
100@@ 15
1974 15
1993 15
2012 15
40@@ 15
60@@ 15
70,000 15
ABC 15
ALS 15
Achilles 15
Ann 15
Anthony 15
Babies 15
Baby 15
Baghdad 15
Barbie 15
Beck 15
Bir@@ 15
Bloo@@ 15
Bollywood 15
Bridge 15
Browne 15
Buddhism 15
Bun@@ 15
Ca@@ 15
Call 15
Cer@@ 15
Change 15
Chi@@ 15
Chicken 15
Chief 15
Close 15
Cochrane 15
Cohen 15
Colum@@ 15
Cross 15
Cru@@ 15
DDT 15
Dennis 15
Dimitri 15
Dor@@ 15
Doug 15
Dr@@ 15
E. 15
EEG 15
EG 15
Eden 15
Environmental 15
Excellent 15
Fahrenheit 15
Fast 15
Father 15
Financial 15
Fine 15
Friedman 15
Gallery 15
Garden 15
Genome 15
Getting 15
Gilbert 15
Girls 15
God@@ 15
Guinea 15
HA 15
Hem@@ 15
Hmm 15
Holocaust 15
IV 15
Independent 15
Innovation 15
Julie 15
KS 15
Kenyan 15
Kr@@ 15
Left 15
Luke 15
Machine 15
Magazine 15
Michigan 15
Midwest 15
Mitchell 15
Morgan 15
Moscow 15
Ms 15
Navy 15
Nazi 15
Neumann 15
Non@@ 15
Ol@@ 15
Oregon 15
Oscar 15
Out@@ 15
PIPA 15
Philippines 15
Photoshop 15
Pre@@ 15
Pur@@ 15
Rice 15
Riverside 15
SOPA 15
Sand@@ 15
Sc@@ 15
Sim@@ 15
Sioux 15
Six@@ 15
Starbucks 15
Stefan 15
Stuxnet 15
Sudhir 15
Super 15
Survey 15
TEDWomen 15
Taiwan 15
Tarahumara 15
Text 15
Thirty 15
Titanic 15
Top 15
Town 15
Toyota 15
Tradi@@ 15
Transition 15
Ul@@ 15
Under 15
Usually 15
VC 15
Vermeer 15
Vol@@ 15
Walmart 15
Warner 15
Wired 15
Word 15
Yale 15
ZK 15
abnormal 15
abor@@ 15
acad@@ 15
accoun@@ 15
accumulation 15
adopting 15
adulthood 15
adven@@ 15
advertis@@ 15
aft 15
ags 15
ait 15
aki 15
ami 15
ampli@@ 15
anatomical 15
anc@@ 15
andan 15
ander 15
anthropologist 15
anthropologists 15
antidote 15
appe@@ 15
applau@@ 15
ares 15
arrangements 15
arriving 15
assess 15
astro@@ 15
aters 15
atri@@ 15
author@@ 15
auto 15
automated 15
avoiding 15
awarded 15
ax 15
aya 15
ba@@ 15
backgrounds 15
bag@@ 15
bakery 15
banana 15
bank@@ 15
banker 15
basketball 15
beats 15
believer 15
berry 15
blob 15
bloggers 15
boils 15
bookstore 15
borrowing 15
brac@@ 15
brakes 15
buff@@ 15
builder 15
business@@ 15
butterflies 15
cano@@ 15
captures 15
carbs 15
carriage 15
casting 15
casualties 15
catalog 15
caus@@ 15
celebrating 15
celestial 15
celled 15
cess@@ 15
cheaply 15
chi 15
chur@@ 15
cid@@ 15
cing 15
circl@@ 15
class@@ 15
cle@@ 15
coded 15
coins 15
collector 15
complain 15
complications 15
composite 15
compul@@ 15
condi@@ 15
confirm 15
confirmed 15
consider@@ 15
constructive 15
contexts 15
corresponding 15
counterintuitive 15
courtyard 15
creepy 15
cript 15
crochet 15
crosses 15
currents 15
cutter 15
daf 15
ddle 15
dea@@ 15
dean 15
deserts 15
deterior@@ 15
dict@@ 15
diplomatic 15
dis 15
disbelief 15
disciplinary 15
displayed 15
disposal 15
dit 15
divers 15
dom@@ 15
dominate 15
donations 15
doo 15
dresses 15
duction 15
dumping 15
dun@@ 15
duplic@@ 15
edi@@ 15
editors 15
edy 15
eer 15
eld 15
encounters 15
entr@@ 15
epilepsy 15
eps 15
erase 15
erie 15
erosion 15
etal 15
existential 15
expan@@ 15
expeditions 15
explosions 15
extremes 15
fabrication 15
faiths 15
fans 15
ferti@@ 15
fici@@ 15
fitness 15
flashing 15
flavors 15
flooding 15
flourishing 15
focal 15
fooled 15
fragmented 15
framing 15
frontiers 15
fts 15
fueled 15
fund@@ 15
gal@@ 15
gangs 15
gar 15
gifted 15
gled 15
glu@@ 15
graphers 15
graphically 15
grav@@ 15
hallway 15
handsome 15
haz@@ 15
heels 15
hike 15
hilarious 15
hobby 15
hon@@ 15
hosts 15
hub 15
hummingbird 15
husbands 15
hydrocarbons 15
ices 15
icked 15
identities 15
impl@@ 15
incomplete 15
indicated 15
indoors 15
indul@@ 15
industri@@ 15
inmates 15
inning 15
intervene 15
intestine 15
intr@@ 15
invasion 15
invites 15
isol@@ 15
iteration 15
ived 15
jack 15
keen 15
killers 15
kindly 15
ku@@ 15
lakes 15
lasted 15
ledge 15
lef@@ 15
liberation 15
light@@ 15
long@@ 15
lowered 15
lymph 15
makeup 15
margins 15
marshmallow 15
meanwhile 15
memorized 15
messing 15
metaphorical 15
mighty 15
millennium 15
minor 15
mites 15
monk 15
multimedia 15
mutually 15
nerd 15
num@@ 15
nutrient 15
occupied 15
of@@ 15
oid 15
ope 15
operators 15
opho@@ 15
orchestras 15
oric 15
orph@@ 15
ots 15
ounding 15
oysters 15
pads 15
partially 15
peek 15
pel 15
penalty 15
performances 15
persist 15
pest 15
ph 15
phen@@ 15
phil@@ 15
photographing 15
physiological 15
pigmentation 15
pil@@ 15
pitches 15
plywood 15
policing 15
pollinators 15
poorly 15
port@@ 15
posture 15
ppers 15
practiced 15
prayers 15
preci@@ 15
precipit@@ 15
pressive 15
prince 15
progressive 15
projector 15
proliferation 15
promotes 15
propri@@ 15
prosthetics 15
protects 15
province 15
proving 15
psychiatrists 15
publisher 15
purpos@@ 15
quanti@@ 15
quantitative 15
quarks 15
que@@ 15
quez 15
reacting 15
reactors 15
recipient 15
reconciliation 15
recordings 15
refers 15
reflecting 15
refrigeration 15
replied 15
representations 15
reproductive 15
resemble 15
resort 15
responsive 15
retri@@ 15
reus@@ 15
rewarded 15
richness 15
right@@ 15
riv@@ 15
rock@@ 15
rot@@ 15
rub 15
rubble 15
sail 15
sank 15
scape 15
scarcity 15
scenarios 15
scheduled 15
scissors 15
scrap@@ 15
sculptor 15
seasonal 15
secretly 15
sensu@@ 15
separating 15
seques@@ 15
set@@ 15
shadows 15
shallow 15
shop@@ 15
shoreline 15
sidewalk 15
sighted 15
simulator 15
six@@ 15
skiing 15
slime 15
smartphone 15
snake 15
sole 15
soli@@ 15
spark 15
specialists 15
stakes 15
stand@@ 15
standardized 15
stimulated 15
styles 15
subsi@@ 15
suburban 15
sugars 15
supernova 15
surprises 15
surrounds 15
swam 15
swarm 15
sy@@ 15
synesthesia 15
tability 15
tack@@ 15
tai@@ 15
tasted 15
teapot 15
technologists 15
tectonic 15
teness 15
terrestrial 15
testi@@ 15
thood 15
threaten 15
thriving 15
ticking 15
tier 15
tism 15
tives 15
tobacco 15
tolerate 15
tooth@@ 15
tore 15
transducer 15
transferred 15
triumph 15
tro 15
trusting 15
tucked 15
turtle 15
turtles 15
twin 15
tz 15
uclear 15
ularity 15
ularly 15
ulating 15
uncles 15
unfold 15
uniform@@ 15
univers@@ 15
unky 15
unsustainable 15
unveils 15
uranium 15
urges 15
uti@@ 15
vac@@ 15
vascular 15
verbs 15
verge 15
vertebr@@ 15
vest 15
vibrate 15
vibration 15
villagers 15
voic@@ 15
volcano 15
volcanoes 15
von 15
wall@@ 15
warmth 15
wash@@ 15
width 15
windmill 15
wis@@ 15
wob@@ 15
wondrous 15
world.html 15
wounds 15
ye 15
yed 15
.5 14
00 14
10th 14
12th 14
1962 14
1967 14
8,@@ 14
90,000 14
AD@@ 14
Alfred 14
Antarctic 14
Any@@ 14
Ari@@ 14
Arkansas 14
Australian 14
Avenue 14
Ay@@ 14
Aye 14
Balkans 14
Batman 14
Blu@@ 14
Brain 14
Brand 14
Brigades 14
Bulgaria 14
Buy 14
CO@@ 14
Cairo 14
Captain 14
Channel 14
Colombia 14
Colorado 14
Connecticut 14
Conservation 14
Corporation 14
Cr@@ 14
Davis 14
Dawkins 14
Depression 14
Dic@@ 14
Direc@@ 14
Dre@@ 14
Duke 14
E.U. 14
E8 14
Eames 14
Eli@@ 14
End 14
Enriquez 14
Equ@@ 14
Er@@ 14
Essex 14
Esther 14
Ever 14
Everywhere 14
Eye 14
Fair 14
Fas@@ 14
Film 14
Finding 14
Forest 14
GPHIN 14
Galvao 14
Gaza 14
Goldman 14
Gould 14
Group 14
Gs 14
H5N1 14
Harlem 14
Hebrew 14
Hundreds 14
IP 14
Islam@@ 14
Ja@@ 14
Judaism 14
Kay 14
Ki@@ 14
Laboratory 14
Lam@@ 14
Len 14
Liter@@ 14
Living 14
Local 14
Magic 14
Maitreya 14
Mandarin 14
Marco 14
Maslow 14
Mathematica 14
Medic@@ 14
Mid@@ 14
Ministry 14
Minnesota 14
Moving 14
Much 14
Neither 14
Netra 14
Network 14
New@@ 14
Ninety 14
Norse 14
OPEC 14
Oil 14
On@@ 14
Online 14
Others 14
Otherwise 14
P. 14
Palestinians 14
Party 14
Pic@@ 14
Planet 14
Pop 14
Power@@ 14
Prom@@ 14
Ra@@ 14
Ram@@ 14
Rand 14
Resear@@ 14
Ronald 14
Sadly 14
Sarajevo 14
Scientific 14
Serious 14
Seth 14
Skycar 14
Smo@@ 14
Sort 14
Stu@@ 14
Student 14
Sub 14
Sul@@ 14
Superman 14
Sus@@ 14
Susie 14
TE@@ 14
Tab@@ 14
Tech 14
Tehran 14
Ter@@ 14
Troy 14
True 14
Tso 14
UK 14
Victorian 14
Vinci 14
Whole 14
acqu@@ 14
acronym 14
activation 14
addic@@ 14
adren@@ 14
advers@@ 14
advocacy 14
affection 14
agreements 14
agu@@ 14
aine 14
aj@@ 14
aka 14
aker 14
algorithmic 14
alpha 14
aman 14
amateurs 14
analytical 14
angel@@ 14
anning 14
announce 14
aper 14
appreci@@ 14
arc 14
arch 14
arche@@ 14
archet@@ 14
arized 14
arly 14
asing 14
aspiration 14
astounding 14
ata 14
atis@@ 14
ativity 14
auction 14
aul@@ 14
aur@@ 14
balancing 14
battles 14
beams 14
benign 14
bery 14
bi 14
blessing 14
blobs 14
blogosphere 14
blueprints 14
boar@@ 14
boil 14
bombar@@ 14
bombing 14
boot 14
booth 14
borne 14
bottlen@@ 14
breath@@ 14
bull@@ 14
burial 14
bursts 14
bus@@ 14
cabin 14
cad@@ 14
calculator 14
campaigning 14
capitalist 14
careers 14
casual 14
cau@@ 14
centralized 14
certificate 14
chambers 14
champion 14
chapters 14
charging 14
chas@@ 14
chees@@ 14
chewing 14
chiefs 14
china 14
chop@@ 14
clean@@ 14
closes 14
closet 14
cloudy 14
coaster 14
coated 14
cockroach 14
coding 14
cognition 14
collaborating 14
collections 14
collide 14
comment@@ 14
companion 14
competitions 14
conceived 14
concentr@@ 14
cone 14
consequ@@ 14
conserv@@ 14
contemplate 14
contributes 14
controller 14
converting 14
coolest 14
cops 14
cores 14
crafted 14
crocodile 14
crux 14
cryst@@ 14
cult 14
cultiv@@ 14
cursor 14
customized 14
cymatics 14
dam@@ 14
danced 14
daunting 14
deepen@@ 14
deer 14
delusion 14
demo@@ 14
dengue 14
denominator 14
desperation 14
devi@@ 14
diagnostics 14
diary 14
dice 14
differenti@@ 14
differentiate 14
digitally 14
din 14
dispersed 14
dispute 14
dividend 14
divorce 14
donate 14
dos 14
doub@@ 14
dove 14
downhill 14
dreadful 14
dried 14
drifting 14
dru@@ 14
drums 14
dug 14
ea 14
eces 14
ecologist 14
efficiently 14
ela 14
elevation 14
eliminating 14
eller 14
embar@@ 14
embassy 14
emitted 14
empathize 14
empowerment 14
ena 14
enched 14
energies 14
ented 14
entries 14
epic 14
eral 14
erer 14
establishment 14
esteem 14
etting 14
ety 14
evangel@@ 14
examined 14
excessive 14
execute 14
exports 14
expressive 14
facade 14
faul@@ 14
fiable 14
filtered 14
fingerprint 14
fins 14
firemen 14
flatten@@ 14
fli@@ 14
flipped 14
foam 14
foraging 14
forgetting 14
fractals 14
fried 14
friend@@ 14
fulfillment 14
fundament@@ 14
furi@@ 14
gait 14
gal 14
gates 14
generative 14
generators 14
gens 14
geological 14
ges@@ 14
gharial 14
gies 14
gling 14
grassland 14
greed 14
grou@@ 14
guaranteed 14
guru 14
guts 14
gyrus 14
han 14
hazard 14
headache 14
headphones 14
heh 14
helicopters 14
hence 14
herd 14
heroism 14
hertz 14
histories 14
hob@@ 14
honeybees 14
hostility 14
ht@@ 14
humidity 14
hus@@ 14
hyperbolic 14
idealism 14
identification 14
ider 14
idiot 14
iest 14
ignorant 14
illumination 14
imaginations 14
imaginative 14
immuni@@ 14
immunity 14
inability 14
inary 14
incidents 14
incubator 14
indicating 14
infants 14
inflic@@ 14
ini 14
insert 14
insula 14
insurgency 14
interfere 14
internationally 14
interpreted 14
intrinsic 14
introduces 14
intuitions 14
ip@@ 14
itarian 14
itu@@ 14
ively 14
joyful 14
keeper 14
kit@@ 14
kn@@ 14
knives 14
kr@@ 14
ky@@ 14
legally 14
leisure 14
len@@ 14
ler@@ 14
lexicon 14
licen@@ 14
lifelong 14
lightly 14
literate 14
lize 14
lizing 14
loaf 14
lobes 14
locate 14
logged 14
maintained 14
manure 14
mar 14
masks 14
max 14
meadow 14
medieval 14
merging 14
methodology 14
millimeters 14
mills 14
mimicking 14
mimics 14
miracles 14
mitted 14
moons 14
mountain@@ 14
multitasking 14
mum@@ 14
nanometers 14
navig@@ 14
nee@@ 14
needing 14
nerdy 14
nesses 14
neuroscientist 14
nic@@ 14
normal@@ 14
not@@ 14
nuclei 14
oci@@ 14
on.html 14
one@@ 14
oneself 14
open@@ 14
opt 14
organizational 14
orn 14
osaurus 14
osity 14
otic 14
outrage 14
outward 14
overfishing 14
pac@@ 14
palace 14
paras@@ 14
passionately 14
passport 14
petals 14
phases 14
pick@@ 14
pigmented 14
pioneering 14
pissed 14
plasticity 14
plur@@ 14
policemen 14
polite 14
pollin@@ 14
polls 14
positively 14
precau@@ 14
predatory 14
predomin@@ 14
presumably 14
primate 14
proceed 14
prom@@ 14
propag@@ 14
prophet 14
proscenium 14
prosecu@@ 14
prospect 14
proteomics 14
pup@@ 14
purse 14
quicker 14
quiz 14
ram 14
rated 14
rav@@ 14
readily 14
receiver 14
reception 14
receptors 14
recl@@ 14
recommend@@ 14
reconstruction 14
recreate 14
rediscover 14
ref@@ 14
references 14
reframe 14
rehear@@ 14
relying 14
removes 14
removing 14
rend@@ 14
render 14
renewables 14
reply 14
reporters 14
representatives 14
reptiles 14
requirement 14
resonate 14
respecting 14
respects 14
restoring 14
revenge 14
richard 14
rid@@ 14
rider 14
rightly 14
rigorous 14
riot 14
ripped 14
ro 14
ron@@ 14
roommate 14
rotation 14
rug 14
ruler 14
runner 14
rushed 14
sail@@ 14
sailing 14
saturated 14
scalable 14
sco@@ 14
screen@@ 14
secre@@ 14
sediment 14
selecting 14
semen 14
seminal 14
sequel 14
sev@@ 14
severely 14
short@@ 14
show@@ 14
shuttle 14
sim@@ 14
sit@@ 14
sket@@ 14
skins 14
slic@@ 14
smu@@ 14
snails 14
societal 14
spa@@ 14
specialization 14
speeding 14
spelled 14
spikes 14
spin@@ 14
spirits 14
squatter 14
stimul@@ 14
stratosphere 14
streaming 14
stum@@ 14
stup@@ 14
subsidies 14
substantially 14
sued 14
suppress 14
surge 14
sus 14
sweat@@ 14
sweep 14
swir@@ 14
switching 14
symptom 14
tably 14
tation 14
temp@@ 14
template 14
termin@@ 14
testimony 14
than@@ 14
them@@ 14
theor@@ 14
therapist 14
thered 14
threads 14
ticul@@ 14
tilt 14
tionate 14
tionately 14
trafficking 14
transnational 14
trified 14
triggered 14
trol 14
tutoring 14
typeface 14
ulture 14
unaware 14
uncertain 14
unrav@@ 14
unrelated 14
ura 14
urbanization 14
ured 14
uring 14
vaginas 14
vague 14
vegetation 14
vend@@ 14
venti@@ 14
vertically 14
veteran 14
vibr@@ 14
vibrant 14
view@@ 14
vin 14
vir@@ 14
virgin 14
virtu@@ 14
visitors 14
w.html 14
walker 14
weaving 14
web@@ 14
wiz@@ 14
workshop 14
yer 14
you@@ 14
zi@@ 14
á@@ 14
.S. 13
0,000 13
1.4 13
16th 13
170 13
1800s 13
1947 13
1957 13
1978 13
1986 13
200@@ 13
2nd 13
30@@ 13
35,000 13
360 13
401 13
45,000 13
750 13
7th 13
9,000 13
AS 13
Accenture 13
Allan 13
Americas 13
Anonymous 13
Auth@@ 13
BBC 13
Ban@@ 13
Barri@@ 13
Beautiful 13
Behind 13
Bezos 13
Bin 13
Bird 13
Blair 13
Board 13
Bonnet 13
Botswana 13
Bring 13
Burma 13
CERN 13
CP 13
Campaign 13
Cars 13
Casey 13
Chap@@ 13
Christianity 13
Clark 13
Clean 13
Cloud 13
Cop@@ 13
Cynthia 13
DIY 13
Daddy 13
Dam@@ 13
Dar@@ 13
Dennett 13
Derek 13
Doctors 13
Donnell 13
Eduardo 13
Emer@@ 13
Enlightenment 13
Ey@@ 13
Ezra 13
Fab 13
Fellows 13
Fil@@ 13
Foreign 13
Ful@@ 13
GB 13
Gand@@ 13
Gillian 13
Gol@@ 13
Governments 13
Guardian 13
Hal@@ 13
Hay@@ 13
Heal@@ 13
Homer 13
Hon@@ 13
Honduras 13
Hopkins 13
Hotel 13
Humanity 13
Hussein 13
IN@@ 13
Ian 13
Igbo 13
Irish 13
Israelis 13
Istanbul 13
Jacques 13
Jan@@ 13
Jeep 13
Jesse 13
Joey 13
Kanzi 13
Know 13
Kurzweil 13
Lanka 13
Lat@@ 13
Leo 13
Likewise 13
Lisa 13
Looks 13
Mah@@ 13
Malcolm 13
Maria 13
Marti@@ 13
Miami 13
Micro@@ 13
Mobile 13
Monologues 13
NATO 13
Nav@@ 13
Night 13
Northwest 13
Norwegian 13
Odysseus 13
Oops 13
Oper@@ 13
Orleans 13
Over@@ 13
PT@@ 13
Pan@@ 13
Pat 13
Pearl 13
Plan 13
Plat@@ 13
Plato 13
Potter 13
Q. 13
Red@@ 13
Renaissance 13
Rezero 13
Rockefeller 13
Rufus 13
SD 13
SE 13
SO@@ 13
Sally 13
Samuel 13
Sao 13
Schwarzschild 13
Sel@@ 13
Snow 13
Sor@@ 13
Sound 13
Southeast 13
Sue 13
Sun@@ 13
TM 13
Tan 13
Tea@@ 13
Tim@@ 13
Tot@@ 13
Treat@@ 13
Triceratops 13
Tunisia 13
UC@@ 13
USDA 13
Um 13
Walk 13
Wat@@ 13
Wednesday 13
Wonder@@ 13
WorldWide 13
Zambia 13
a.@@ 13
abil@@ 13
abol@@ 13
accounted 13
adage 13
addresses 13
adic 13
administrators 13
advised 13
agen 13
ahs 13
aids 13
alled 13
amplify 13
ampu@@ 13
anced 13
andro@@ 13
annah 13
antidepressants 13
approval 13
aqu@@ 13
arises 13
arium 13
ark 13
arrival 13
articul@@ 13
assing 13
assumes 13
asting 13
astrolabe 13
astronauts 13
asy@@ 13
asym@@ 13
attend 13
attendance 13
authorized 13
automotive 13
ava 13
aversion 13
aviation 13
baby@@ 13
backing 13
bail@@ 13
balcony 13
ballast 13
bats 13
bean 13
bearing 13
beast 13
behaving 13
bends 13
betting 13
biomaterials 13
bitten 13
bitter 13
blas@@ 13
blea@@ 13
bloo@@ 13
bloom 13
brilliantly 13
brink 13
brute 13
bucket 13
bureaucracy 13
bureaucratic 13
butter 13
cab@@ 13
cape 13
care@@ 13
cease 13
centr@@ 13
cep@@ 13
cha 13
champion@@ 13
chemists 13
chk 13
chunks 13
cils 13
civilians 13
claimed 13
clash 13
classified 13
clin@@ 13
coalition 13
collapsing 13
colleges 13
colonial 13
commitments 13
communism 13
compact 13
compelled 13
compens@@ 13
complet@@ 13
compos@@ 13
compress 13
comprised 13
compromised 13
con 13
concentrations 13
concerts 13
condem@@ 13
confusion 13
containing 13
contradic@@ 13
converge 13
cooled 13
cords 13
costly 13
cot@@ 13
coupled 13
crabs 13
crates 13
criticize 13
ction 13
cubes 13
daddy 13
damaging 13
daw@@ 13
day@@ 13
defeated 13
delete 13
delightful 13
democracies 13
demonstrations 13
dence 13
deployment 13
descend 13
desired 13
destro@@ 13
determining 13
devastated 13
dia 13
difficulties 13
digest 13
discarded 13
disgu@@ 13
dismiss 13
disparate 13
distress 13
distribu@@ 13
doc@@ 13
dock 13
doodle 13
dragging 13
dragline 13
dressing 13
drip 13
dual 13
durable 13
eag@@ 13
ebr@@ 13
ece 13
eclip@@ 13
ectable 13
ective 13
edly 13
edness 13
eigh@@ 13
eleg@@ 13
eline 13
ella 13
embraced 13
emit 13
emits 13
enas 13
enclosure 13
energetic 13
enhanced 13
enjoyable 13
enny 13
ential 13
enting 13
enty 13
epidemics 13
epit@@ 13
essional 13
ester 13
ester@@ 13
estimation 13
esty 13
euros 13
evaporate 13
exc@@ 13
exclusively 13
excuses 13
exhibitions 13
expen@@ 13
experimented 13
experimenter 13
explo@@ 13
expresses 13
extern@@ 13
exu@@ 13
fascination 13
fax 13
fearless 13
fer 13
fictional 13
fighters 13
filtering 13
fled 13
flipping 13
floats 13
flour 13
forec@@ 13
foremost 13
forum 13
freaked 13
freedoms 13
fuck 13
furn@@ 13
gardening 13
geek 13
geeky 13
geniuses 13
gger 13
gi 13
girl@@ 13
glucose 13
goodbye 13
gossi@@ 13
graduation 13
grasslands 13
grat@@ 13
gue 13
handled 13
hangs 13
hardwired 13
hats 13
haul 13
hen@@ 13
hh 13
hippie 13
historians 13
hockey 13
honor@@ 13
hoo 13
humane 13
humanities 13
humanoid 13
humili@@ 13
hydrothermal 13
hyena 13
ica 13
icians 13
immer@@ 13
immersion 13
impro@@ 13
improbable 13
inappropriate 13
inated 13
indirectly 13
inquiry 13
inst@@ 13
intol@@ 13
intuitively 13
investigative 13
ironic 13
ishments 13
istically 13
iter@@ 13
jams 13
jargon 13
jay 13
jelly 13
jets 13
ji@@ 13
joints 13
journals 13
journeys 13
judged 13
judging 13
kidnapped 13
kidneys 13
kilos 13
knob 13
ladder 13
lan@@ 13
lastly 13
latitude 13
latter 13
lawn 13
leak 13
leaning 13
learner 13
legend 13
lemon 13
lesser 13
lest 13
let@@ 13
leveraging 13
licensed 13
liking 13
limbic 13
liter 13
loading 13
lock@@ 13
logarithmic 13
logies 13
lot@@ 13
loyalty 13
mach@@ 13
mama 13
mandate 13
manipulating 13
marathon 13
marijuana 13
marvel 13
mas 13
mass@@ 13
mattered 13
maze 13
mc@@ 13
membranes 13
memorable 13
mented 13
messed 13
microseconds 13
mill 13
mim@@ 13
miniature 13
modernism 13
moisture 13
mortgage 13
murder@@ 13
must@@ 13
myriad 13
mystical 13
nap@@ 13
napkin 13
neighboring 13
neuroscientists 13
noted 13
notor@@ 13
obli@@ 13
observ@@ 13
ode 13
officially 13
ologically 13
optic 13
optimist 13
orphanage 13
ose 13
otherness 13
oul@@ 13
ounds 13
paleonto@@ 13
parable 13
participated 13
penicillin 13
persistent 13
pharmaceuticals 13
philanthropic 13
photographic 13
photosynthesis 13
pianist 13
pins 13
pioneers 13
planners 13
plaque 13
plea 13
plentiful 13
plugged 13
poetic 13
point@@ 13
poisoning 13
poke 13
polar@@ 13
polluted 13
polymers 13
poo 13
portions 13
power@@ 13
praise 13
presidents 13
processors 13
pronounced 13
proposing 13
propulsion 13
protons 13
quali@@ 13
queue 13
quick@@ 13
quoted 13
ranges 13
ras@@ 13
rece@@ 13
receives 13
recommended 13
recor@@ 13
recru@@ 13
rectangle 13
ree 13
reflex 13
rej@@ 13
reliev@@ 13
relieved 13
reloc@@ 13
remembers 13
res 13
reserved 13
restored 13
retail@@ 13
retinal 13
reuse 13
revers@@ 13
reviews 13
rhy@@ 13
ridicule 13
rig@@ 13
righ@@ 13
rode 13
rol@@ 13
rotten 13
ruined 13
s. 13
sabbatical 13
sadd@@ 13
sag@@ 13
saus@@ 13
saves 13
screwed 13
searched 13
seatbelts 13
secretary 13
sensations 13
serial 13
servers 13
shade 13
sham@@ 13
shores 13
shredded 13
sibility 13
sies 13
sing@@ 13
sins 13
slaughter 13
sliced 13
slideshow 13
slot 13
snapshot 13
sneak 13
snor@@ 13
solidi@@ 13
sou@@ 13
specialize 13
spring@@ 13
stal@@ 13
starve 13
statues 13
stering 13
stom@@ 13
stor@@ 13
strength@@ 13
stunned 13
subconscious 13
subs@@ 13
subset 13
suc@@ 13
sunglasses 13
supermarkets 13
supernatural 13
supposedly 13
surve@@ 13
sushi 13
suspected 13
swallow 13
swine 13
synchrony 13
t.html 13
tain@@ 13
tap@@ 13
tapes 13
teddy 13
tended 13
terminal 13
testic@@ 13
thal@@ 13
thering 13
thetic 13
thiest 13
throwaway 13
tigers 13
till@@ 13
tise 13
tize 13
toaster 13
tock 13
toss@@ 13
tour@@ 13
tourists 13
tract 13
tragedies 13
trail 13
trance 13
transcendent 13
transformations 13
transforms 13
transmitter 13
treadmill 13
treasure 13
treaties 13
trical 13
tripled 13
tropics 13
trunks 13
tum@@ 13
tun@@ 13
tutor 13
ular@@ 13
ules 13
umb@@ 13
ume 13
unbelievably 13
underestimate 13
undersea 13
unexplored 13
unfinished 13
unic@@ 13
unknow@@ 13
unle@@ 13
unlimited 13
unthinkable 13
unto 13
upload 13
utility 13
ution 13
valu@@ 13
valued 13
vapor 13
ventilation 13
verify 13
verts 13
violate 13
viv@@ 13
vividly 13
waking 13
wears 13
weekly 13
weigh@@ 13
whol@@ 13
wol@@ 13
woo@@ 13
wood@@ 13
worthiness 13
wreck 13
yelling 13
yields 13
yl 13
yogurt 13
.D. 12
01 12
1,600 12
1900s 12
1965 12
1969 12
1979 12
1981 12
1988 12
2.3 12
9th 12
= 12
AS@@ 12
Aaron 12
Actor 12
Austin 12
Aw@@ 12
B. 12
Bat@@ 12
Bear 12
Beatles 12
Beverly 12
Bis@@ 12
Boys 12
Breton 12
Build 12
Chariot 12
Charter 12
Chef 12
Cher@@ 12
Claus 12
Clin@@ 12
Commandments 12
Contr@@ 12
Cour@@ 12
Creek 12
Critic 12
Days 12
Demo@@ 12
Designer 12
Different 12
Dig@@ 12
Diplomat 12
Douglas 12
Dun@@ 12
Egyptians 12
Emmanuel 12
Ethiopian 12
Eu@@ 12
Evelyn 12
Evil 12
Exper@@ 12
Extrem@@ 12
Exxon 12
Face 12
Fantastic 12
Fear 12
Find 12
Finland 12
Fortune 12
Fred 12
Freedom 12
Fun@@ 12
Gal@@ 12
Game 12
Glenn 12
Goo@@ 12
Grove 12
HD 12
Ha 12
Ha@@ 12
Had 12
Han@@ 12
Harbor 12
Helvetica 12
Herbie 12
Hi@@ 12
Hist@@ 12
Home 12
Hope 12
Horse 12
Hunter 12
Imag@@ 12
Infinity 12
Interface 12
Inuit 12
Islamist 12
JC 12
Jac@@ 12
Jessica 12
Jon 12
Judge 12
Kabul 12
Kate 12
Kerry 12
Kir@@ 12
Knowing 12
LC 12
Law@@ 12
Levin 12
Luc@@ 12
MBI 12
Macintosh 12
Madagascar 12
Maltese 12
Mao 12
Marc 12
Market 12
Matthew 12
Matthieu 12
Med@@ 12
Michel@@ 12
Mir@@ 12
Mister 12
MoMA 12
Mush@@ 12
Myhrvold 12
NA 12
NA@@ 12
Nancy 12
Nano 12
Naomi 12
Nation 12
Newtonian 12
Normally 12
Novogratz 12
Ob@@ 12
Organ@@ 12
Osama 12
Ottoman 12
Page 12
Palm 12
Parks 12
Pascal 12
Pass 12
Pav@@ 12
Picasso 12
Pinker 12
Poland 12
RHex 12
RO@@ 12
Rain@@ 12
Ralph 12
Rea@@ 12
Ready 12
Rebecca 12
Redwoods 12
Relig@@ 12
Rem@@ 12
Ren@@ 12
Reserve 12
Robinson 12
Rock 12
Rockett 12
SF 12
SM 12
Sagmeister 12
Satan 12
Sav@@ 12
Scrip@@ 12
Senator 12
Senegal 12
Sergey 12
Sever@@ 12
Shah 12
Shel@@ 12
Sher@@ 12
Shortly 12
Sin@@ 12
Sinclair 12
Station 12
Styrofoam 12
Sund@@ 12
Sup@@ 12
Sw@@ 12
Swe@@ 12
T.@@ 12
TR 12
Teacher 12
Throughout 12
Thur@@ 12
Tit@@ 12
Twe@@ 12
V. 12
Vs 12
Wea@@ 12
Westerners 12
Wisconsin 12
Woo@@ 12
Woody 12
Years 12
Yemeni 12
Ze@@ 12
achiev@@ 12
aching 12
acles 12
acoustics 12
adap@@ 12
add@@ 12
adhes@@ 12
adm@@ 12
administr@@ 12
adore 12
advancing 12
aerodynamic 12
afflu@@ 12
aftermath 12
afts 12
agging 12
aggression 12
aic 12
aims 12
aky 12
alia 12
alin 12
allevi@@ 12
alliance 12
allu@@ 12
altar 12
alternate 12
alu@@ 12
ambassador 12
amoe@@ 12
ander@@ 12
aneous 12
angel 12
anges 12
angular 12
antennae 12
anton 12
appointed 12
appointment 12
arguably 12
arrange 12
arranged 12
arren 12
arthri@@ 12
arti@@ 12
asser@@ 12
assignments 12
assured 12
aster@@ 12
astr@@ 12
athletic 12
atro@@ 12
atrocities 12
attended 12
attle 12
autonomously 12
averse 12
backstage 12
baking 12
balconies 12
bass 12
bathe 12
berries 12
bic 12
bie 12
big@@ 12
bins 12
biom@@ 12
bir@@ 12
bird@@ 12
biting 12
blogger 12
bombers 12
bonobos 12
booming 12
borrowed 12
branching 12
brea@@ 12
breast@@ 12
brian 12
broadband 12
brutal@@ 12
bub@@ 12
buck 12
bud@@ 12
buddy 12
bushes 12
calf 12
calving 12
carrots 12
cartilage 12
carto@@ 12
cartoonists 12
catches 12
cen@@ 12
censorship 12
center@@ 12
centigrade 12
centrifuge 12
ception 12
cer 12
ceramics 12
chann@@ 12
cheated 12
checklist 12
chick 12
chlor@@ 12
cinema 12
cis@@ 12
clicking 12
cockpit 12
comedian 12
commander 12
commerci@@ 12
commute 12
compas@@ 12
complexities 12
compost 12
comprehension 12
conceivable 12
concluded 12
concus@@ 12
conduc@@ 12
confession 12
confuse 12
congreg@@ 12
conserve 12
constitutes 12
consum@@ 12
consumes 12
contempt 12
continu@@ 12
contributors 12
conveni@@ 12
converts 12
conviction 12
cook@@ 12
coordinated 12
coumarin 12
counsel 12
counseling 12
crashing 12
craw@@ 12
craz@@ 12
cried 12
crit@@ 12
critics 12
crush 12
crutches 12
crystals 12
cures 12
cus 12
dads 12
dates 12
dazzling 12
dece@@ 12
declined 12
decode 12
decoration 12
dedicate 12
defenders 12
defin@@ 12
definitions 12
degrade 12
delayed 12
delegation 12
demanded 12
dened 12
denied 12
denser 12
deo 12
dependency 12
descent 12
dess 12
destined 12
devote 12
dictators 12
dier 12
diffuse 12
dip 12
disabilities 12
discipl@@ 12
discriminate 12
discusses 12
disrup@@ 12
doctrine 12
dol@@ 12
domains 12
downloaded 12
dre@@ 12
drifted 12
drowned 12
duct 12
ductions 12
dude 12
dynam@@ 12
dyslexic 12
earns 12
ech@@ 12
efficacy 12
eland 12
elder 12
electromag@@ 12
elessness 12
elevated 12
eliminated 12
elusive 12
emaker 12
embody 12
embr@@ 12
embryo 12
emic 12
empath@@ 12
emy 12
enberg 12
encode 12
encoded 12
enforcement 12
enn@@ 12
erness 12
espo@@ 12
essi@@ 12
eus 12
evaluation 12
exams 12
exercis@@ 12
exhaus@@ 12
expands 12
experiment@@ 12
exploding 12
exploited 12
expo 12
exposing 12
facilitate 12
fade 12
fashionable 12
favor@@ 12
favorable 12
feathers 12
ffing 12
fighter 12
files 12
fireman 12
firsthand 12
fish@@ 12
fished 12
flake 12
flic@@ 12
flips 12
flop 12
flor@@ 12
flutes 12
foragers 12
formats 12
fortunes 12
forwards 12
founders 12
fountain 12
four@@ 12
frag@@ 12
frank 12
freeway 12
fres@@ 12
fucking 12
ful@@ 12
futures 12
galvan@@ 12
gan@@ 12
gang@@ 12
gasses 12
geographical 12
geology 12
ggles 12
gle@@ 12
goose 12
governor 12
grad 12
gradual 12
grape 12
grapes 12
grati@@ 12
gravit@@ 12
grind 12
guesses 12
guest 12
habitable 12
hangers 12
harvested 12
hatch 12
hay 12
headset 12
hero@@ 12
heter@@ 12
hiring 12
honey@@ 12
hore 12
horrifying 12
hunch 12
hypertension 12
ias 12
icks 12
ides 12
ight@@ 12
iler 12
iller 12
imm@@ 12
impair@@ 12
imper@@ 12
imperfect 12
impulses 12
incarceration 12
incentivi@@ 12
incomes 12
inflate 12
influential 12
informa@@ 12
inhabit 12
initiatives 12
injecting 12
innate 12
inspirational 12
insult 12
intentionally 12
interconnectedness 12
intermediate 12
interpret@@ 12
inters 12
intimately 12
inventi@@ 12
invo@@ 12
iring 12
ironically 12
ishable 12
ister 12
isters 12
itch@@ 12
iter 12
itous 12
ix 12
james 12
jan 12
ji 12
jonathan 12
junior 12
k.html 12
kler 12
knot 12
lamb 12
lan 12
liberated 12
lid 12
lifting 12
lifts 12
litigation 12
lively 12
locals 12
magnetism 12
mainframe 12
maize 12
manned 12
mantra 12
marble 12
marched 12
marginalized 12
market@@ 12
marketers 12
mash@@ 12
master@@ 12
may@@ 12
meanings 12
mechanically 12
melts 12
menti@@ 12
metabo@@ 12
metic 12
microbiology 12
milit@@ 12
mill@@ 12
min 12
miniaturi@@ 12
misunderstood 12
miti@@ 12
mitting 12
mmm 12
mo 12
mobilize 12
moder@@ 12
moderate 12
modification 12
modular 12
modules 12
monarchy 12
monia 12
monks 12
moon@@ 12
morpho@@ 12
motivations 12
mum 12
mundane 12
mutilated 12
necro@@ 12
negatives 12
neglect 12
neuro 12
nie 12
nonviolence 12
novel@@ 12
nucle@@ 12
obe@@ 12
obey 12
oblig@@ 12
obsessi@@ 12
ocean@@ 12
onary 12
onco@@ 12
onion 12
ont 12
ophysi@@ 12
oping 12
opy 12
orchestr@@ 12
org 12
originated 12
osh 12
oti@@ 12
oughts 12
ounded 12
outdoors 12
outlet 12
outlines 12
overseas 12
packaged 12
packets 12
pai@@ 12
pain@@ 12
pains 12
palette 12
pancreas 12
pandemics 12
paradigms 12
passively 12
pasting 12
pat 12
pathogen 12
pati@@ 12
pav@@ 12
pavilion 12
peanut 12
pearl 12
pee 12
penis 12
performer 12
performers 12
periphery 12
persons 12
pessim@@ 12
pet@@ 12
petro@@ 12
petroleum 12
phalo@@ 12
photons 12
physi@@ 12
pickle 12
pillar 12
pillow 12
pinnacle 12
pirated 12
pitched 12
plasma 12
playwright 12
plea@@ 12
plots 12
pollu@@ 12
pork 12
pottery 12
preach 12
preliminary 12
premature 12
prevailing 12
prevented 12
probable 12
prof@@ 12
profiles 12
promo@@ 12
promotion 12
proposes 12
prosper@@ 12
protocols 12
proton 12
providers 12
provo@@ 12
psyche 12
pumping 12
punch 12
pur 12
purchasing 12
puzzling 12
quad@@ 12
quity 12
rabbit 12
raging 12
rain@@ 12
rainwater 12
rant 12
rebel@@ 12
rebels 12
recep@@ 12
refrigerator 12
rehearsal 12
relational 12
relax@@ 12
reshap@@ 12
residential 12
resulting 12
rey 12
rhetoric 12
ri 12
ried 12
robo@@ 12
ropes 12
rowed 12
rub@@ 12
saf@@ 12
saltwater 12
sampled 12
sands 12
sandwiches 12
sauc@@ 12
scar 12
scratching 12
sday 12
sent@@ 12
senti@@ 12
sermon 12
settlements 12
shoc@@ 12
shortcut 12
sians 12
sidewalks 12
siege 12
sig@@ 12
sights 12
silks 12
skydiving 12
smash 12
socket 12
solely 12
solitary 12
sor 12
southwest 12
sovereign 12
soy 12
spaceship 12
specific@@ 12
specimens 12
sporting 12
sprin@@ 12
stacking 12
stacks 12
stadi@@ 12
stam@@ 12
starving 12
stiff 12
stigma 12
strapped 12
strateg@@ 12
strengthen 12
stresses 12
strom 12
submarines 12
sufficiently 12
suitable 12
suite 12
superhero 12
superior 12
superpowers 12
sured 12
suring 12
survives 12
swal@@ 12
swallowed 12
swarms 12
sweating 12
sweeping 12
swept 12
swims 12
synapse 12
systemic 12
tage 12
telem@@ 12
testes 12
theoretically 12
thest 12
thrilling 12
thwest 12
tionist 12
tists 12
tles 12
token 12
toolbox 12
tos 12
touch@@ 12
tougher 12
toughest 12
trad@@ 12
traded 12
tral 12
transformational 12
transmitters 12
traumatic 12
tric@@ 12
trickster 12
tuning 12
tunnels 12
turb@@ 12
turing 12
turn@@ 12
tweet 12
twists 12
twit@@ 12
typography 12
tyr@@ 12
ull 12
uncover 12
underst@@ 12
understand@@ 12
understandable 12
unemployment 12
unfamiliar 12
untouched 12
updated 12
uprising 12
upstairs 12
uptake 12
urine 12
ushed 12
uterus 12
vegetarian 12
ventilated 12
vering 12
vicious 12
video@@ 12
vious 12
virtues 12
virtuous 12
visits 12
waterfall 12
wavelengths 12
weak@@ 12
wee@@ 12
whatnot 12
white@@ 12
wig@@ 12
wilderness 12
will@@ 12
witn@@ 12
xy 12
yearning 12
yiel@@ 12
yn 12
youngsters 12
zable 12
zoning 12
# 11
) 11
00s 11
1.7 11
1000 11
101 11
13th 11
14th 11
190@@ 11
1920s 11
1940s 11
1987 11
25th 11
2D 11
650 11
@ 11
AC 11
Add 11
Aff@@ 11
Alban@@ 11
Alexandria 11
Alhambra 11
Always 11
Anthropo@@ 11
Arab@@ 11
Artist 11
Ast@@ 11
Aur@@ 11
Auschwitz 11
Beau 11
Berry 11
Bobby 11
Boo@@ 11
Bowl 11
Bren@@ 11
Brit@@ 11
Bryan 11
Budapest 11
CL 11
Camero@@ 11
Canal 11
Carolyn 11
Carson 11
Cas@@ 11
Cat@@ 11
Catherine 11
Cel@@ 11
Chuck 11
Ci@@ 11
Code 11
Crick 11
DVDs 11
Dark 11
Darwinism 11
Det@@ 11
Diego 11
Doc 11
Doh 11
Dominican 11
Don@@ 11
Dop@@ 11
Dri@@ 11
Dum@@ 11
Dyson 11
E.@@ 11
ES@@ 11
Ecuador 11
Eighty 11
Erik 11
Ernest 11
Est@@ 11
Fathers 11
FedEx 11
Field 11
Fifteen 11
Fire 11
Fish 11
Frederick 11
Freud 11
Gamble 11
Gapminder 11
Genomics 11
Ghraib 11
Giussani 11
Glass 11
Gowanus 11
Guatemala 11
Gy@@ 11
HC 11
Hai@@ 11
Hawaiian 11
Head 11
Helen 11
Heroes 11
Hindi 11
Hippo@@ 11
Hungar@@ 11
Illinois 11
Impossible 11
JPL 11
Jabbar 11
Jamaica 11
Janine 11
Jazz 11
Jose 11
Journ@@ 11
Justin 11
Kahn 11
Kam@@ 11
Karl 11
Kentucky 11
Kerala 11
Kind 11
Kinsey 11
Kuwait 11
LHC 11
Leviathan 11
Libya 11
Lind@@ 11
Lindbergh 11
Lor@@ 11
Lynn 11
M. 11
MBA 11
MP3 11
Maeda 11
Mall 11
Manchester 11
Mathemati@@ 11
Mayan 11
Might 11
Min 11
Model 11
Mongolia 11
Ms. 11
Musi@@ 11
Najmuddin 11
Nazis 11
Netflix 11
O.K. 11
Ohio 11
Ok@@ 11
Okapi 11
Op@@ 11
Orchestra 11
PRIZE 11
Pantheon 11
Pants 11
Paula 11
Phone 11
Pil@@ 11
Pin@@ 11
Pleo 11
Poor 11
Pope 11
Poverty 11
Proj@@ 11
RD 11
RI@@ 11
Rab@@ 11
Randi 11
Respon@@ 11
Rica 11
Rob@@ 11
Robicsek 11
Robotics 11
Romantic 11
Rovers 11
SA 11
SA@@ 11
Sachs 11
Salman 11
Saul 11
Serra 11
Shame 11
Shirky 11
Sit 11
Sleep 11
Som@@ 11
Sounds 11
South@@ 11
Spe@@ 11
Species 11
Splashy 11
Spr@@ 11
Study 11
Sustain@@ 11
Swahili 11
TB 11
TBP 11
TEDx 11
Tai@@ 11
Tal@@ 11
Tam@@ 11
Taylor 11
Tele@@ 11
Tempest 11
Terri@@ 11
Thanksgiving 11
Thousands 11
Tibet@@ 11
Tro@@ 11
Trying 11
UNAIDS 11
Understanding 11
Universe 11
Uruguay 11
Victoria 11
Viking 11
W. 11
Went 11
Willie 11
Wo@@ 11
Worldchanging 11
Ze 11
Zoe 11
abstr@@ 11
abyss 11
academia 11
accepts 11
accessing 11
accumulating 11
acidification 11
acies 11
ackers 11
acquisition 11
act@@ 11
acter@@ 11
addi@@ 11
addictive 11
administrative 11
ador@@ 11
advisers 11
advising 11
advoc@@ 11
affor@@ 11
age@@ 11
ahedron 11
aints 11
aires 11
airy 11
alie 11
aligned 11
alties 11
aly@@ 11
ama 11
ambient 11
ami@@ 11
amo@@ 11
amor@@ 11
ample 11
analyst 11
anarchy 11
anatom@@ 11
anecdotes 11
anemia 11
anks 11
anonymity 11
anticipation 11
apprentice 11
aquarium 11
arming 11
arrives 11
asc@@ 11
aspire 11
assass@@ 11
assist 11
astronomer 11
atorial 11
atten@@ 11
attracting 11
atz 11
audi@@ 11
augment 11
avers 11
avert 11
avor@@ 11
azz@@ 11
backpack 11
bald 11
bargain 11
bark 11
bases 11
bathtub 11
battlefield 11
battling 11
bec@@ 11
bedrock 11
beep 11
behaved 11
behaves 11
bells 11
belong@@ 11
belts 11
benefited 11
biomedical 11
bites 11
blades 11
blanket 11
blow@@ 11
boarding 11
bouncing 11
branded 11
brav@@ 11
breathtaking 11
bred 11
browse 11
bumble@@ 11
bunk 11
buyer 11
bye 11
cafeteria 11
candles 11
cans 11
capill@@ 11
carcinogens 11
cargo 11
carriers 11
casts 11
casu@@ 11
causal 11
celebrities 11
cellulose 11
censored 11
chairman 11
chefs 11
chicks 11
cia 11
cian 11
circ@@ 11
circumstance 11
cleaners 11
clever@@ 11
cleverly 11
clicks 11
climber 11
climbs 11
cock 11
cockroaches 11
coco@@ 11
coloni@@ 11
comb@@ 11
combines 11
combustion 11
comfortably 11
comforting 11
commonplace 11
compar@@ 11
comparisons 11
complaint 11
compression 11
coms 11
conceptu@@ 11
confir@@ 11
conflicting 11
confrontation 11
congrat@@ 11
conqu@@ 11
considerably 11
consist 11
constituency 11
constructions 11
contacted 11
contemplating 11
controllers 11
conventions 11
correspon@@ 11
corridor 11
cot 11
counsel@@ 11
counterparts 11
crappy 11
craters 11
crave 11
crease 11
cres@@ 11
crow 11
crystalli@@ 11
cubicle 11
cuc@@ 11
cyberspace 11
dances 11
darker 11
darn 11
daycare 11
dder 11
deadline 11
deal@@ 11
dealer 11
deceased 11
decipher 11
declar@@ 11
dedication 11
deleted 11
deliber@@ 11
deliberate 11
demol@@ 11
dental 11
dentist 11
departments 11
deposited 11
derive 11
design.html 11
desks 11
detached 11
detecting 11
devo@@ 11
diagno@@ 11
digitized 11
dilemmas 11
dire 11
disagreement 11
disastrous 11
discomfort 11
discount 11
discrimin@@ 11
disman@@ 11
disruption 11
dissolve 11
dissolved 11
distortion 11
distractions 11
divi@@ 11
divinity 11
doable 11
domin@@ 11
dominating 11
doomed 11
dotcom 11
dough@@ 11
downs 11
dream@@ 11
drone 11
dwell 11
dwind@@ 11
eau 11
eball 11
ech 11
echoes 11
ecstasy 11
eding 11
educators 11
elect@@ 11
elegance 11
ellip@@ 11
emailed 11
embodiment 11
emitting 11
ench 11
encoder 11
encrypted 11
endlessly 11
enduring 11
enlightenment 11
eno 11
enterprises 11
enthr@@ 11
environmentalists 11
erings 11
eship 11
essions 11
eth 11
ethnicity 11
etta 11
eur@@ 11
eval 11
eves 11
evid@@ 11
evolutionarily 11
exchanging 11
excruciating 11
executives 11
exercises 11
exhau@@ 11
exhilarating 11
exoskelet@@ 11
exporting 11
exquisitely 11
exten@@ 11
extraction 11
extrapol@@ 11
eyebrows 11
fas@@ 11
feasible 11
fences 11
fertile 11
fertiliz@@ 11
fetuses 11
fi 11
fiddle 11
fifty 11
fig@@ 11
finest 11
fireflies 11
fis@@ 11
flapping 11
fleet 11
fluorescent 11
forbidden 11
forged 11
fran@@ 11
fridge 11
fry 11
fuss 11
futu@@ 11
future.html 11
ga 11
gamers 11
gatherer 11
gear@@ 11
geeks 11
generalize 11
gents 11
gia 11
goggles 11
gor@@ 11
govern@@ 11
grabbing 11
grading 11
gram@@ 11
grammar 11
grasp@@ 11
greatness 11
growers 11
guessed 11
guides 11
gurdy 11
hat@@ 11
hemoglobin 11
hierarch@@ 11
highlands 11
hollow 11
homicide 11
horn 11
horri@@ 11
hottest 11
hs 11
humpback 11
hurry 11
hust@@ 11
hydrant 11
hypotheses 11
identi@@ 11
ila 11
ild 11
illuminate 11
illuminating 11
illustrated 11
illustrations 11
ima@@ 11
imitate 11
immortality 11
impatient 11
implementation 11
impressions 11
inal 11
inar 11
incr@@ 11
ind 11
indicator 11
indicators 11
ineffective 11
infamous 11
inflection 11
influenc@@ 11
infr@@ 11
inherited 11
initiated 11
innov@@ 11
inocul@@ 11
inqu@@ 11
insec@@ 11
instability 11
instantane@@ 11
instrumental 11
integr@@ 11
interacts 11
interdependence 11
intertwined 11
intimidating 11
intric@@ 11
investigating 11
invisibility 11
irr@@ 11
irrespective 11
istics 11
ith 11
iti 11
itor 11
ives 11
jigsaw 11
joins 11
joy@@ 11
kissing 11
kling 11
ku 11
lac@@ 11
lamps 11
lassi@@ 11
latent 11
laugh@@ 11
laun@@ 11
launches 11
lawns 11
leather@@ 11
legi@@ 11
lesions 11
lettu@@ 11
lever 11
liability 11
lier 11
life@@ 11
ling@@ 11
liters 11
littleBits 11
lone 11
loom 11
luci@@ 11
lumber 11
lumin@@ 11
magni@@ 11
maj@@ 11
mammo@@ 11
manifestations 11
mann 11
manship 11
mash 11
massage 11
mati@@ 11
maxim@@ 11
maximize 11
memor@@ 11
merge 11
messaging 11
metastases 11
mid- 11
migrant 11
mildness 11
mined 11
ministry 11
momentous 11
monitors 11
monopoly 11
mop 11
mosquitos 11
mother@@ 11
multiplied 11
mutant 11
nant 11
naturalist 11
nau@@ 11
nav@@ 11
neglected 11
negoti@@ 11
nem@@ 11
neph@@ 11
neys 11
nion 11
nish 11
nonviolent 11
nostal@@ 11
nuanced 11
obs@@ 11
occasions 11
oce@@ 11
ond 11
onies 11
ood 11
opaque 11
oped 11
openly 11
oppos@@ 11
oppression 11
orthopedic 11
osaurs 11
ouldn 11
outreach 11
overboard 11
overload 11
ozo@@ 11
pa 11
paintbrush 11
palms 11
parabo@@ 11
parallels 11
paraly@@ 11
parasites 11
parrot 11
pastor 11
patri@@ 11
pea@@ 11
ped@@ 11
peeling 11
pens 11
pension 11
perme@@ 11
permit 11
permits 11
persever@@ 11
persistence 11
persuaded 11
pesticide 11
phal@@ 11
pharmac@@ 11
phony 11
pical 11
pictured 11
pier@@ 11
pilgrimage 11
pinpoint 11
pioneered 11
plague 11
plat@@ 11
plugging 11
pluripotent 11
poachers 11
poisonous 11
pollination 11
pornography 11
positives 11
postcards 11
posting 11
powering 11
practitioners 11
prec@@ 11
prece@@ 11
preference 11
presses 11
pretending 11
prevalent 11
preview 11
privati@@ 11
prolific 11
promp@@ 11
pron@@ 11
proof@@ 11
prop 11
proph@@ 11
prophec@@ 11
proportional 11
prou@@ 11
psycho 11
publishers 11
pump@@ 11
punctu@@ 11
punish 11
punished 11
pupp@@ 11
puppets 11
purchased 11
quantify 11
questioned 11
rabbits 11
raced 11
racism 11
radioactive 11
raft 11
railway 11
rainbow 11
randomized 11
rationality 11
rearrange 11
reconcile 11
reconnect 11
recyclable 11
redundancy 11
regulating 11
regulatory 11
reinforce 11
rel 11
relent@@ 11
reluctant 11
rene@@ 11
renov@@ 11
repository 11
requ@@ 11
requiring 11
resemblance 11
reservations 11
resident 11
rest@@ 11
restoration 11
resulted 11
resurrec@@ 11
retali@@ 11
reversal 11
revolutionize 11
rie 11
ripe 11
rison 11
robert 11
roller 11
roman@@ 11
rotates 11
row@@ 11
royal 11
rul@@ 11
rying 11
saddle 11
sales@@ 11
salvation 11
sampling 11
sanity 11
scandal 11
scram@@ 11
scrap 11
scrat@@ 11
scroll 11
sculpt 11
se.html 11
seamlessly 11
seeks 11
selectively 11
seniors 11
sensi@@ 11
ser 11
sewage 11
sexuality 11
shave 11
shepherd 11
shiny 11
ship@@ 11
shook 11
shortest 11
sick@@ 11
simulating 11
simulations 11
sincere 11
situ@@ 11
skyline 11
slippery 11
smiley 11
smug@@ 11
sno@@ 11
soda 11
sofa 11
softly 11
soprano 11
sparked 11
sparkling 11
spirituality 11
spit 11
sponge 11
sponsors 11
spor@@ 11
spou@@ 11
squirrel 11
stag@@ 11
startup 11
sten 11
steroids 11
steven 11
stigmati@@ 11
stil@@ 11
stimuli 11
stling 11
stop@@ 11
story@@ 11
stranded 11
straw@@ 11
stretches 11
stro@@ 11
studios 11
stuffed 11
submersibles 11
subsequently 11
substitu@@ 11
succeeding 11
summed 11
sunset 11
surf 11
surrender 11
suspension 11
swamp 11
sweater 11
swollen 11
sym@@ 11
synagogue 11
synthesized 11
tactile 11
tadpole 11
taped 11
tarian 11
tasty 11
team@@ 11
technologist 11
teenth 11
templ@@ 11
tempting 11
tened 11
tenths 11
texting 11
then@@ 11
theorist 11
theses 11
thick@@ 11
thing@@ 11
thor@@ 11
thousand@@ 11
thouse 11
thunder 11
tickle 11
tiniest 11
tire 11
titanium 11
tless 11
toe 11
tomy 11
tort 11
tox@@ 11
trails 11
translations 11
trillions 11
tumn 11
twentieth 11
twisted 11
tying 11
ulf 11
unemployed 11
unk 11
unnecessary 11
uous 11
urban@@ 11
utilitarian 11
utopian 11
uts 11
veling 11
vers@@ 11
ves@@ 11
vian 11
violation 11
vitality 11
volunteered 11
vor@@ 11
warheads 11
warriors 11
waving 11
weaker 11
wearable 11
webs 11
weight@@ 11
welcomed 11
welling 11
whistles 11
wholeness 11
wit 11
woven 11
wrest@@ 11
wrinkles 11
xen@@ 11
yoga 11
za 11
zooming 11
% 10
0.1 10
0s 10
1.8 10
119@@ 10
1850 10
1858 10
1908 10
1940 10
1966 10
4th 10
5,@@ 10
700,000 10
800,000 10
AI@@ 10
ATM 10
Action 10
Adams 10
Alps 10
Amazing 10
Anim@@ 10
Anna 10
Annie 10
Archi@@ 10
Ark 10
Astronom@@ 10
Atom@@ 10
Aviv 10
Axis 10
B.@@ 10
BR 10
BS 10
Babylon@@ 10
Ball@@ 10
Baltimore 10
Beau@@ 10
Bed@@ 10
Bee 10
Berners 10
Betty 10
Bilbao 10
Biology 10
Boltzmann 10
Bonobos 10
Boyle 10
Brah@@ 10
Budrus 10
Bul@@ 10
Bureau 10
CDC 10
CR@@ 10
Cargill 10
Carmen 10
Celine 10
Census 10
Charlotte 10
Chem@@ 10
Chen 10
Chin@@ 10
Chr@@ 10
Coll@@ 10
Companies 10
Compare 10
Computers 10
Conserv@@ 10
Control 10
Convention 10
Creative 10
Cultural 10
DMCA 10
Democrat 10
Derartu 10
Developing 10
Diamandis 10
Din@@ 10
Director 10
Doing 10
Drake 10
Duolingo 10
EU 10
Eco@@ 10
Edison 10
Eleanor 10
Ensler 10
Environment 10
Eri@@ 10
Essentially 10
Euro@@ 10
FS 10
Fall 10
Far 10
Feel 10
Festival 10
Fis@@ 10
Founding 10
Fourth 10
Frank@@ 10
Franklin 10
Freeman 10
Freudian 10
Fu@@ 10
Galaxy 10
Geneva 10
Gh@@ 10
Good@@ 10
Goodbye 10
Government 10
Gradu@@ 10
Gri@@ 10
Guard 10
Guess 10
Guys 10
Ham@@ 10
Hamlet 10
Hansen 10
High@@ 10
Highway 10
Hillary 10
Hills 10
Hind@@ 10
Hole 10
Huck 10
Huge 10
Hunt 10
Hyderabad 10
Inconvenient 10
Index 10
Indiana 10
Indo 10
Iranians 10
Iraqis 10
J.@@ 10
JE 10
Judy 10
Juliet 10
Kaluza 10
Kiki 10
Kiva 10
Know@@ 10
Kofi 10
Kor@@ 10
LI@@ 10
LOLcats 10
Land@@ 10
Lauren 10
Laurie 10
Leave 10
Leg@@ 10
Linus 10
Liz 10
Lucifer 10
Lucy 10
Ly@@ 10
Lyndon 10
M.@@ 10
MT@@ 10
Maas@@ 10
MacCready 10
Mach 10
Main 10
Making 10
Malawi 10
Marduk 10
Marx 10
McLuhan 10
Mellon 10
Metropolitan 10
Milan 10
Missouri 10
Morning 10
Moroc@@ 10
Mostly 10
Mou@@ 10
Mozambique 10
Mul@@ 10
Must 10
NBC 10
NIH 10
NK 10
NO@@ 10
Na@@ 10
Nope 10
Nu@@ 10
Nur@@ 10
Oakland 10
Off@@ 10
Orange 10
Orion 10
Os 10
PCBs 10
PO 10
PS 10
Packard 10
Papua 10
Para@@ 10
Patient 10
Per 10
Pine 10
Pitt 10
Play@@ 10
Pogue 10
Poll@@ 10
Portu@@ 10
Prego 10
R. 10
RCA 10
Ranger 10
Reg@@ 10
Ric@@ 10
Ridge 10
Rossy 10
S. 10
SI 10
ST 10
Scot@@ 10
Seriously 10
Simpson 10
Sir@@ 10
Sm@@ 10
Sn@@ 10
Song 10
Sousa 10
Speci@@ 10
Stalin 10
Stuart 10
Sufi 10
Sydney 10
T.B. 10
TN@@ 10
Taking 10
Talking 10
Thankfully 10
Tiger 10
Tulu 10
Turk 10
UF@@ 10
UN 10
Upon 10
Vice 10
Vienna 10
Vision 10
Vivian 10
Voices 10
Walking 10
Warcraft 10
Wurman 10
Yochai 10
Zo@@ 10
absorbing 10
absorbs 10
abyte 10
accommodate 10
accor@@ 10
accumulated 10
aches 10
acknowled@@ 10
acknowledged 10
adapting 10
adequ@@ 10
adequate 10
admi@@ 10
ado 10
ador 10
adulter@@ 10
advant@@ 10
advertisement 10
advise 10
aero@@ 10
affordability 10
agile 10
agon 10
ague 10
aid@@ 10
albe@@ 10
alignment 10
allic 10
analogies 10
analogous 10
ancement 10
ancements 10
anchor 10
anci@@ 10
anders 10
anecdote 10
angu@@ 10
ani@@ 10
annihil@@ 10
ano@@ 10
anomal@@ 10
anson 10
anthro@@ 10
antic 10
apathy 10
aper@@ 10
appetite 10
applicable 10
apse 10
archives 10
arctic 10
aroused 10
arring 10
arrowh@@ 10
arse 10
artifact 10
artificially 10
ascent 10
asia 10
asis 10
asphalt 10
assault 10
astonishingly 10
astrophysi@@ 10
atically 10
ationary 10
aton 10
auc@@ 10
ause 10
aut 10
autobiographical 10
autopsy 10
avi@@ 10
avoided 10
awa 10
az 10
badge 10
bai@@ 10
baked 10
banal 10
barb@@ 10
barbar@@ 10
barcode 10
barefoot 10
bathed 10
bathing 10
bation 10
batter@@ 10
bbed 10
begging 10
bell@@ 10
benchmark 10
bets 10
biblical 10
bies 10
bill@@ 10
binding 10
bine 10
bioenergy 10
biography 10
blan@@ 10
blindfold 10
blinking 10
blooms 10
blues 10
blunt 10
blur 10
boggling 10
bombed 10
bonobo 10
bonuses 10
bore 10
botan@@ 10
bounded 10
bounds 10
brainwaves 10
bribery 10
bribes 10
briquettes 10
brist@@ 10
buffer 10
bureaucr@@ 10
burglar 10
buster 10
buttermilk 10
buyers 10
buzz 10
camping 10
capes 10
catastrophes 10
celebrates 10
cene 10
cens@@ 10
cess 10
champagne 10
chant 10
charismatic 10
charles 10
cheapest 10
check@@ 10
cheer 10
cheet@@ 10
chemically 10
childbirth 10
chings 10
chman 10
cholesterol 10
chooses 10
churches 10
cient 10
clarify 10
classify 10
cleans 10
cliche 10
coal@@ 10
cod 10
coher@@ 10
coin@@ 10
colder 10
collectors 10
colonize 10
com 10
commercially 10
commis@@ 10
communicates 10
competence 10
compiled 10
conceit 10
conditional 10
conducive 10
conductors 10
confess 10
configurations 10
confronting 10
conquer 10
conquered 10
consistency 10
consol@@ 10
const@@ 10
constitutional 10
constru@@ 10
consultants 10
contempl@@ 10
continental 10
contractor 10
corn@@ 10
corridors 10
costing 10
courthouse 10
courts 10
crackers 10
crammed 10
craving 10
credibility 10
credited 10
crown 10
cruise 10
culmin@@ 10
culus 10
curiously 10
curvature 10
cyborg 10
dam 10
dan@@ 10
darkest 10
datas@@ 10
daytime 10
ddy 10
dear@@ 10
debates 10
deceive 10
declare 10
decreased 10
decreasing 10
deen 10
defects 10
definite 10
defy 10
degradable 10
della 10
demonstrating 10
demor@@ 10
depleted 10
depriv@@ 10
descendants 10
devise 10
devoid 10
diabe@@ 10
diag@@ 10
dialo@@ 10
dials 10
dictator 10
dictatorship 10
diff@@ 10
differentiated 10
digi@@ 10
digs 10
dilig@@ 10
dimin@@ 10
diminished 10
diri@@ 10
discour@@ 10
discourse 10
discrete 10
discrimination 10
disparity 10
disposable 10
dissent 10
dist@@ 10
distraction 10
districts 10
distur@@ 10
divorced 10
documentation 10
dolls 10
domesticated 10
dominance 10
domination 10
dot@@ 10
dou@@ 10
doubts 10
downstream 10
dows 10
dragon 10
draw@@ 10
drilled 10
droplet 10
drum@@ 10
dull 10
dur@@ 10
dynamically 10
eal 10
eb 10
editorial 10
educ@@ 10
eers 10
efully 10
ego@@ 10
electrode 10
elli 10
ello 10
ells 10
elope 10
elty 10
elve 10
ema 10
embarrassment 10
embl@@ 10
ementary 10
emis@@ 10
empirical 10
emplo@@ 10
encouragement 10
encourages 10
ende@@ 10
endo@@ 10
enhances 10
ennial 10
eor@@ 10
eper 10
equi@@ 10
ergy 10
esoteric 10
etes 10
etr@@ 10
eum 10
euph@@ 10
eur 10
eureka 10
evalu@@ 10
evo@@ 10
exaggeration 10
exchanges 10
excites 10
exemp@@ 10
exile 10
expec@@ 10
expenditure 10
exterior 10
extracting 10
extremist 10
eyesight 10
eze 10
faithful 10
fare 10
farm@@ 10
feather 10
featured 10
fers 10
festival 10
ffle 10
ficial 10
filmmaking 10
financing 10
fir@@ 10
flakes 10
flawed 10
flaws 10
flex 10
flooded 10
floppy 10
formations 10
formerly 10
fostered 10
fragrance 10
fraud 10
freshman 10
fty 10
fusiform 10
futur@@ 10
garment 10
gateway 10
gau@@ 10
gee 10
gency 10
genealo@@ 10
genital 10
gentler 10
gering 10
gery 10
giants 10
glands 10
glider 10
goo@@ 10
gourmet 10
granddaughter 10
grandma 10
graphical 10
grappling 10
greeted 10
groom 10
guiding 10
gum 10
hack@@ 10
hacked 10
hai@@ 10
hall@@ 10
hallucination 10
harmless 10
heap 10
heightened 10
heroin 10
hillside 10
hmm 10
hn 10
hoe 10
hominids 10
hooks 10
hose 10
hospitality 10
hr 10
hubris 10
hull 10
humanize 10
hundred@@ 10
hydro 10
hygi@@ 10
hype 10
hypertext 10
hypno@@ 10
hypothetical 10
ickens 10
icking 10
icry 10
ideally 10
identifying 10
iev@@ 10
igners 10
igning 10
ignoring 10
illu@@ 10
imit@@ 10
immunization 10
imposing 10
improvising 10
indic@@ 10
indirect 10
inert 10
inertia 10
influenza 10
inher@@ 10
inks 10
innocence 10
innovator 10
ino@@ 10
insignificant 10
insur@@ 10
integral 10
intellectuals 10
interacted 10
interpreting 10
interrog@@ 10
interrupt 10
intersections 10
interstate 10
intro@@ 10
invas@@ 10
invents 10
isive 10
itate 10
ival@@ 10
j 10
jaws 10
jet@@ 10
joking 10
jol@@ 10
juggle 10
juggler 10
juris@@ 10
keepers 10
ken@@ 10
ket@@ 10
kinder 10
klu@@ 10
knit 10
knocks 10
kos 10
lab@@ 10
lacks 10
lad@@ 10
landfill 10
landmines 10
las@@ 10
lasers 10
laundering 10
layered 10
league 10
lee 10
legitimacy 10
lengths 10
leukemia 10
lexico@@ 10
lia 10
liberate 10
lider 10
lifestyles 10
limiting 10
liness 10
lis@@ 10
listing 10
lithic 10
litter 10
livable 10
livelihood 10
lon@@ 10
longing 10
lor@@ 10
lust 10
lyrics 10
macho 10
madly 10
magne@@ 10
mailbox 10
mailing 10
mainland 10
major@@ 10
mand@@ 10
maneuver@@ 10
manifesto 10
mast 10
mastered 10
mediate 10
mediated 10
menop@@ 10
merry 10
mets 10
microfinance 10
microorganisms 10
migr@@ 10
ministered 10
miraculous 10
mismatch 10
mist 10
mistrust 10
moderni@@ 10
modify 10
modifying 10
molded 10
monastery 10
monetary 10
mony 10
mos 10
mosses 10
moth 10
motivating 10
na@@ 10
nan 10
narciss@@ 10
nationalism 10
nel 10
nerds 10
nered 10
nies 10
nt 10
nylon 10
observable 10
occasional 10
odor@@ 10
oftentimes 10
oller 10
omin@@ 10
ond@@ 10
onian 10
opa@@ 10
ophi@@ 10
ophil@@ 10
oppressed 10
optimis@@ 10
ored 10
organically 10
orphaned 10
oso 10
ough@@ 10
outlets 10
outstanding 10
overcoming 10
overlapping 10
overlooked 10
overwhelmingly 10
pacemaker 10
paraphrase 10
participatory 10
pasted 10
patches 10
paycheck 10
peacekeepers 10
pedi@@ 10
perceiving 10
percentile 10
perf@@ 10
peril 10
peripheral 10
perpetual 10
personalization 10
photorecep@@ 10
pir@@ 10
pirates 10
pitching 10
plumbing 10
plun@@ 10
po 10
poach@@ 10
pods 10
polarized 10
poli@@ 10
polis 10
polish 10
ponder 10
porn 10
portal 10
poster@@ 10
potassium 10
poun@@ 10
powerfully 10
pragmatic 10
prea@@ 10
preacher 10
precur@@ 10
prestige 10
privately 10
probabilities 10
programmable 10
prohi@@ 10
propelled 10
proportions 10
prospec@@ 10
prostitution 10
provoke 10
proximity 10
pups 10
purchases 10
pursued 10
puty 10
puzzled 10
pyramids 10
questionable 10
quir@@ 10
rabbi 10
radiologists 10
raining 10
rainy 10
rationally 10
raz@@ 10
rd 10
realism 10
rebellion 10
reboot 10
recapit@@ 10
recess 10
reckless 10
recline 10
refine 10
regards 10
rejuven@@ 10
releg@@ 10
reless 10
relies 10
religi@@ 10
remark 10
remo@@ 10
removal 10
reper@@ 10
repetition 10
replen@@ 10
replica 10
replicated 10
reprogram 10
resin 10
resor@@ 10
restorative 10
restriction 10
rests 10
retroviral 10
revel@@ 10
rewarding 10
riders 10
rifle 10
righte@@ 10
rob 10
rod 10
rooftops 10
rot 10
round@@ 10
rup@@ 10
sacrifices 10
salad 10
sanc@@ 10
sanctu@@ 10
sandstone 10
sati@@ 10
savanna 10
scattered 10
sch 10
schemes 10
scholar 10
scou@@ 10
scrol@@ 10
seat@@ 10
seated 10
sediments 10
segreg@@ 10
seizure 10
selfish@@ 10
sens@@ 10
sentiments 10
separates 10
sermons 10
share@@ 10
shareholders 10
shelters 10
singular 10
sleeve 10
smil@@ 10
smoothly 10
socio 10
socks 10
solic@@ 10
sophistication 10
sovereignty 10
spam 10
sparks 10
spawning 10
specialty 10
spect@@ 10
spectral 10
spelling 10
spherical 10
sprawl 10
springs 10
squirt 10
stainless 10
stake@@ 10
starch 10
statisticians 10
steep 10
stimulating 10
stockpile 10
stomatopo@@ 10
strap 10
stretching 10
striving 10
stru@@ 10
subsidize 10
substances 10
substrate 10
suited 10
summaries 10
summarized 10
sumness 10
sunfish 10
supplement 10
suppliers 10
supreme 10
survivor 10
suspects 10
tactics 10
tain 10
tam@@ 10
tants 10
taxonom@@ 10
taxpayer 10
tearing 10
techno 10
tect@@ 10
ted@@ 10
tedious 10
teens 10
teeny 10
telecommunications 10
temples 10
temporarily 10
tempted 10
tenti@@ 10
terabytes 10
thankfully 10
therapeu@@ 10
thermodynamics 10
thickness 10
thinner 10
thoroughly 10
thou 10
ting@@ 10
tires 10
tis@@ 10
toothbrush 10
torch 10
tornado 10
tou@@ 10
towels 10
traders 10
trainer 10
tran@@ 10
transaction 10
translators 10
transplantation 10
trau@@ 10
trayed 10
tresses 10
triang@@ 10
troop 10
trophy 10
tual 10
turbines 10
turbulent 10
typewriter 10
ues 10
ulations 10
ulls 10
ults 10
unchanged 10
unconsciously 10
underestimated 10
underlies 10
undermine 10
undertaking 10
uno@@ 10
unpleasant 10
untapped 10
unve@@ 10
unveil 10
upbeat 10
updates 10
upwards 10
ure@@ 10
usts 10
utilize 10
utilized 10
vain 10
valleys 10
variants 10
vas@@ 10
veget@@ 10
veiled 10
veins 10
veter@@ 10
videot@@ 10
vie 10
vin@@ 10
visibility 10
volu@@ 10
vul@@ 10
wakes 10
wan 10
waterborne 10
waterfront 10
weep 10
weighed 10
wel 10
wellness 10
wetlands 10
whereby 10
whipped 10
whisper 10
whistled 10
wholly 10
wildly 10
workings 10
worth@@ 10
wry 10
yan 10
yp@@ 10
03 9
08 9
1,300 9
102 9
105 9
113@@ 9
120@@ 9
14,000 9
1500 9
175 9
1800 9
1928 9
1939 9
1953 9
195@@ 9
2100 9
21@@ 9
26@@ 9
3.3 9
3.5 9
365 9
600,000 9
747 9
9,@@ 9
AMD 9
Accep@@ 9
Ah@@ 9
Airstream 9
Alisa 9
Allah 9
Alley 9
Alliance 9
Ambass@@ 9
Annan 9
Aravind 9
Architect 9
Area 9
Arnold 9
Aspen 9
Austr@@ 9
Authority 9
Autonom@@ 9
Aveling 9
Awesome 9
BMI 9
Bach 9
Bahamas 9
Ballet 9
Based 9
Bea@@ 9
Bern@@ 9
Bess 9
Beyond 9
Birds 9
Boeing 9
Books 9
Britannica 9
Brooks 9
Brunel 9
Buckminster 9
Capital 9
Car 9
Carbon 9
Caroline 9
Case 9
Cash 9
Cat 9
Cauc@@ 9
Chandler 9
Chaz 9
Chev@@ 9
Chris@@ 9
Cin@@ 9
Cir@@ 9
Circle 9
Cleveland 9
Co 9
Coach 9
Color 9
Comedy 9
Commerce 9
Commission 9
Common 9
Compl@@ 9
Congol@@ 9
Copernic@@ 9
Cornell 9
Curi@@ 9
D.@@ 9
DD 9
Daisy 9
Deborah 9
Delta 9
Devil 9
Diamond 9
Diet 9
District 9
Divergence 9
Dravidi@@ 9
Dro@@ 9
Dur@@ 9
EPA 9
Econom@@ 9
Economic 9
Educ@@ 9
Ellen 9
Encyclopedia 9
Et@@ 9
Euc@@ 9
Fem@@ 9
Fermi 9
Fifth 9
Flo@@ 9
Forty 9
Fowler 9
Friends 9
Fuller 9
Furby 9
G20 9
Gabriel 9
Garrett 9
Gell 9
Georgetown 9
Giant 9
Git 9
Glo@@ 9
Gogh 9
Greenpeace 9
Growth 9
Hands 9
Hardy 9
Hasan 9
Haz@@ 9
Hea@@ 9
Hewlett 9
Hispanic 9
Holl@@ 9
Honor 9
Houston 9
Hyper@@ 9
I.M. 9
Il@@ 9
Indi@@ 9
Initiative 9
Intelligence 9
Invent@@ 9
Iron 9
JM 9
Ji@@ 9
Johns 9
Josh 9
Jun@@ 9
Jurassic 9
K. 9
Kaaba 9
Kin@@ 9
Kismet 9
Kleiber 9
Kur@@ 9
Ky@@ 9
Lab@@ 9
Laramie 9
Layma 9
Leban@@ 9
Legos 9
Limb 9
Mach@@ 9
Madison 9
Major 9
Mak@@ 9
Management 9
Marines 9
Mayor 9
McC@@ 9
McQueen 9
Mean@@ 9
Mechanical 9
Men@@ 9
Mexic@@ 9
Military 9
Millions 9
Mitra 9
Mmm 9
Mom@@ 9
Money 9
Mouse 9
Mus@@ 9
Muti 9
Nashville 9
Need@@ 9
Nino 9
Nixon 9
Noam 9
Noise 9
Nowadays 9
OS 9
Oc@@ 9
Ornish 9
Oz 9
PA@@ 9
Pa@@ 9
Patients 9
Patricia 9
Patrick 9
Pauling 9
Penelope 9
Penn 9
Phil@@ 9
Phillips 9
Picture 9
Pierre 9
Plu@@ 9
Plus 9
Poetry 9
Pos@@ 9
Pot@@ 9
Pra@@ 9
Prakash 9
Pranav 9
Proto@@ 9
Prozac 9
RA 9
ROD 9
Raleigh 9
Recording 9
Report 9
Rhode 9
Rich@@ 9
Richards 9
Ritchie 9
Robot 9
Rock@@ 9
Rockwell 9
Rumi 9
Rw@@ 9
Ryan 9
Sab@@ 9
Sagan 9
Sanghamitra 9
Schul@@ 9
Sco@@ 9
Services 9
Shap@@ 9
Share 9
Sheila 9
Shekhar 9
Sherman 9
Shu@@ 9
Simplic@@ 9
Singer 9
Sky@@ 9
Slav@@ 9
Son@@ 9
Special 9
Squ@@ 9
Stri@@ 9
Studies 9
Suc@@ 9
Summit 9
Sy@@ 9
Symphony 9
TED2009 9
TK 9
Tahrir 9
Tamil 9
Tata 9
Tech@@ 9
Tel 9
Terr@@ 9
Terry 9
Theo@@ 9
Thinking 9
Transparency 9
Tree 9
Trek 9
Tru@@ 9
Tun@@ 9
Turing 9
Twit@@ 9
Tyler 9
UC 9
UN@@ 9
UV@@ 9
Unless 9
Us 9
Vel@@ 9
Velcro 9
Vic@@ 9
Vish@@ 9
Wales 9
Was@@ 9
Water@@ 9
West@@ 9
Wind 9
Woods 9
Zen 9
abdomen 9
absorption 9
abytes 9
accents 9
achel@@ 9
acle 9
acoustici@@ 9
activates 9
activating 9
adaptable 9
advocating 9
af 9
afi 9
agr@@ 9
agre@@ 9
agues 9
ais 9
aj 9
alan 9
alg@@ 9
aline 9
amation 9
amen 9
amid@@ 9
amour 9
analyses 9
anderson 9
andon 9
angs 9
ania 9
animates 9
annoyed 9
ante 9
anten@@ 9
anticip@@ 9
antique 9
apocalyp@@ 9
apper 9
archiv@@ 9
aris@@ 9
arous@@ 9
ason 9
assurance 9
asted 9
asth@@ 9
asy 9
atmo@@ 9
attentive 9
avo@@ 9
aws 9
backup 9
bann@@ 9
barg@@ 9
barr@@ 9
batross 9
beat@@ 9
beh@@ 9
bel 9
benef@@ 9
beta 9
biomechanics 9
bis 9
blinded 9
bots 9
brainer 9
brainstorms 9
brighter 9
brow@@ 9
browsing 9
build@@ 9
burnt 9
calend@@ 9
canal 9
cancer@@ 9
cannib@@ 9
carni@@ 9
carpenter 9
cass@@ 9
cassette 9
cerem@@ 9
champions 9
chard 9
chari@@ 9
chids 9
chloro@@ 9
chocol@@ 9
chris 9
cians 9
cite 9
classification 9
claw 9
cler@@ 9
climat@@ 9
coc@@ 9
coccus 9
coerci@@ 9
colum@@ 9
commodi@@ 9
comparative 9
compiler 9
comprehen@@ 9
computer@@ 9
conc@@ 9
connective 9
construc@@ 9
contradictions 9
controver@@ 9
conversion 9
correction 9
correlate 9
coup 9
crimin@@ 9
critici@@ 9
crushing 9
cured 9
curren@@ 9
curse 9
curtain 9
cussions 9
customization 9
cylind@@ 9
cynical 9
dai@@ 9
dark@@ 9
ddles 9
decay 9
degrading 9
depar@@ 9
depletion 9
deral 9
descended 9
desp@@ 9
devastation 9
dically 9
diesel 9
dilu@@ 9
dimension@@ 9
dious 9
diplomats 9
disco@@ 9
discovers 9
distil@@ 9
ditions 9
divisions 9
dized 9
doctor@@ 9
doctrines 9
doubles 9
dropou@@ 9
drying 9
duced 9
ducted 9
eads 9
eaking 9
earthquakes 9
ecks 9
eco@@ 9
economical 9
ectomy 9
eder 9
edged 9
educator 9
egulation 9
eh 9
ein 9
elastic 9
elim@@ 9
embarked 9
embed 9
emed 9
emental 9
emer@@ 9
eminent 9
employers 9
emulate 9
enders 9
energized 9
enhancement 9
enhancing 9
enjoyment 9
enlist 9
enslav@@ 9
ente@@ 9
entertain 9
entertain@@ 9
epidemi@@ 9
epidemiology 9
epilep@@ 9
erable 9
eras 9
erased 9
erly 9
eruption 9
esh 9
esis 9
ession 9
estimating 9
eternity 9
ethically 9
etti 9
evertheless 9
evoke 9
exacerb@@ 9
examines 9
examining 9
excavate 9
executed 9
exes 9
exhibits 9
exter@@ 9
extraterrestrial 9
exuber@@ 9
fabric@@ 9
fabricate 9
factor@@ 9
fain@@ 9
feared 9
feasi@@ 9
feed@@ 9
fiery 9
figur@@ 9
fisherman 9
fixes 9
flir@@ 9
flowering 9
fond 9
forage 9
forger 9
forgery 9
forget@@ 9
formulation 9
fossil@@ 9
franch@@ 9
fs 9
ft. 9
func@@ 9
furthermore 9
fused 9
gadget 9
gate@@ 9
gather@@ 9
geant 9
geneticist 9
geno@@ 9
geon 9
ggers 9
ggy 9
gical 9
gill 9
giraffe 9
gla@@ 9
glove 9
golfer 9
goofy 9
gorilla 9
gracefully 9
graph@@ 9
gravel 9
griev@@ 9
grilled 9
groo@@ 9
ground@@ 9
grum@@ 9
guese 9
guessing 9
guests 9
gymnosophist 9
gyre 9
habitu@@ 9
hallucin@@ 9
handwriting 9
harnessed 9
haunted 9
headlights 9
heartbreaking 9
heav@@ 9
hectares 9
hedon@@ 9
herbs 9
heres@@ 9
hers 9
hh@@ 9
hic@@ 9
highlighted 9
highlights 9
hind 9
hints 9
hion 9
hions 9
hippocampus 9
hitchhi@@ 9
hl 9
holic 9
holidays 9
homosexuality 9
horribly 9
horse@@ 9
hovering 9
hurdy 9
hybrids 9
hydrophobic 9
hypothes@@ 9
hyster@@ 9
iPhones 9
ication 9
ice@@ 9
ician 9
iding 9
idly 9
ies.html 9
ik@@ 9
ilight 9
illas 9
illiter@@ 9
ilo 9
immigrant 9
immigrants 9
immuno@@ 9
impacted 9
implicated 9
implicit 9
implies 9
imprisoned 9
improvis@@ 9
ince 9
inclined 9
inconsistent 9
increments 9
inda 9
ine.html 9
iner 9
infrastructures 9
inge 9
ingu@@ 9
inhabited 9
inhal@@ 9
inherit 9
inhibit 9
insides 9
inspires 9
installing 9
institution@@ 9
intentioned 9
interactivity 9
interconnections 9
interfer@@ 9
interven@@ 9
introverted 9
inversion 9
invest@@ 9
investigations 9
invitations 9
io@@ 9
iority 9
ishy 9
itari@@ 9
itors 9
itten 9
iva 9
jad 9
janitors 9
jealousy 9
ject 9
jeweled 9
journe@@ 9
kicks 9
kier 9
kind@@ 9
kisses 9
km 9
knocking 9
knots 9
know@@ 9
knowledgeable 9
labyrinth 9
lah 9
laps 9
laureate 9
lawsuits 9
lbs 9
leaned 9
liament 9
liar 9
liars 9
liberating 9
librarians 9
liest 9
life.html 9
lifes@@ 9
lig@@ 9
limitless 9
lineage 9
listener 9
ll 9
logistics 9
loosely 9
lords 9
lore 9
losers 9
lowering 9
loyal 9
lum 9
lunch@@ 9
lurking 9
lus@@ 9
lush 9
lyn 9
macro@@ 9
maid 9
mak@@ 9
malleable 9
manageable 9
maneuver 9
mani@@ 9
mans 9
manus@@ 9
marsh@@ 9
melodies 9
menus 9
merchants 9
merito@@ 9
metrics 9
mi 9
michael 9
microprocessors 9
migrated 9
milliseconds 9
miners 9
missiles 9
missionary 9
mistaken 9
mockingbird 9
modern@@ 9
modernist 9
modi@@ 9
monitored 9
mortal 9
motives 9
motto 9
mound 9
muck 9
muses 9
mystic 9
mytho@@ 9
nai@@ 9
nal 9
nanometer 9
narco@@ 9
narrator 9
nas@@ 9
necess@@ 9
need@@ 9
negotiated 9
nerv@@ 9
nesium 9
neurologic 9
newborn 9
nicer 9
nicest 9
nickname 9
nightmares 9
nist 9
nomin@@ 9
nominate 9
northeastern 9
nozz@@ 9
nutritious 9
obligations 9
obsessive 9
obstruc@@ 9
obtain 9
occu@@ 9
oceano@@ 9
ocy@@ 9
oddly 9
ods 9
oids 9
oily 9
oneness 9
onically 9
oops 9
opponent 9
orate 9
ord@@ 9
ori 9
orient 9
orient@@ 9
originate 9
oscop@@ 9
ounces 9
outliers 9
outskirts 9
overview 9
oxygen@@ 9
packages 9
packet 9
paints 9
pale@@ 9
pap@@ 9
parade 9
paragraph 9
parall@@ 9
patented 9
patriotic 9
pavement 9
paw 9
payback 9
payments 9
pedestrians 9
pediatrician 9
pellets 9
penetration 9
pessimistic 9
pests 9
phy@@ 9
pically 9
piled 9
pivo@@ 9
pixel 9
plank 9
pless 9
plex@@ 9
pod 9
pointer 9
pointment 9
polarization 9
policeman 9
policymakers 9
polling 9
polluting 9
pores 9
porting 9
posing 9
positional 9
possess 9
possessed 9
possession 9
ppets 9
preceding 9
preferably 9
pregn@@ 9
prejudice 9
pren@@ 9
prepar@@ 9
priests 9
princess 9
printers 9
prioriti@@ 9
prioritize 9
proce@@ 9
proceeded 9
produc@@ 9
progressing 9
propensity 9
prophets 9
propor@@ 9
prosthesis 9
prostitutes 9
protests 9
provider 9
provinces 9
proxy 9
pub 9
public@@ 9
pun 9
punch@@ 9
pus@@ 9
quadruple 9
quarri@@ 9
quorum 9
rag@@ 9
rails 9
rally 9
ramp 9
rampant 9
raw@@ 9
rebreather 9
recei@@ 9
reci@@ 9
reciprocal 9
reconstructed 9
recreation 9
recreational 9
recruit 9
recruited 9
redness 9
redundant 9
referring 9
refriger@@ 9
refrigerators 9
refu@@ 9
regarding 9
regeneration 9
regret@@ 9
reinforces 9
reiter@@ 9
rejection 9
remar@@ 9
reminis@@ 9
renaissance 9
repeti@@ 9
rescu@@ 9
reset 9
resource@@ 9
resting 9
restor@@ 9
resurrection 9
retaining 9
reu@@ 9
reun@@ 9
reverberation 9
revolution@@ 9
rhino@@ 9
rib@@ 9
ricane 9
robe 9
rogue 9
roo@@ 9
rooftop 9
rotor 9
rounds 9
roy@@ 9
rubbish 9
rug@@ 9
rugged 9
ruling 9
rum@@ 9
rushing 9
ruth@@ 9
sab@@ 9
sailed 9
salute 9
sane 9
saurus 9
scat@@ 9
schizophrenic 9
sci@@ 9
scooter 9
sculpted 9
scum 9
sea@@ 9
search@@ 9
secondhand 9
sects 9
seis@@ 9
sel 9
seldom 9
semester 9
sensibility 9
sentiment 9
sequ@@ 9
sew 9
shalt 9
shan@@ 9
shattered 9
shattering 9
sher@@ 9
shines 9
shoved 9
simplified 9
sinister 9
sioned 9
skelet@@ 9
skied 9
skier 9
skyrocketing 9
skyscrapers 9
slammed 9
slaughtered 9
slim 9
slipped 9
slows 9
smen 9
snack 9
snail 9
sniff 9
sober 9
sobering 9
sociologists 9
sorted 9
sounding 9
spect 9
spectacle 9
spective 9
spells 9
spic@@ 9
spon@@ 9
spongy 9
spotlight 9
stacked 9
stair@@ 9
starlight 9
stat 9
stea@@ 9
stealth 9
steep@@ 9
stent 9
stethoscope 9
stewardship 9
stir@@ 9
storytellers 9
straps 9
stressful 9
stripes 9
styl@@ 9
subj@@ 9
subscri@@ 9
subsequent 9
subur@@ 9
success@@ 9
succum@@ 9
sucking 9
sugar@@ 9
suing 9
sunshine 9
supplying 9
surf@@ 9
surreal 9
suspicion 9
swee@@ 9
sweet@@ 9
swings 9
synchron@@ 9
synchronize 9
synthes@@ 9
synthesizer 9
tablets 9
tad@@ 9
takeoff 9
tallest 9
tapped 9
tapping 9
tasting 9
tch 9
tease 9
tech@@ 9
teeming 9
tel 9
telev@@ 9
tell@@ 9
tenacious 9
tender 9
tensions 9
tent@@ 9
terly 9
termites 9
tero 9
testant 9
thankful 9
theast 9
theaters 9
thec@@ 9
theo@@ 9
thereafter 9
thermo@@ 9
thermore 9
thesi@@ 9
thi@@ 9
thinker 9
thumb@@ 9
thumbs 9
tices 9
tick@@ 9
tides 9
tim 9
times@@ 9
tingly 9
tinkering 9
tioning 9
tious 9
tir@@ 9
tiveness 9
tiz@@ 9
tlement 9
todd@@ 9
tok@@ 9
tomatoes 9
tosses 9
toughness 9
trach@@ 9
trafficked 9
tragically 9
transporting 9
trice 9
trig@@ 9
trim@@ 9
trix 9
troom 9
trustworthy 9
tuous 9
twi@@ 9
ucked 9
uncanny 9
undergo 9
unfolds 9
unhappiness 9
unification 9
uninhabited 9
uniqu@@ 9
universally 9
unleash 9
unnatural 9
upgrade 9
uplo@@ 9
urbanism 9
usable 9
utero 9
vaccinated 9
valid@@ 9
vastness 9
veg 9
venues 9
verbi@@ 9
vibrations 9
virgins 9
virulence 9
vit@@ 9
vitro 9
volatile 9
vow 9
warmed 9
wasps 9
wasteful 9
wastewater 9
weakest 9
weal@@ 9
wee 9
weeping 9
wet@@ 9
whe@@ 9
whilst 9
whim@@ 9
wiel@@ 9
wingsuit 9
wisely 9
wiser 9
withstand 9
word@@ 9
wrap@@ 9
wrapping 9
wrec@@ 9
writ@@ 9
yan@@ 9
yang 9
ycle 9
yell 9
ype 9
zoo@@ 9
zzy 9
ó@@ 9
( 8
02 8
06 8
114@@ 8
116@@ 8
1912 8
1954 8
1958 8
1963 8
1971 8
2025 8
220 8
240 8
380 8
4,500 8
AT 8
Ach@@ 8
Admin 8
Advanced 8
Adventi@@ 8
Afghans 8
Against 8
Alexis 8
Alger@@ 8
AlloSphere 8
Altos 8
Alvin 8
Anne 8
Ans@@ 8
Ansari 8
App@@ 8
Appar@@ 8
Aquarium 8
Architects 8
Ariely 8
Atala 8
Atkins 8
Augustine 8
Australi@@ 8
Av@@ 8
BPA 8
Barcel@@ 8
Bau@@ 8
Bay@@ 8
Bayes 8
Beg@@ 8
Biafr@@ 8
Birmingham 8
Black@@ 8
Block 8
Bloom@@ 8
Bombay 8
Bon@@ 8
Bow@@ 8
Boy@@ 8
Buff@@ 8
Byrne 8
CBS 8
Cage 8
Cambo@@ 8
Capgras 8
Celsius 8
Cheet@@ 8
Chil@@ 8
Chip 8
Clarke 8
Compar@@ 8
Congr@@ 8
Coo@@ 8
DA 8
DAR@@ 8
DM@@ 8
DR@@ 8
Dana 8
Daph@@ 8
De 8
Deb@@ 8
Deng 8
Descartes 8
Discovery 8
Dodgers 8
Dou@@ 8
Doug@@ 8
Doyle 8
Drori 8
Durga 8
Dut@@ 8
Dynam@@ 8
ES 8
Earle 8
Ebert 8
Economics 8
Edith 8
Eff@@ 8
Eisenhower 8
Emma 8
Ep@@ 8
Expl@@ 8
Explor@@ 8
Explorer 8
Extreme 8
Farm@@ 8
Femin@@ 8
Ferr@@ 8
Fish@@ 8
Fisher 8
Fl@@ 8
Fo@@ 8
Foster 8
Frankie 8
Fraser 8
Future 8
G. 8
G8 8
GM 8
Gag@@ 8
Gen 8
Geoffrey 8
Gladwell 8
Goldberg 8
Goldilocks 8
Goodall 8
Grant 8
Guang@@ 8
Guide 8
Guinness 8
Gupta 8
Haidt 8
Hampshire 8
Happiness 8
Hun@@ 8
Hyperscore 8
IPCC 8
IT@@ 8
Il 8
Image 8
Indra 8
Indus@@ 8
Institu@@ 8
Intelligent 8
Ital@@ 8
JO 8
Jack@@ 8
Julius 8
Jurvetson 8
Karajan 8
Kathryn 8
Lar@@ 8
Leahy 8
Lear 8
Len@@ 8
Leonard 8
Les@@ 8
Lifesaver 8
Line 8
Lock@@ 8
Loo@@ 8
Louise 8
MA@@ 8
Mae 8
Mali 8
Mandelbrot 8
Maps 8
Mari@@ 8
Marie 8
Marilyn 8
Marri@@ 8
Martha 8
Mass 8
Masters 8
Maya 8
McCain 8
Mercedes 8
Miz@@ 8
Moder@@ 8
Molly 8
Mullis 8
Multi@@ 8
NFL 8
NYU 8
Nar@@ 8
Near 8
Newcastle 8
Niger 8
Niger@@ 8
Nina 8
Ny@@ 8
O2 8
Oklahoma 8
Ottawa 8
Ow@@ 8
Pakistan@@ 8
Pass@@ 8
Patriot 8
Pau@@ 8
Pete 8
Petri 8
Philos@@ 8
Piero 8
Pollock 8
Popcorn 8
Popular 8
Preston 8
Princi@@ 8
Purpose 8
Quar@@ 8
Queens 8
Queensland 8
Question 8
Radi@@ 8
Rajasthan 8
Ram 8
Rand@@ 8
Read 8
Reuters 8
Rich 8
Ritz 8
Rotterdam 8
Running 8
SUV 8
Sacramento 8
Safety 8
Sal 8
Saunders 8
Savage 8
Sciences 8
Sea@@ 8
Search 8
Shaw 8
Sheena 8
Sheik@@ 8
Shermer 8
Shimon 8
Shreddies 8
Sistema 8
Skep@@ 8
Slo@@ 8
Soldiers 8
Son 8
Sophia 8
Stein@@ 8
Stevenson 8
Sub@@ 8
Sugata 8
Sym@@ 8
Sys 8
TEMPT 8
Tak@@ 8
Teach 8
Tel@@ 8
Temple 8
Ten@@ 8
Termin@@ 8
Thai 8
Thatcher 8
Theatre 8
Timothy 8
Tipper 8
Todd 8
Torah 8
Trojan 8
Tse 8
UE 8
USC 8
Umar 8
Uni@@ 8
Universal 8
Verizon 8
Viagra 8
Vibrio 8
Vie@@ 8
Vis@@ 8
Volvo 8
Voyager 8
Vul@@ 8
Wall@@ 8
Want 8
Week 8
Whitacre 8
Whitney 8
Wii 8
Wiki@@ 8
Wildlife 8
Wolfe 8
Wonder 8
Wong 8
Woo 8
Yahoo 8
Youth 8
Zone 8
Zurich 8
aa@@ 8
ache 8
ached 8
ader 8
adir 8
admiration 8
admission 8
adop@@ 8
ady 8
aggr@@ 8
agri@@ 8
alco@@ 8
alliances 8
allocation 8
alo 8
alter@@ 8
altru@@ 8
amaz@@ 8
ambi@@ 8
amble 8
aments 8
amin@@ 8
amputation 8
amusement 8
amyg@@ 8
ances@@ 8
ands 8
antage 8
anth@@ 8
anthrax 8
antine 8
approxim@@ 8
arable 8
arbitr@@ 8
arious 8
armor 8
arrogant 8
ashi 8
assistants 8
associ@@ 8
associations 8
atest 8
ationale 8
ato 8
atom@@ 8
atta@@ 8
attributed 8
augh 8
avel@@ 8
aven 8
avors 8
awk@@ 8
ayan 8
barbecue 8
bass@@ 8
bby 8
bet@@ 8
biking 8
biomater@@ 8
blad@@ 8
bolt 8
bomber 8
boom@@ 8
bosses 8
bowling 8
brainstorming 8
bunker 8
burger 8
businessman 8
butter@@ 8
buz@@ 8
calam@@ 8
cam 8
camer@@ 8
cams 8
capr@@ 8
carcino@@ 8
cas 8
castle 8
catalo@@ 8
catar@@ 8
chae@@ 8
chai 8
chal@@ 8
changer 8
chased 8
chison 8
chor 8
chor@@ 8
cible 8
cin 8
civil@@ 8
civiliz@@ 8
cle 8
clou@@ 8
colli@@ 8
colon 8
competi@@ 8
compiculture 8
confer@@ 8
confirmation 8
connectomes 8
consoli@@ 8
consultant 8
contagion 8
contextual 8
contractions 8
convictions 8
cooper@@ 8
costume 8
cowboy 8
crane 8
crayons 8
crin@@ 8
crocodiles 8
crowdsource 8
cryp@@ 8
cybercrime 8
dale 8
dazz@@ 8
dead@@ 8
deciph@@ 8
decreas@@ 8
defe@@ 8
del 8
dermat@@ 8
destin@@ 8
determin@@ 8
dial@@ 8
diarrhe@@ 8
dio 8
dispens@@ 8
disputes 8
distinc@@ 8
dium 8
diverge 8
divergent 8
diversi@@ 8
dn 8
dow 8
draft 8
drain 8
dread@@ 8
dyssey 8
eam@@ 8
earing 8
eb@@ 8
eber 8
ec 8
ecologically 8
ecstatic 8
edom 8
efficiencies 8
egos 8
ele@@ 8
emb@@ 8
emper@@ 8
empiri@@ 8
employer 8
ence.html 8
ence@@ 8
endor@@ 8
energi@@ 8
enforced 8
ense 8
envelop@@ 8
ers.html 8
escaping 8
essenti@@ 8
etho@@ 8
ews 8
exam@@ 8
excellence 8
exhi@@ 8
explan@@ 8
extrac@@ 8
extremists 8
fan@@ 8
fashi@@ 8
fically 8
fidelity 8
fierce 8
fif@@ 8
finder 8
fiscal 8
fission 8
flatt@@ 8
flick 8
fluctuation 8
flush 8
flute 8
footsteps 8
forensi@@ 8
formal@@ 8
fort 8
forums 8
fragment 8
fram@@ 8
franchise 8
freshwater 8
fru@@ 8
fuc@@ 8
funky 8
gade 8
gall@@ 8
gene@@ 8
geome@@ 8
geons 8
ghten@@ 8
gie 8
glacial 8
gly@@ 8
gold@@ 8
gon@@ 8
goslav@@ 8
graded 8
gradient 8
gradients 8
graz@@ 8
greedy 8
gren@@ 8
grey 8
grinding 8
gu 8
gues 8
gur@@ 8
hamburgers 8
hans 8
harmonic 8
haunting 8
hectare 8
hed 8
heed 8
hells 8
hemispher@@ 8
het@@ 8
hex@@ 8
hips 8
hoc 8
hominid 8
homo@@ 8
hugging 8
hum 8
humanizing 8
humanly 8
humorous 8
hyde 8
hyperbole 8
i.e. 8
icker 8
icky 8
ided 8
idiots 8
ighs 8
ignant 8
ile@@ 8
illis 8
imag@@ 8
imagin@@ 8
imam 8
iment 8
imitating 8
immersive 8
immigration 8
implement@@ 8
inadvertently 8
incarcer@@ 8
incisions 8
iner@@ 8
inhab@@ 8
inkling 8
inserted 8
insp@@ 8
institu@@ 8
instrumentation 8
intell@@ 8
intend@@ 8
intensi@@ 8
interrup@@ 8
interstell@@ 8
intractable 8
invent@@ 8
iny 8
ion@@ 8
iors 8
iraq 8
irlwind 8
irst 8
isions 8
issu@@ 8
ista 8
itgeist 8
itive 8
itly 8
itter 8
itude 8
iza 8
jar@@ 8
jo 8
joystick 8
judici@@ 8
juxta@@ 8
kevin 8
kidn@@ 8
kiosk 8
kits 8
kman 8
lander 8
laure@@ 8
le.html 8
leg@@ 8
legitim@@ 8
lentils 8
leveraged 8
lian 8
lick 8
lif@@ 8
liqu@@ 8
lis 8
lition 8
liveli@@ 8
logs 8
lonel@@ 8
lovers 8
lowed 8
lyn@@ 8
lyrical 8
mafia 8
magici@@ 8
mai@@ 8
mammal@@ 8
mang@@ 8
marital 8
marking 8
meen 8
megawatt 8
megawatts 8
merchan@@ 8
mercury 8
merit 8
metaphorically 8
milest@@ 8
millisec@@ 8
minis@@ 8
misses 8
mobs 8
moment@@ 8
monstr@@ 8
monument 8
monumental 8
mos@@ 8
mosai@@ 8
mour@@ 8
muffin 8
multicul@@ 8
mur 8
muse 8
mutates 8
naming 8
naught@@ 8
navigating 8
neutrino 8
neutrinos 8
niches 8
nick 8
nick@@ 8
nitr@@ 8
noff 8
notable 8
nuc@@ 8
nug@@ 8
nut@@ 8
obsc@@ 8
occupations 8
occurrence 8
olin@@ 8
olling 8
omo 8
omon 8
onau@@ 8
ongs 8
onom@@ 8
orable 8
orangutans 8
orb 8
orial 8
orium 8
orthodo@@ 8
osexu@@ 8
ota 8
ouin 8
ounge 8
outbreaks 8
outing 8
outsider 8
ovarian 8
oxy@@ 8
pH 8
pable 8
pale 8
paradox@@ 8
parti@@ 8
participant 8
partisan 8
partment@@ 8
paus@@ 8
peac@@ 8
pendul@@ 8
penny 8
pent@@ 8
perfected 8
perim@@ 8
persists 8
persuasive 8
pes@@ 8
pharmacy 8
philanthrop@@ 8
pic 8
pients 8
pigeons 8
placenta 8
plausible 8
plex 8
plu@@ 8
plutonium 8
pment 8
podium 8
poker 8
pollinate 8
pong 8
porridge 8
porter 8
possessions 8
postage 8
prairie 8
prefer@@ 8
premi@@ 8
prescriptions 8
presum@@ 8
previews 8
pris@@ 8
prising 8
probio@@ 8
professionally 8
profil@@ 8
progressi@@ 8
proj@@ 8
propos@@ 8
proto 8
psychia@@ 8
psychiatr@@ 8
puri@@ 8
quadr@@ 8
ques 8
questionnaire 8
rad@@ 8
rang 8
ratios 8
reactive 8
recomm@@ 8
recovering 8
redefined 8
redesigning 8
redu@@ 8
refr@@ 8
regr@@ 8
reh@@ 8
relaxation 8
relay 8
repu@@ 8
reques@@ 8
reside 8
respectable 8
respon@@ 8
retin@@ 8
retreated 8
retrofitting 8
reverber@@ 8
rhyth@@ 8
rich@@ 8
rick@@ 8
river@@ 8
rocking 8
ron 8
rosling 8
routes 8
rudiment@@ 8
runaway 8
rut 8
sacks 8
sage 8
scanners 8
schematic 8
scop@@ 8
scrotum 8
sculp@@ 8
sculptural 8
seam@@ 8
sec 8
seiz@@ 8
sels 8
sentimental 8
serendi@@ 8
serendipity 8
settling 8
shack 8
shaw 8
singularity 8
skinny 8
skir@@ 8
skis 8
slow@@ 8
smartphones 8
snap@@ 8
snuck 8
soluble 8
song@@ 8
spectro@@ 8
spectroscopy 8
spices 8
spotted 8
spraying 8
sprea@@ 8
stamps 8
stephen 8
stered 8
steroid 8
stewards 8
sticker 8
strai@@ 8
submer@@ 8
successive 8
superheroes 8
supersti@@ 8
supplements 8
suppli@@ 8
suppression 8
suspec@@ 8
sustain@@ 8
swi@@ 8
sword 8
synchronized 8
syr@@ 8
tabletop 8
tabo@@ 8
tapestries 8
tapestry 8
teas 8
tedness 8
tempo 8
tenberg 8
tents 8
territ@@ 8
tery 8
testable 8
tex@@ 8
theatr@@ 8
thes 8
thetically 8
thly 8
thorough 8
thre@@ 8
tice 8
tici@@ 8
timely 8
tle@@ 8
tling 8
tness 8
tol@@ 8
trail@@ 8
traject@@ 8
trans 8
transactions 8
transfers 8
trek@@ 8
trem@@ 8
tres@@ 8
trou@@ 8
truc@@ 8
trumpet 8
ts.html 8
tt 8
tumbling 8
tunes 8
turbulence 8
turnover 8
ua 8
uba 8
uck@@ 8
umin@@ 8
una 8
undergraduates 8
unleashed 8
unsafe 8
upli@@ 8
uplifting 8
urg@@ 8
valent@@ 8
variant 8
venue 8
vig@@ 8
vigor@@ 8
vill@@ 8
violated 8
virals 8
virulent 8
volunte@@ 8
wacky 8
wag@@ 8
ware@@ 8
warp 8
wav@@ 8
well@@ 8
whack 8
whispering 8
whit@@ 8
wig 8
witty 8
wning 8
wolf 8
woman@@ 8
workplaces 8
wrestle 8
ya@@ 8
zap 8
zi 8
zinc 8
zy@@ 8
0.2 7
09 7
1.6 7
1.html 7
185 7
1890 7
1903 7
1930 7
1959 7
1964 7
1977 7
325 7
46@@ 7
6,@@ 7
99.9 7
A. 7
AR 7
ARES 7
Abdul 7
Adi@@ 7
Administration 7
Adri@@ 7
Af@@ 7
Agriculture 7
Ahmed 7
Ahmedabad 7
Aicha 7
Alain 7
Album 7
Android 7
Angela 7
Angola 7
Ani@@ 7
Anil 7
Antonio 7
Aristo@@ 7
Atlas 7
Aubrey 7
Aung 7
Aus@@ 7
Ax@@ 7
Az@@ 7
Azer@@ 7
BAS@@ 7
Barefoot 7
Behar 7
Beijerinck 7
Benoit 7
Benyus 7
Berkley 7
Bhar@@ 7
Bhu@@ 7
Bit@@ 7
Blind 7
Borges 7
Bose 7
Boul@@ 7
Box 7
Branson 7
Brent 7
Broadway 7
Brother 7
Buick 7
Bulgar@@ 7
Burger 7
CAD 7
CC 7
CE 7
Cab@@ 7
Calcul@@ 7
Calcutta 7
Campbell 7
Capit@@ 7
Carol 7
Carroll 7
Ce@@ 7
Cesar 7
Cha@@ 7
Chad 7
Chambal 7
Chan@@ 7
Chaos 7
Chase 7
Cheetos 7
Chopin 7
Christina 7
Citi@@ 7
Claes 7
Cli@@ 7
Cody 7
Collect 7
Colom@@ 7
Comm@@ 7
Cool 7
Copy@@ 7
Corps 7
Cou@@ 7
Cousteau 7
D. 7
D.C 7
DI@@ 7
DM 7
DO@@ 7
Daily 7
Day@@ 7
Dereck 7
Deutsch 7
Develop@@ 7
Dewey 7
Diff@@ 7
Dirty 7
Div@@ 7
Doll@@ 7
Donna 7
Doo@@ 7
Dow@@ 7
Dracorex 7
Dublin 7
Durkheim 7
E.O. 7
ECX 7
Ebola 7
Ecosia 7
Edwards 7
Eiffel 7
Eis@@ 7
Elvis 7
Engelbart 7
Enron 7
Euro 7
FM 7
Farmer 7
Fildes 7
Flash 7
Fluctus 7
Foods 7
Foot@@ 7
Fran@@ 7
Franc@@ 7
Franco 7
G.@@ 7
Gail 7
Gallo 7
Ghan@@ 7
Globe 7
Google@@ 7
Googlers 7
Gor@@ 7
Gravity 7
Gray 7
Green@@ 7
H1N1 7
HAL 7
HTTP 7
Hab@@ 7
Has@@ 7
Hat 7
Heads 7
Hei@@ 7
Heidi 7
Heinz 7
Hell 7
Hil@@ 7
Himalay@@ 7
Hos@@ 7
Hot 7
Hou@@ 7
Huntington 7
Hut@@ 7
Icel@@ 7
Idris 7
Images 7
Inspi@@ 7
Iowa 7
Ir@@ 7
Isabel 7
Itay 7
Jak@@ 7
Jas@@ 7
Jav@@ 7
Jaw@@ 7
Jenny 7
Jeremy 7
Joan 7
Joplin 7
Joy 7
KIPP 7
Kan@@ 7
Kash@@ 7
Katie 7
Keene 7
Kelley 7
Ken@@ 7
Keny@@ 7
Kermit 7
Kevlar 7
Kid@@ 7
Knight 7
Kore@@ 7
Kris@@ 7
Kryp@@ 7
Kun@@ 7
Kurt 7
Kyi 7
LL 7
LP 7
Laden@@ 7
Lakshmi 7
Land 7
Lessig 7
Levine 7
Levitt 7
Lex@@ 7
Leymah 7
Lim@@ 7
Lloyd 7
Locke 7
Lou 7
Lou@@ 7
Lower 7
Lucas 7
Lyn@@ 7
MK 7
MO@@ 7
MP@@ 7
Mahabharata 7
Maine 7
Maj@@ 7
Maker 7
Makers 7
Malé 7
Map@@ 7
Mau 7
McMurdo 7
Mess@@ 7
Metrics 7
Meyerowitz 7
Mid 7
Mis@@ 7
Moi 7
Mol@@ 7
Monkey 7
Moriarty 7
Motor 7
Motors 7
Mullins 7
NE@@ 7
Nam@@ 7
Nath@@ 7
Naturally 7
Nes@@ 7
Net@@ 7
Nir@@ 7
Nuland 7
Oce@@ 7
Octavio 7
Okolloh 7
Oldenburg 7
Olympus 7
Open@@ 7
Opera 7
Ox@@ 7
Oxy@@ 7
PA 7
PC@@ 7
PE@@ 7
PET 7
PI 7
PMTCT 7
PSA 7
Pace 7
Pachy@@ 7
Palin 7
Pap@@ 7
Pardon 7
Pei 7
Pet@@ 7
Peters@@ 7
Ph.@@ 7
Phil 7
Pixar 7
Place 7
Pond 7
Pop@@ 7
Prin@@ 7
Prot@@ 7
Protection 7
Prus@@ 7
Psycho 7
Pyg@@ 7
Quest 7
Rabbi 7
Raghava 7
Ragu 7
Raj@@ 7
Rap@@ 7
Reader 7
Records 7
Reddit 7
Rita 7
Rober@@ 7
Rol@@ 7
Rosie 7
Rot@@ 7
Roth 7
SAT 7
SC@@ 7
SK 7
SL 7
SPECT 7
Salinas 7
Salt 7
Sans@@ 7
Sarg@@ 7
Schne@@ 7
Scho@@ 7
Schocken 7
Scr@@ 7
Sean 7
Selam 7
Seligman 7
Seoul 7
Seu@@ 7
Seva 7
Seymour 7
Shannon 7
Sig@@ 7
Silk 7
Sivers 7
Sk@@ 7
Smart 7
Smith@@ 7
Sou@@ 7
Sovi@@ 7
Spiderman 7
Spin@@ 7
Spir@@ 7
Stars 7
Stat@@ 7
Story 7
Street@@ 7
Stru@@ 7
Sunitha 7
Sutherland 7
Suu 7
Synthetic 7
TED2011 7
TEDxUSC 7
Talgam 7
Tamara 7
Tat@@ 7
Tax@@ 7
Tesla 7
Tewksbury 7
Ther@@ 7
Thom 7
Tour 7
Tut@@ 7
Tyranno@@ 7
Tyrone 7
US@@ 7
USB 7
Upper 7
Upwake 7
Utah 7
Utopia 7
WITNESS 7
Wa@@ 7
Ward 7
Wayne 7
Whirlwind 7
Won@@ 7
Worldchanging.com 7
Xiaoping 7
Yam@@ 7
Youn@@ 7
Zach 7
Zander 7
Zimbardo 7
abe 7
abe@@ 7
abs 7
access@@ 7
accompan@@ 7
accord 7
achi 7
acier 7
acous@@ 7
acro@@ 7
acter 7
adaptations 7
admir@@ 7
affer 7
airbags 7
aired 7
al.html 7
alanine 7
alini 7
altitudes 7
ambitions 7
ament@@ 7
amer 7
amine 7
amph@@ 7
anag@@ 7
anda 7
andy 7
anger@@ 7
anos 7
ansky 7
antic@@ 7
anyons 7
anza 7
aph@@ 7
aphor 7
aphysi@@ 7
appli@@ 7
appro@@ 7
approximation 7
archy 7
arger 7
arial 7
arias 7
arit@@ 7
asp@@ 7
assa 7
assis 7
asso 7
astoun@@ 7
ati 7
atol@@ 7
attr@@ 7
attribu@@ 7
atus 7
audition 7
augmentation 7
ault 7
aus 7
av 7
avatars 7
ayer 7
ayle 7
baba 7
bacter@@ 7
bal 7
bandages 7
bas 7
bene@@ 7
bifur@@ 7
blog@@ 7
bod@@ 7
bor 7
botany 7
bou@@ 7
boy@@ 7
bra 7
brit@@ 7
buil@@ 7
cabinets 7
call@@ 7
canyon 7
capsules 7
captiv@@ 7
carri@@ 7
cathedr@@ 7
cation 7
centrifu@@ 7
certain@@ 7
certific@@ 7
ch.html 7
change.html 7
charis@@ 7
charitable 7
chen 7
chin@@ 7
chir@@ 7
chment 7
chover 7
chris@@ 7
cht 7
chu 7
cipation 7
cker 7
clan 7
classi@@ 7
clip@@ 7
clitoris 7
coch@@ 7
collisions 7
complication 7
compliment 7
conceptions 7
confis@@ 7
conform@@ 7
connectedness 7
consortium 7
constellations 7
contin@@ 7
contingent 7
conven@@ 7
convulsions 7
cools 7
corrosive 7
costumes 7
cras@@ 7
croch@@ 7
crow@@ 7
crowd@@ 7
crust@@ 7
cry@@ 7
cuisine 7
cyn@@ 7
dang@@ 7
danger@@ 7
daniel 7
dat@@ 7
dbeater 7
ddhas 7
deci@@ 7
deleg@@ 7
delta 7
dem 7
dents 7
deploy@@ 7
descends 7
dest@@ 7
diaspora 7
diction 7
didac@@ 7
dine 7
diner 7
dispers@@ 7
dissi@@ 7
dissonance 7
distinguished 7
distor@@ 7
distributions 7
dit@@ 7
document@@ 7
domestic@@ 7
doms 7
dood@@ 7
doubl@@ 7
dra 7
dragon@@ 7
dt 7
dul@@ 7
dum 7
dwick 7
eaks 7
echo@@ 7
ecraft 7
edit@@ 7
embarr@@ 7
embry@@ 7
endurance 7
enjo@@ 7
enter@@ 7
enthusias@@ 7
enza 7
epy 7
ere@@ 7
eric 7
escence 7
escent 7
esome 7
esp@@ 7
espr@@ 7
establishing 7
etown 7
euri@@ 7
ew@@ 7
excav@@ 7
exer@@ 7
explor@@ 7
explosive 7
eyebro@@ 7
fab@@ 7
fascin@@ 7
fatigue 7
fav@@ 7
favela 7
feedbacks 7
feel@@ 7
fen@@ 7
fermentation 7
ffer 7
fibrill@@ 7
fibro@@ 7
fiel@@ 7
fier@@ 7
filament 7
fing 7
fischeri 7
flag@@ 7
flashlight 7
fluorescence 7
formers 7
found@@ 7
fox 7
foyer 7
fracture 7
fragmentation 7
freezes 7
fronts 7
gaga 7
gage 7
galac@@ 7
gavage 7
gent 7
germin@@ 7
ghetto 7
ght@@ 7
gian 7
glers 7
gluten 7
gol@@ 7
good@@ 7
gos 7
gover@@ 7
grizz@@ 7
gross@@ 7
gyp@@ 7
habil@@ 7
harn@@ 7
hedge 7
herbivores 7
hing 7
homosexu@@ 7
horizon@@ 7
humiliation 7
hypother@@ 7
iTunes 7
ibuprof@@ 7
idation 7
idiosyn@@ 7
ighting 7
illy 7
ilo@@ 7
imaginable 7
imal 7
inclusion 7
incorrect 7
incur@@ 7
indign@@ 7
infiltr@@ 7
inhibit@@ 7
insky 7
inspir@@ 7
instil@@ 7
instinctive 7
intellig@@ 7
inth 7
isa 7
isel 7
iser 7
itage 7
itha 7
ius 7
izz@@ 7
jab@@ 7
jack@@ 7
jaun@@ 7
je 7
jeal@@ 7
joh@@ 7
jug@@ 7
jungles 7
jus@@ 7
just@@ 7
juven@@ 7
ka@@ 7
kal 7
kang@@ 7
kelp 7
ker@@ 7
kewise 7
kh 7
kia 7
kites 7
krit 7
kwamba 7
lanc@@ 7
laparoscop@@ 7
latte 7
lav 7
lave 7
leaked 7
lifel@@ 7
lip@@ 7
litho@@ 7
liz@@ 7
loom@@ 7
lord 7
m.html 7
mandat@@ 7
mangrove 7
mangroves 7
manipul@@ 7
mans@@ 7
marathons 7
margin@@ 7
marginal 7
marketer 7
masse 7
mea@@ 7
microphones 7
migraines 7
milli@@ 7
mis 7
mission@@ 7
mit 7
mits 7
mm 7
mono 7
motel 7
muff@@ 7
municip@@ 7
municipal 7
mutants 7
mutilation 7
nag@@ 7
nanom@@ 7
narr@@ 7
nett 7
nickel 7
note@@ 7
nu 7
oasis 7
obj@@ 7
objectives 7
obs 7
oc 7
oct@@ 7
oks 7
olla 7
onds 7
onn@@ 7
oper 7
opher 7
opium 7
oranges 7
orch@@ 7
ores 7
orges 7
origin@@ 7
orities 7
oscill@@ 7
otaku 7
ote 7
oud 7
ound@@ 7
ouse 7
ousing 7
outsi@@ 7
oy 7
pam 7
par 7
para@@ 7
paren@@ 7
partment 7
partner@@ 7
pear@@ 7
pelvis 7
pense 7
perfection 7
perio@@ 7
phenomen@@ 7
pier 7
pipelines 7
pis@@ 7
plumes 7
portfolio 7
possum 7
preoccupied 7
presid@@ 7
prison@@ 7
prit 7
profession@@ 7
professions 7
prolifer@@ 7
propositions 7
psychiatri@@ 7
psychologically 7
psychopath@@ 7
pty 7
pulsive 7
punc@@ 7
push@@ 7
qua 7
qualit@@ 7
quid 7
quis@@ 7
quit@@ 7
rad 7
radiant 7
raff@@ 7
rake 7
rang@@ 7
raph 7
rati@@ 7
recharge 7
reciproc@@ 7
reco@@ 7
recogni@@ 7
recurrent 7
reforestation 7
rejo@@ 7
rels 7
remor@@ 7
renew@@ 7
resear@@ 7
ress 7
restric@@ 7
restrictions 7
restrictive 7
rev@@ 7
revis@@ 7
revit@@ 7
revive 7
riches 7
ris 7
ritu@@ 7
roast 7
rollers 7
room@@ 7
ror 7
rotors 7
rough@@ 7
rs 7
rude 7
sai@@ 7
saint 7
saints 7
sari 7
scraps 7
sear@@ 7
secu@@ 7
seize 7
setup 7
shado@@ 7
shel@@ 7
shepher@@ 7
shir@@ 7
shire 7
simplification 7
slav@@ 7
slightest 7
slum@@ 7
snob@@ 7
solitude 7
sop@@ 7
sorrow 7
specim@@ 7
sper@@ 7
spiritu@@ 7
splash 7
sponsor@@ 7
sprint 7
squash 7
squir@@ 7
sta 7
standar@@ 7
statistici@@ 7
step@@ 7
stic 7
stic@@ 7
ston 7
strat@@ 7
stre@@ 7
stream@@ 7
street@@ 7
subr@@ 7
subsist@@ 7
succession 7
sulfuri@@ 7
superstar 7
supervision 7
syl@@ 7
syllab@@ 7
symme@@ 7
tak@@ 7
taps 7
tas 7
telec@@ 7
territorial 7
tha 7
thand 7
therine 7
thesia 7
thetics 7
thomas 7
thra 7
thres@@ 7
thyself 7
tial 7
tian 7
tilapia 7
tivis@@ 7
tones 7
torna@@ 7
tow@@ 7
trai@@ 7
train@@ 7
transc@@ 7
treatable 7
troubles 7
trust@@ 7
ture.html 7
tury 7
tutor@@ 7
tweets 7
tzberg 7
undermining 7
undi 7
undo 7
unlocked 7
uri@@ 7
usion 7
vascul@@ 7
vered 7
versati@@ 7
verses 7
vet@@ 7
virgin@@ 7
visu@@ 7
vodka 7
voy@@ 7
vs 7
warms 7
webcam 7
whist@@ 7
whoa 7
wir@@ 7
www.@@ 7
ycl@@ 7
yen 7
yers 7
é 7
--@@ 6
00,000 6
05 6
103 6
106 6
114 6
115 6
115@@ 6
117@@ 6
135 6
165 6
190 6
1929 6
1956 6
24@@ 6
4chan 6
529 6
550 6
664 6
683 6
AA 6
AL@@ 6
AOL 6
Abani 6
Adrian 6
Afri@@ 6
Agar@@ 6
Agra 6
Alberto 6
Allende 6
Alto 6
Amazon@@ 6
Amory 6
Andrea 6
Androm@@ 6
Antoine 6
Anu@@ 6
Apophis 6
Appal@@ 6
Argent@@ 6
Arr@@ 6
Ashdown 6
Asperger 6
Ath@@ 6
Avelile 6
Bag@@ 6
Ban 6
Bangla@@ 6
Barnett 6
Bart 6
Bartok 6
Basil 6
Beat@@ 6
Beckett 6
Bermu@@ 6
Bernoulli 6
Bert 6
Bertrand 6
Blackawton 6
Blanc 6
Blog@@ 6
Bom@@ 6
Bonn@@ 6
Boone 6
Boris 6
Bot 6
Botton 6
Bra@@ 6
Braun 6
Brin 6
Broad@@ 6
Brow@@ 6
Bs 6
Bum@@ 6
Burn@@ 6
Burns 6
Burton 6
But@@ 6
Button 6
CE@@ 6
Caitria 6
Cala 6
Cantor 6
Carac@@ 6
Carlton 6
Carpet 6
Carrie 6
Casa 6
Cause 6
Chall@@ 6
Challenge 6
Cheval 6
Christ@@ 6
Christine 6
Churchill 6
Colin 6
Collabor@@ 6
Comman@@ 6
Commons 6
Conan 6
Concer@@ 6
Connexions 6
Cookie 6
Cox 6
Craig@@ 6
Cronin 6
Curitiba 6
Cut@@ 6
Dai 6
Dakota 6
Dal@@ 6
Dance 6
Denver 6
Depp 6
Dhabi 6
Dharamsala 6
Diane 6
Dink 6
Dizzy 6
Domin@@ 6
Drew 6
Drucker 6
DryBath 6
Ds 6
Dunbar 6
ELA 6
Eagle 6
Electric 6
Embrace 6
Emeka 6
Eno 6
Ethan 6
Eur@@ 6
Eva 6
Express 6
F. 6
FEMA 6
FN 6
Family 6
Ferguson 6
Fiji 6
Fire@@ 6
Fly@@ 6
Forbes 6
Forum 6
Frankenstein 6
Ganes@@ 6
Gershenfeld 6
Get@@ 6
Gho@@ 6
Glasgow 6
Godin 6
Goering 6
Gold@@ 6
Goldie 6
Gombe 6
Gossamer 6
Grameen 6
Granny 6
Grateful 6
Greene 6
Gregory 6
Grier 6
Griffith 6
Gustavo 6
HI@@ 6
HS 6
Hal 6
Hamas 6
Handspring 6
Harriet 6
Hayes 6
Heather 6
Heathrow 6
Hector 6
Hillel 6
Himba 6
Hof@@ 6
Holly 6
Horowitz 6
Huang 6
Hulk 6
Humberto 6
Huygens 6
HyperCard 6
IGF 6
IP@@ 6
IPS 6
Idol 6
Improv 6
Ing@@ 6
Instagram 6
Interval 6
Inv@@ 6
Invisible 6
Iyengar 6
JFK 6
JN 6
Jacobs 6
Jared 6
Joyce 6
Juarez 6
Jung 6
KF 6
KK 6
Kac@@ 6
Kant 6
Kapur 6
Karmapa 6
Karnataka 6
Kary 6
Kav@@ 6
Kew 6
Kid 6
Kigali 6
Kil@@ 6
Kim@@ 6
Kings 6
Kit@@ 6
Knee 6
Kolkata 6
Kosovars 6
Krem@@ 6
Krishna 6
Kuiper 6
LA 6
LE@@ 6
LEGO 6
LM 6
Laf@@ 6
Lan@@ 6
Lang 6
Laura 6
Leakey 6
Lehman 6
Leslie 6
Lesotho 6
Letters 6
Li 6
Liv@@ 6
Livermore 6
Loc@@ 6
Lom@@ 6
Long@@ 6
Lothar 6
Lotto 6
Lovins 6
Loy@@ 6
ME@@ 6
MTV 6
MacMaster 6
Madame 6
Madrid 6
Maggie 6
Mai@@ 6
Majora 6
Malthus 6
Manju 6
Marcel 6
Masai 6
Master 6
Mathare 6
McChrystal 6
McKay 6
McNuggets 6
Mec@@ 6
Meegeren 6
Meggendorfer 6
Mena 6
Met 6
Meyer 6
Michel 6
Mick 6
Miklos 6
Milgram 6
Milliken 6
Milly 6
Mini 6
Misha 6
Mistry 6
Mod@@ 6
Mohamed 6
Mole@@ 6
Monaco 6
Monet 6
Monica 6
Monro@@ 6
Moog 6
Mos@@ 6
Moschen 6
Moskowitz 6
Motts 6
Mug@@ 6
Mun@@ 6
Myst@@ 6
NOAA 6
Nachtwey 6
Nai@@ 6
Nash 6
Nat@@ 6
Nellie 6
Nep@@ 6
Neu@@ 6
Nicol@@ 6
Nielsen 6
Nyota 6
O.@@ 6
OL 6
OM@@ 6
Ontario 6
Opportun@@ 6
Ordin@@ 6
Orkut 6
Orville 6
PD@@ 6
PJC 6
Palo 6
Pamela 6
Panama 6
Pandora 6
Paola 6
Parade 6
Parikrma 6
Parker 6
Participant 6
Partners 6
Perry 6
Philips 6
Picchu 6
Pis@@ 6
Plan@@ 6
Ple@@ 6
[...]
