, 177335
. 153221
de 110462
la 58116
et 54647
est 51837
que 50433
le 47573
à 47064
les 45590
un 41898
l&apos; 41856
des 36655
en 34689
une 33891
d&apos; 33779
vous 31277
nous 31025
qui 28033
a 27657
ce 26651
dans 24981
pour 23716
@-@ 23666
Et 23582
&quot; 23466
pas 23340
il 21097
je 20401
qu&apos; 17848
du 16948
c&apos; 15954
plus 15541
ne 15109
/ 14234
&gt; 13971
&lt; 13971
n&apos; 13722
sur 13558
ai 12599
y 12583
? 12191
on 12117
: 11826
j&apos; 11487
sont 11341
-- 11303
avec 11299
au 10882
ils 10821
fait 10505
se 9850
Je 9677
ces 9499
C&apos; 9209
ont 9208
comme 9183
ça 9117
par 9054
cette 9007
faire 8823
si 8601
être 8543
avons 8484
Il 8456
était 8344
s&apos; 8067
tout 7912
mais 7601
Mais 7446
ou 7343
Nous 7274
très 6911
_ 6782
bien 6244
peut 6193
monde 6069
gens 5897
même 5865
elle 5776
chose 5632
dit 5328
cela 5200
J&apos; 4926
quand 4921
où 4912
me 4745
Vous 4707
vraiment 4671
aux 4651
leur 4649
là 4618
notre 4581
tous 4548
suis 4507
La 4495
été 4450
Donc 4449
donc 4314
choses 4257
parce 4222
aussi 4130
deux 4111
mon 4013
autre 4006
beaucoup 3964
Ce 3916
ans 3888
Le 3845
son 3843
Les 3831
m&apos; 3796
quelque 3723
voir 3718
dire 3701
ici 3655
- 3639
vie 3606
moi 3502
autres 3448
Ils 3394
avait 3383
pouvez 3383
votre 3321
avoir 3300
peu 3294
temps 3294
nos 3292
entre 3141
fois 3096
En 3068
comment 3011
avez 3000
On 2994
Alors 2908
ma 2805
sommes 2801
elles 2761
pense 2759
dont 2637
Si 2568
années 2562
encore 2546
sa 2517
L&apos; 2484
façon 2433
leurs 2409
maintenant 2391
vais 2386
description 2362
toutes 2358
alors 2342
keywords 2338
talkid 2338
url 2338
transcript 2325
title 2324
personnes 2294
juste 2283
enfants 2256
lui 2254
va 2234
non 2150
veux 2147
besoin 2143
histoire 2116
sans 2111
quelques 2103
hui 2095
idée 2074
pouvons 2074
savez 2044
mes 2032
pays 2007
après 1971
jamais 1967
Voici 1906
eu 1892
pendant 1892
parler 1881
problème 1867
seulement 1837
moins 1832
chaque 1830
ses 1826
aujourd&apos; 1824
peuvent 1819
toujours 1811
trois 1777
étaient 1762
voyez 1756
Elle 1752
partie 1735
soit 1718
moment 1708
personne 1688
grand 1677
; 1653
ait 1642
exemple 1639
quoi 1635
eux 1634
première 1633
toute 1633
cet 1624
manière 1605
jour 1603
avant 1593
êtes 1590
vers 1584
tant 1575
puis 1569
étais 1562
travail 1552
système 1542
eau 1541
é 1535
sûr 1533
commencé 1532
question 1531
Maintenant 1520
♫ 1500
point 1496
ée 1480
pourquoi 1451
Un 1424
Une 1416
sorte 1415
assez 1406
avais 1401
petit 1397
jusqu&apos; 1381
font 1364
sous 1357
grande 1352
depuis 1351
rien 1344
Dans 1343
vu 1343
aller 1334
pourrait 1333
bon 1322
ant 1321
cerveau 1316
technologie 1313
Cela 1310
Quand 1300
Parce 1282
és 1276
... 1273
prendre 1273
! 1265
genre 1263
trouver 1258
cas 1254
10 1253
millions 1250
environ 1249
important 1249
% 1246
ez 1244
quelqu&apos; 1241
vos 1227
Ça 1227
utiliser 1222
ons 1217
appelle 1214
A 1209
passe 1205
devons 1202
ceci 1197
comprendre 1197
talks 1175
http 1174
lang 1172
créer 1170
fr 1169
www.ted.com 1169
faut 1168
avaient 1166
Merci 1163
données 1161
nouveau 1158
dé@@ 1155
peux 1153
premier 1148
femmes 1140
passé 1134
crois 1118
tu 1117
sais 1114
montrer 1110
sens 1109
ent 1104
ées 1098
mettre 1096
voici 1096
ensuite 1095
chez 1091
bonne 1089
simplement 1079
pouvoir 1078
aient 1074
année 1073
train 1069
problèmes 1067
laquelle 1064
donner 1052
bas 1051
plutôt 1047
homme 1040
Pour 1036
plupart 1033
dollars 1031
forme 1020
jours 1016
re@@ 1013
nouvelle 1012
car 1009
petite 1008
énergie 1001
travers 1000
ceux 998
ensemble 998
déjà 993
savoir 990
000 981
mois 978
allons 969
science 969
espace 964
serait 963
importe 952
ainsi 949
er 949
trop 946
argent 945
corps 944
vont 939
près 937
pris 935
projet 932
simple 930
agit 926
doit 926
in@@ 926
mieux 926
Comment 925
raison 924
Afrique 923
fin 922
20 920
Tout 919
côté 919
vrai 919
penser 918
ci 915
gros 909
veut 908
lieu 898
compte 897
femme 890
propre 881
expérience 879
dessus 875
contre 873
idées 873
Unis 870
an 868
parle 867
trouve 865
nombre 861
sera 860
endroit 856
enfant 856
autour 853
différentes 852
planète 851
quel 851
certains 845
Pourquoi 844
cours 842
changer 841
culture 838
faites 837
faisons 836
celui 828
mère 826
quatre 826
niveau 825
ville 825
t 824
passer 817
possible 815
allez 814
image 812
seule 811
part 807
air 804
haut 802
design 800
difficile 798
lumière 797
place 795
santé 795
type 787
celle 782
voulez 776
réalité 775
mêmes 772
mis 764
tard 763
trouvé 762
D&apos; 760
nature 757
lorsque 753
cellules 752
mal 752
reste 752
arrive 749
Au 745
Cette 745
souvent 745
marché 742
école 742
essayer 741
probablement 740
jeu 738
maison 737
produit 737
savons 736
groupe 734
sujet 734
esprit 733
partir 730
construire 729
seul 729
donne 728
travailler 728
regardez 727
Ces 725
société 725
vue 724
ais 721
hommes 721
milliards 720
nouvelles 720
livre 718
Eh 717
changement 716
TED 714
tellement 714
également 713
te 710
univers 710
avions 704
petits 704
50 702
devez 698
différents 698
commencer 695
presque 695
apprendre 693
pu 693
voilà 692
donné 691
De 690
Bien 689
époque 689
Voilà 687
cinq 687
humains 687
humain 685
moyen 684
cent 683
Bon 681
photo 681
vient 680
montre 679
Elles 675
cause 674
accord 673
main 671
30 670
&apos; 669
ligne 665
plusieurs 665
regarder 660
Qu&apos; 659
guerre 658
long 658
pouvait 658
Oui 657
complètement 657
intérieur 655
heures 654
environnement 653
Des 652
réponse 651
art 650
ré@@ 644
signifie 644
demandé 642
100 641
famille 641
Ceci 640
3 639
animaux 638
propos 637
début 636
tête 636
entendu 635
aider 634
rendre 634
terre 634
Est 633
ordinateur 631
dernière 630
processus 630
fais 624
quelle 622
Inde 620
commence 620
vidéo 620
aide 618
2 616
intéressant 616
recherche 616
questions 615
histoires 614
l 612
Non 610
aurait 610
voiture 610
disent 609
nourriture 607
minutes 605
Terre 602
appris 601
modèle 600
musique 599
yeux 595
développement 594
partout 594
appelé 593
lequel 592
aime 591
Dieu 590
face 584
voyons 584
pensé 583
OK 582
dis 581
film 581
Que 576
images 576
père 576
public 575
voulais 575
Comme 574
s 574
voit 574
information 573
mesure 569
aucun 568
cancer 568
prix 567
certaines 565
meilleur 564
abord 563
exactement 563
base 562
grands 562
voulons 562
état 562
informations 561
dernières 560
réellement 559
capacité 558
communauté 558
jouer 558
vivre 557
devenir 555
Ainsi 554
Mon 552
New 552
existe 552
dernier 548
marche 548
écrit 546
décidé 544
aucune 542
rapidement 542
coup 541
incroyable 541
découvert 540
grandes 540
amis 539
centre 539
futur 539
mort 539
grâce 538
loin 538
ante 532
nom 532
politique 530
États 530
ressemble 526
dois 524
effet 523
es 523
sait 523
choix 522
créé 522
semble 519
endroits 518
regarde 517
siècle 517
petites 513
15 512
fille 512
arriver 510
longtemps 509
demande 508
ni 507
six 507
entier 506
oui 504
obtenir 503
milliers 502
peur 502
pensez 500
taille 499
gauche 497
évolution 497
eur 496
suite 496
é@@ 496
5 495
Internet 494
force 494
mots 494
attention 493
population 492
venir 490
économie 490
S@@ 488
4 487
ants 486
devient 486
mer 486
différence 485
veulent 485
jeunes 484
1 483
compris 480
importante 479
énorme 479
aimerais 477
meilleure 477
mot 477
humaine 476
arrivé 475
d 475
permet 475
devrait 473
selon 473
parfois 472
milieu 471
devant 470
gouvernement 470
capable 469
utilise 469
plein 468
produits 467
équipe 467
échelle 466
Chine 465
sortes 464
fut 463
surface 463
éducation 463
sécurité 462
i 460
York 459
différent 459
the 458
Ou 457
machine 457
technologies 456
termes 456
parlé 455
particulier 454
vite 453
systèmes 452
voudrais 451
afin 450
facile 449
Oh 448
droite 448
scientifiques 448
âge 448
chacun 447
mouvement 447
puisse 447
Puis 446
salle 446
Par 445
porte 445
Amérique 444
but 443
étudiants 442
jeune 438
combien 437
parents 436
amour 435
in 434
chance 433
villes 432
ement 431
imaginer 431
maladie 431
Pas 430
mondiale 428
programme 428
demander 427
vies 427
M@@ 426
heure 426
physique 424
as 423
contrôle 423
doivent 423
finalement 423
dû 422
o 422
conférence 421
photos 420
seconde 419
heureux 418
technology 418
nuit 417
certain 416
points 416
rapport 416
situation 416
bout 414
utilisé 414
eurs 413
prend 413
ADN 411
devenu 411
fonctionne 410
espèce 409
pensons 409
solution 409
40 406
allé 406
droit 406
e 406
nouveaux 406
changé 405
sortir 405
deuxième 404
étions 403
autant 402
moitié 402
présent 402
P@@ 401
livres 401
filles 400
pourrions 400
carte 399
lire 399
terme 398
pièce 397
propres 397
.html 396
construit 396
site 395
compassion 394
produire 393
bâtiment 392
raisons 391
semaines 391
avenir 390
certaine 389
entreprise 389
espèces 389
différente 388
océan 388
Etats 387
derrière 387
semaine 387
virus 387
théorie 386
vision 386
gars 385
structure 385
60 384
comportement 384
B@@ 383
fond 383
mètres 383
ordinateurs 383
partager 383
Tu 382
réel 382
objets 381
outils 381
Ensuite 380
ation 380
change 380
global 380
soient 380
pouvais 379
en@@ 378
centaines 377
objet 377
pourraient 377
uns 377
réseau 376
tes 376
travaille 376
age 375
ailleurs 375
arrière 375
espère 375
pourriez 375
raconter 375
croissance 374
cher 373
is 373
scientifique 373
viennent 373
A@@ 372
plan 372
disait 370
essayé 369
pensent 369
laisser 368
écrire 368
valeur 367
jeux 365
soleil 365
troisième 365
économique 365
vitesse 364
C@@ 363
trucs 363
faisant 362
utilisant 362
matière 361
résoudre 361
super 360
domaine 359
impression 359
pétrole 359
relation 359
T@@ 358
règles 358
résultat 357
résultats 357
faisait 356
voix 356
étude 356
formes 355
maladies 355
projets 355
devrions 354
expliquer 354
scène 354
sol 354
12 352
b@@ 352
&#93; 351
&#91; 350
nombreux 350
quantité 350
entreprises 349
nombreuses 349
premiers 349
aire 348
truc 346
parmi 345
ère 345
acheter 344
ar@@ 343
journée 343
mains 343
montré 343
rendu 343
taux 343
i@@ 342
développer 341
réfléchir 340
source 339
zone 339
allait 338
con@@ 338
sept 338
80 337
ressources 337
vois 337
Ici 336
types 336
6 335
aura 335
demi 335
tendance 335
étant 335
ales 333
s@@ 333
travaillé 333
voulait 333
langage 332
bonnes 331
période 331
Europe 330
faite 330
tas 329
venu 329
assis 328
patients 328
G@@ 327
bonheur 327
qualité 327
crée 326
voie 326
etc 325
modèles 325
Après 324
able 323
bons 323
mauvais 323
ale 322
lorsqu&apos; 322
seront 322
R@@ 321
antes 320
bras 320
animal 319
groupes 319
tel 319
voyage 319
D@@ 318
ag@@ 318
celles 318
classe 318
matin 318
25 317
fils 317
pourtant 317
succès 317
téléphone 317
voitures 316
visage 315
chemin 314
extrêmement 314
fini 314
prise 314
réalisé 314
tour 314
rend 313
savent 313
Avec 312
ables 311
social 311
Peut 310
approche 310
expériences 310
général 310
génération 310
million 310
atteindre 309
business 309
confiance 309
unique 309
p@@ 308
parties 308
traitement 308
découvrir 307
poser 307
pouvaient 307
d@@ 306
pré@@ 306
suivre 306
L@@ 305
chercher 305
À 305
E@@ 304
patient 304
série 304
accès 303
action 302
bureau 302
disant 302
issues 302
met 301
pauvres 301
r@@ 301
zones 301
manger 300
n@@ 300
Qui 299
architecture 299
climatique 299
impact 299
meilleurs 299
robot 299
utilisent 299
vérité 299
Google 298
cœur 298
euse 298
importance 298
vivent 298
200 297
H@@ 297
ie 297
k@@ 297
éléments 297
études 297
Ma 296
absolument 296
al@@ 296
fil 296
mauvaise 296
of 296
7 295
construction 295
industrie 295
recherches 295
CA 294
couleur 294
anglais 293
crise 293
8 291
F@@ 291
avion 291
conscience 291
an@@ 290
conception 290
glace 290
moyenne 290
peine 290
Sud 289
ité 289
particulièrement 289
prochaine 289
représente 289
risque 289
gènes 287
morceau 287
ter 287
90 286
N@@ 286
ch@@ 286
complexe 286
espoir 286
extraordinaire 286
lesquelles 286
rapide 286
revenir 286
rouge 286
table 286
dedans 285
papier 285
ton 285
delà 284
noir 284
effectivement 283
instant 282
prenez 282
rôle 282
vieux 282
té 281
perdu 280
production 280
totalement 280
marcher 279
utilisons 279
écran 279
arrêter 278
entendre 278
im@@ 278
activité 277
sur@@ 277
C 276
a@@ 276
appelée 276
lors 276
o@@ 276
ami 275
direction 275
dites 275
ateur 274
fort 274
pensais 274
pensée 274
soi 274
web 274
étape 274
11 273
capables 273
exemples 273
récemment 273
réussi 273
to 273
innovation 272
village 272
merveilleux 271
K@@ 270
entrer 270
étudier 270
Ca 269
beau 269
changements 269
c@@ 268
deviennent 268
g@@ 268
huit 268
l@@ 268
possibilité 268
rue 268
dur 267
humanité 267
sentiment 267
version 267
500 266
Ne 266
continuer 266
littéralement 266
appareil 265
dehors 265
directement 265
era 265
incroyablement 265
région 265
suivante 265
vent 265
Certains 264
Même 264
auto 264
écoles 264
Aujourd&apos; 263
al 263
défi 263
développé 263
plantes 263
telle 263
Notre 262
belle 262
c 262
impossible 262
laboratoire 262
Regardez 261
code 261
langue 261
18 260
longue 260
message 260
rester 260
t@@ 260
70 259
extérieur 259
matériaux 259
peau 259
sociétés 259
traiter 259
ine 258
liste 258
vraie 258
V@@ 257
ab@@ 257
puissance 257
re 257
aires 256
concept 256
large 256
mur 256
surtout 256
Nord 255
durant 255
vivant 255
êtres 255
Chris 254
croire 254
enfin 254
façons 254
intérêt 254
médicaments 254
par@@ 254
service 254
création 253
iste 253
sein 253
travaillent 253
Chaque 252
avère 252
commencent 252
doute 252
it 252
pire 252
politiques 252
simples 252
us 252
carbone 251
e@@ 251
haute 250
robots 250
chiffres 249
disons 249
moyens 249
kilomètres 248
position 248
ac@@ 247
conditions 247
connu 247
premières 247
v@@ 247
merci 246
rencontré 246
reçu 246
tôt 246
uniquement 246
Imaginez 245
Plus 245
devait 245
page 245
sociaux 245
arbres 244
auparavant 244
permettre 244
savais 244
terrain 244
électricité 244
solaire 243
am@@ 242
arts 242
université 242
Beaucoup 241
envoyer 241
li@@ 241
pourrais 241
sauver 241
tr@@ 241
affaires 240
commun 240
masse 240
retour 240
révolution 240
apprentissage 239
cellule 239
certainement 239
fonction 239
intéressante 239
secondes 239
vivons 239
biologie 238
loi 238
médias 238
ations 237
beauté 237
communication 237
coût 237
laissez 237
écouter 237
ad@@ 236
concevoir 236
organisation 236
Pendant 235
améliorer 235
individus 235
portable 235
pratique 235
or 234
réaliser 234
répondre 234
Tous 233
essentiellement 233
internet 233
paix 233
route 233
étoiles 233
coeur 232
continue 232
dès 232
démocratie 232
fabriquer 232
h@@ 232
mode 232
transformer 232
viens 232
inter@@ 231
nord 231
sociale 231
amener 230
connaissance 230
sou@@ 230
is@@ 229
essayons 228
euses 228
importantes 228
pauvreté 228
présente 228
courant 227
gagner 227
toi 227
finir 226
né 226
soir 226
prennent 225
morts 224
médecine 224
relations 224
répondu 224
violence 224
ciel 223
contexte 223
erait 223
films 223
liberté 223
test 223
ques 222
sud 222
aurais 221
bébé 221
discours 221
km 221
pied 221
présentation 221
tirer 221
Là 220
allais 220
and 220
feu 220
gaz 220
partage 220
créativité 219
isme 219
libre 219
océans 219
Car 218
faits 218
imaginez 218
moderne 218
parti 218
revenu 218
réseaux 218
Quel 217
di@@ 217
dimensions 217
faible 217
fallait 217
machines 217
naturel 217
sang 217
suivant 217
el 216
poissons 216
solutions 216
Laissez 215
chanson 215
souris 215
chef 214
mourir 214
organismes 214
professeur 214
regardé 214
dix 213
permis 213
clair 212
dessous 212
em@@ 212
ta 212
ayant 211
communautés 211
lancer 211
or@@ 211
potentiel 211
utilisation 211
èrent 211
f@@ 210
it@@ 210
neuf 210
ordre 210
outil 210
religion 210
rez 210
trouvent 210
décisions 209
faux 209
hôpital 209
manque 209
ouvert 209
proche 209
évidemment 209
O@@ 208
N&apos; 207
Très 207
actuellement 207
court 207
entertainment 207
génial 207
opportunité 207
vécu 207
2@@ 206
David 206
Mars 206
contenu 206
magnifique 206
température 206
tomber 206
verrez 206
y@@ 206
J@@ 205
S&apos; 205
arrivent 205
mo@@ 205
plastique 205
soins 205
VIH 204
conduit 204
essaye 204
minute 204
pousser 204
services 204
étrange 204
droits 203
informatique 203
lesquels 203
m@@ 203
ou@@ 203
pièces 203
poisson 203
tenir 203
voler 203
article 202
co@@ 202
devraient 202
facilement 202
génétique 202
milliard 202
origine 202
réponses 202
appelons 201
essaie 201
moteur 201
numérique 201
nécessaire 201
pieds 201
réduire 201
sérieux 201
vit 201
adore 200
bactéries 200
cartes 200
compagnie 200
cuisine 200
désormais 200
ions 200
on@@ 200
sentir 200
tourner 200
er@@ 199
formation 199
inventé 199
n 199
valeurs 199
graphique 198
intelligence 198
médecin 198
personnel 198
3@@ 197
Sur 197
envers 197
final 197
logique 197
os 197
plaisir 197
raconte 197
t&apos; 197
u 197
Où 196
besoins 196
concerne 196
mondial 196
16 195
Quelle 195
particules 195
ti@@ 195
atteint 194
choisir 194
découverte 194
erreurs 194
ette 194
intéresse 194
nucléaire 194
éviter 194
300 193
Lorsque 193
aiment 193
car@@ 193
décision 193
forces 193
lien 193
ue 193
vert 193
Combien 192
John 192
complexité 192
habitude 192
naissance 192
oiseaux 192
poids 192
pose 192
vidéos 192
américain 191
observer 191
progrès 191
campagne 190
entièrement 190
gouvernements 190
limites 190
moments 190
parlons 190
payer 190
unes 190
ateurs 189
attendre 189
clairement 189
efficace 189
ite 189
noire 189
passent 189
prenons 189
protéger 189
puissent 189
allés 188
appeler 188
as@@ 188
bébés 188
faisaient 188
parlent 188
voulaient 188
eront 187
m 187
passion 187
per@@ 187
prison 187
compréhension 186
membres 186
pouvions 186
seraient 186
tiers 186
véritable 186
électrique 186
artiste 185
auraient 185
bateau 185
blanc 185
couleurs 185
donnent 185
explique 185
ique 185
mathématiques 185
molécules 185
numéro 185
tableau 185
trou 185
24 184
américains 184
complexes 184
effets 184
grandi 184
hors 184
pain 184
permettent 184
ri@@ 184
ts 184
armée 183
cou@@ 183
immédiatement 183
invention 183
lancé 183
objectif 183
principe 183
présenter 183
sommet 183
14 182
adultes 182
consommation 182
durable 182
mise 182
mission 182
oxygène 182
rêve 182
bord 181
lit 181
passait 181
perdre 181
prêt 181
sorti 181
technique 181
tâche 181
Afghanistan 180
chimiques 180
commençons 180
forte 180
télévision 180
Ch@@ 179
Toutes 179
affaire 179
appel 179
atmosphère 179
av@@ 179
coin 179
dis@@ 179
distance 179
familles 179
garder 179
montrent 179
ages 178
arbre 178
chambre 178
contact 178
différences 178
ités 178
pression 178
riche 178
vendre 178
bleu 177
concentrer 177
devais 177
ise 177
iser 177
vi@@ 177
voulu 177
Ok 176
derniers 176
lignes 176
neurones 176
phénomène 176
police 176
quant 176
agir 175
at@@ 175
bois 175
com@@ 175
course 175
importants 175
institutions 175
joue 175
responsabilité 175
u@@ 175
élément 175
aviez 174
h 174
regardant 174
riches 174
sciences 174
collègues 173
disaient 173
imagination 173
laisse 173
mar@@ 173
monter 173
puissant 173
sauf 173
statistiques 173
tions 173
I@@ 172
Richard 172
artistes 172
cerveaux 172
départ 172
erreur 172
naturelle 172
z@@ 172
armes 171
bizarre 171
connaissons 171
devriez 171
entière 171
Londres 170
Personne 170
devenue 170
définition 170
expression 170
iez 170
istes 170
publique 170
étudiant 170
W@@ 169
bi@@ 169
connaissez 169
créatures 169
célèbre 169
explorer 169
fonctionner 169
laissé 169
mesurer 169
notion 169
obtenez 169
profondément 169
sujets 169
techniques 169
tuer 169
venait 169
apporter 168
bâtiments 168
détails 168
ens 168
lu 168
posé 168
revenus 168
seuls 168
somme 168
tons 168
télé 168
verre 168
élèves 168
évolué 168
avis 167
côte 167
fantastique 167
majorité 167
marchés 167
suivi 167
utile 167
Américains 166
calcul 166
clé 166
diversité 166
douleur 166
humaines 166
ler 166
lois 166
opération 166
possibilités 166
vol 166
énormes 166
ér@@ 166
Cet 165
alimentaire 165
bouger 165
conçu 165
pensait 165
profond 165
regardons 165
toucher 165
cultures 164
génome 164
mé@@ 164
ouvrir 164
prochaines 164
aspect 163
che 163
conflit 163
contrôler 163
dos 163
ements 163
meilleures 163
mettez 163
rappelle 163
amène 162
bou@@ 162
carrière 162
chien 162
conséquences 162
former 162
manières 162
rait 162
rythme 162
sort 162
structures 162
élevé 162
2000 161
9 161
forêt 161
ir@@ 161
marque 161
mères 161
médecins 161
nulle 161
servir 161
souviens 161
13 160
américaine 160
br@@ 160
faisais 160
gagné 160
logiciel 160
planètes 160
pleine 160
po@@ 160
quelles 160
remarqué 160
règle 160
émotions 160
Deux 159
café 159
envie 159
garçons 159
matériel 159
occasion 159
passant 159
preuve 159
programmes 159
tique 159
tu@@ 159
boîte 158
ex@@ 158
lieux 158
17 157
E 157
au@@ 157
choisi 157
cor@@ 157
insectes 157
pages 157
peuple 157
preuves 157
équilibre 157
étiez 157
évident 157
connaître 156
espaces 156
hasard 156
mal@@ 156
niveaux 156
ver@@ 156
émissions 156
4@@ 155
es@@ 155
gène 155
merveilleuse 155
parfait 155
parfaitement 155
second 155
sons 155
travaillons 155
zéro 155
Pensez 154
actuelle 154
chaîne 154
devoir 154
difficiles 154
héros 154
identité 154
mouvements 154
née 154
oh 154
presse 154
rée 154
tests 154
vide 154
œil 154
8@@ 153
Encore 153
In@@ 153
critique 153
croyez 153
grosse 153
pauvre 153
pouviez 153
rencontrer 153
ressemblent 153
ème 153
Al 152
CO2 152
Californie 152
abeilles 152
agriculture 152
auquel 152
avance 152
chinois 152
collaboration 152
déplacer 152
gu@@ 152
mémoire 152
tombe 152
venue 152
caméra 151
déchets 151
lo@@ 151
moindre 151
prêts 151
réaction 151
stade 151
SIDA 150
chacune 150
demandez 150
dirais 150
garçon 150
grippe 150
individu 150
perspective 150
produisent 150
savait 150
suffisamment 150
capacités 149
connaissent 149
couche 149
devenus 149
enseignants 149
exposition 149
maths 149
porter 149
secteur 149
voient 149
400 148
Asie 148
ajouter 148
cadre 148
coûte 148
eaux 148
ille 148
jambes 148
mettent 148
mortalité 148
remarquable 148
ren@@ 148
rés 148
usine 148
Université 147
ancien 147
ap@@ 147
augmenter 147
envoyé 147
justice 147
lettres 147
su@@ 147
Son 146
actions 146
avancer 146
contient 146
els 146
enne 146
mauvaises 146
médicament 146
présence 146
président 146
risques 146
souches 146
tent 146
visite 146
$ 145
Cependant 145
ai@@ 145
amené 145
appelait 145
auteur 145
bruit 145
connais 145
fier 145
semblent 145
survivre 145
ét@@ 145
anti 144
arrivée 144
caractéristiques 144
classique 144
compliqué 144
compétences 144
contraire 144
désir 144
formidable 144
galaxies 144
ingénieurs 144
ins 144
membre 144
mettons 144
protection 144
qu@@ 144
rues 144
appareils 143
champ 143
charge 143
citoyens 143
cour@@ 143
débat 143
ies 143
ingénierie 143
isé 143
maisons 143
malgré 143
man@@ 143
principes 143
trans@@ 143
étudié 143
Moyen 142
Orient 142
biologique 142
connecter 142
conversation 142
danse 142
dizaines 142
ent@@ 142
et@@ 142
revient 142
sites 142
téléphones 142
vis 142
7@@ 141
9@@ 141
cl@@ 141
communiquer 141
cr@@ 141
existence 141
fonctionnent 141
montagne 141
ner 141
puisque 141
régions 141
trouvez 141
vin 141
6@@ 140
Parfois 140
Votre 140
allée 140
apprennent 140
courbe 140
dangereux 140
dinosaures 140
décrit 140
entrée 140
fasse 140
fou 140
jouent 140
morale 140
nation 140
oeil 140
parlait 140
possède 140
précis 140
responsable 140
rées 140
septembre 140
soin 140
Paul 139
augmentation 139
civilisation 139
doigt 139
doigts 139
ers 139
langues 139
mille 139
molécule 139
musée 139
populaire 139
portables 139
protéines 139
ra 139
18@@ 138
allaient 138
at 138
bouche 138
consiste 138
health 138
ma@@ 138
morceaux 138
quartier 138
rencontre 138
titre 138
œuvre 138
B 137
acheté 137
amusant 137
analyse 137
aspects 137
chaud 137
conférences 137
ines 137
micro 137
personnage 137
puissante 137
sombre 137
tissu 137
Nos 136
acte 136
ass@@ 136
changent 136
conduire 136
dynamique 136
ferme 136
intelligents 136
journal 136
magie 136
personnelle 136
pont 136
rappeler 136
sagesse 136
Japon 135
aise 135
assurer 135
augmente 135
boulot 135
chaleur 135
der 135
essentiel 135
fallu 135
flux 135
incroyables 135
perte 135
profonde 135
quels 135
radio 135
tiens 135
trouvons 135
150 134
Dr 134
danger 134
dirait 134
décider 134
emploi 134
fonds 134
offre 134
prochain 134
tés 134
venus 134
X 133
différemment 133
enseignement 133
fournir 133
gérer 133
intelligent 133
meurent 133
prises 133
publié 133
raient 133
ro@@ 133
style 133
suppose 133
vrais 133
états 133
île 133
Celui 132
Quelqu&apos; 132
apprend 132
coté 132
devrais 132
décrire 132
nommé 132
pile 132
principalement 132
sert 132
soldats 132
National 131
Washington 131
aurons 131
bande 131
hier 131
joie 131
méthode 131
ours 131
pi@@ 131
rons 131
tiques 131
venez 131
arrivés 130
bo@@ 130
ci@@ 130
enfance 130
eraient 130
essence 130
lentement 130
liens 130
matériau 130
obtenu 130
om@@ 130
op@@ 130
proches 130
ressentir 130
si@@ 130
similaire 130
Depuis 129
chercheurs 129
colère 129
disponible 129
domaines 129
froid 129
frère 129
ir 129
nourrir 129
retourner 129
régime 129
secret 129
sortie 129
séquence 129
tient 129
viande 129
É@@ 129
.. 128
Ah 128
Avant 128
MIT 128
dents 128
dessin 128
défis 128
employés 128
gar@@ 128
organes 128
propriété 128
tourne 128
ères 128
économiques 128
3D 127
ayons 127
commerce 127
comportements 127
convaincre 127
cycle 127
entes 127
gr@@ 127
influence 127
mener 127
principal 127
pro@@ 127
tester 127
to@@ 127
utilisée 127
vaut 127
è@@ 127
Ar@@ 126
Einstein 126
auront 126
charbon 126
climat 126
davantage 126
el@@ 126
essais 126
fabrication 126
galaxie 126
murs 126
passage 126
pl@@ 126
principale 126
singes 126
T 125
disais 125
dépend 125
enseigner 125
essayez 125
faim 125
lettre 125
organisations 125
pensées 125
référence 125
volonté 125
Angleterre 124
Charles 124
Grande 124
Mes 124
ca 124
cool 124
désert 124
fera 124
fourmis 124
intéressé 124
investissement 124
leçon 124
noirs 124
paysage 124
rentrer 124
sociales 124
tez 124
traverser 124
ul@@ 124
Bill 123
Irak 123
San 123
basé 123
can@@ 123
cardiaque 123
complet 123
connaissances 123
connexion 123
considérer 123
degrés 123
durée 123
ence 123
ettes 123
j@@ 123
occuper 123
queue 123
regard 123
représentent 123
terres 123
tué 123
ues 123
usage 123
équivalent 123
5@@ 122
Homme 122
M. 122
ance 122
ancienne 122
conflits 122
créent 122
disponibles 122
déjeuner 122
fenêtre 122
il@@ 122
précisément 122
survie 122
transformation 122
vêtements 122
x 122
échec 122
électriques 122
45 121
aimons 121
cercle 121
effort 121
exploration 121
fin@@ 121
k 121
limite 121
mariage 121
nes 121
pointe 121
quitté 121
réchauffement 121
signaux 121
Juste 120
anciens 120
directeur 120
ferait 120
perception 120
performance 120
réduit 120
réelle 120
stratégie 120
utilisés 120
écriture 120
épidémie 120
10@@ 119
Ceux 119
aurions 119
capital 119
chaussures 119
demain 119
drôle 119
décennies 119
efforts 119
emplois 119
générations 119
intéressantes 119
man 119
marketing 119
mon@@ 119
nez 119
possibles 119
recevoir 119
sources 119
sé@@ 119
vieille 119
Anderson 118
Rien 118
chimie 118
clients 118
commencez 118
conséquent 118
donnez 118
empêcher 118
frontières 118
issant 118
ment 118
plaît 118
pourra 118
ressembler 118
richesse 118
tor@@ 118
trous 118
Hé 117
bouteille 117
chiffre 117
clinique 117
comprend 117
continué 117
correctement 117
existent 117
locaux 117
maintenir 117
menace 117
ni@@ 117
pêche 117
rendent 117
signal 117
soutenir 117
° 117
35 116
George 116
alement 116
attaque 116
bientôt 116
bus 116
camp 116
experts 116
f 116
garde 116
honte 116
noms 116
nés 116
obtient 116
requins 116
suffit 116
terrible 116
écoute 116
Mexique 115
avantage 115
composants 115
comprennent 115
continent 115
croyons 115
dessiner 115
découvertes 115
erai 115
labo 115
largement 115
légèrement 115
quer 115
regardent 115
semblait 115
st@@ 115
surprise 115
telles 115
terminer 115
électronique 115
12@@ 114
cherche 114
demandent 114
iques 114
joueurs 114
local 114
lycée 114
monte 114
métaphore 114
pluie 114
puissions 114
résolution 114
sexe 114
voulions 114
vélo 114
Mar@@ 113
NASA 113
Z@@ 113
accident 113
efficacité 113
identifier 113
joué 113
malheureusement 113
no@@ 113
opportunités 113
particulière 113
phrase 113
pour@@ 113
retrouver 113
s.html 113
tels 113
travaillant 113
unité 113
étapes 113
étonnant 113
Royaume 112
ant@@ 112
ayez 112
esprits 112
fr@@ 112
générale 112
montagnes 112
national 112
nouvel 112
offrir 112
organisme 112
ouest 112
participer 112
repas 112
sable 112
soie 112
spectacle 112
vivants 112
James 111
adulte 111
auriez 111
décennie 111
emmener 111
extrait 111
ier 111
lever 111
microbes 111
mor@@ 111
portée 111
réussite 111
rêves 111
tonnes 111
touche 111
él@@ 111
Web 110
alimentation 110
alité 110
arrête 110
ats 110
biens 110
chances 110
co 110
concernant 110
dieu 110
distribution 110
gravité 110
guerres 110
jardin 110
leaders 110
note 110
ouvre 110
pierre 110
texte 110
énormément 110
équipement 110
Sa 109
Times 109
aperçu 109
auxquels 109
conseil 109
devaient 109
direct 109
engagement 109
eusement 109
exposé 109
ill@@ 109
mari 109
normal 109
pousse 109
professeurs 109
rouges 109
théâtre 109
tion 109
vaste 109
verte 109
75 108
Con@@ 108
Occident 108
Uni 108
Y 108
beaux 108
chimique 108
comprenons 108
debout 108
extraordinaires 108
foie 108
for 108
inspiration 108
instruments 108
isation 108
ites 108
lumières 108
mentale 108
parfaite 108
passés 108
restaurant 108
sphère 108
utilisateurs 108
victimes 108
vis@@ 108
19 107
600 107
D 107
Public 107
belles 107
bibliothèque 107
budget 107
carré 107
chirurgie 107
constamment 107
cro@@ 107
côtés 107
designers 107
double 107
démonstration 107
erie 107
for@@ 107
forment 107
généralement 107
internationale 107
mets 107
normale 107
objectifs 107
publicité 107
représentation 107
soyez 107
thème 107
99 106
An@@ 106
Certaines 106
Permettez 106
application 106
atif 106
cheveux 106
dure 106
efficaces 106
entrepreneurs 106
ge 106
historique 106
instrument 106
liquide 106
lune 106
magasin 106
nationale 106
photographie 106
politics 106
rem@@ 106
soutien 106
sucre 106
suit 106
transforme 106
vouloir 106
étoile 106
1000 105
Pourtant 105
Quelques 105
architecte 105
aurez 105
champs 105
essai 105
essayant 105
intérêts 105
jaune 105
mélange 105
positif 105
quatrième 105
ressemblait 105
ser@@ 105
signe 105
siège 105
tri@@ 105
tumeur 105
w@@ 105
Enfin 104
Soleil 104
activités 104
actuel 104
ancêtres 104
ane 104
angle 104
arrêté 104
battre 104
compagnies 104
education 104
fl@@ 104
frères 104
journaux 104
malade 104
tort 104
travaux 104
z 104
éri@@ 104
13@@ 103
21 103
agissait 103
autrement 103
concepts 103
considère 103
correspond 103
dollar 103
déterminer 103
fabriqué 103
horrible 103
hydrogène 103
pré 103
sensation 103
tenter 103
utilisez 103
ve 103
étranger 103
Darwin 102
Du 102
Kenya 102
Malheureusement 102
Michael 102
artistique 102
combinaison 102
courte 102
cu@@ 102
do@@ 102
donnée 102
end@@ 102
goût 102
immense 102
moral 102
notes 102
organiser 102
our@@ 102
rassembler 102
ront 102
récompense 102
réflexion 102
réunion 102
serez 102
sélection 102
venant 102
év@@ 102
Harvard 101
appellent 101
axe 101
bases 101
bio@@ 101
boite 101
centres 101
cheval 101
chimpanzés 101
consommateurs 101
croient 101
dirigeants 101
disparu 101
fié 101
infrastructure 101
lait 101
lié 101
ol@@ 101
p 101
parlez 101
sent 101
spectre 101
technologique 101
tif 101
tâches 101
visuel 101
Facebook 100
active 100
coll@@ 100
compétition 100
cortex 100
fonctionnement 100
fonctions 100
fondamentale 100
fondamentalement 100
globale 100
interface 100
issent 100
lé 100
ouverture 100
pensaient 100
quitter 100
r 100
rayons 100
reconnaître 100
rivière 100
sentiments 100
spécial 100
sûrement 100
visages 100
The 99
aff@@ 99
ar 99
atomes 99
ché 99
complète 99
dés 99
ente 99
ents 99
facteurs 99
fer 99
feuille 99
inspiré 99
jeter 99
longueur 99
messages 99
motif 99
music 99
mécanique 99
souvenez 99
tres 99
véhicule 99
Al@@ 98
Los 98
Toute 98
U@@ 98
adapter 98
applications 98
batterie 98
bl@@ 98
ches 98
corruption 98
descendre 98
erons 98
fi@@ 98
future 98
investir 98
mène 98
normalement 98
ouverte 98
pe 98
plat 98
pollution 98
présenté 98
quasiment 98
res 98
super@@ 98
teurs 98
triste 98
venons 98
Allez 97
Big 97
L 97
ach@@ 97
aimer 97
aine 97
alisé 97
am 97
ard 97
ballon 97
conclure 97
couverture 97
coûts 97
crime 97
dr@@ 97
exprimer 97
fascinant 97
j 97
magique 97
modernes 97
moteurs 97
onn@@ 97
parc 97
parlant 97
parole 97
phase 97
physiques 97
prends 97
retrouve 97
soudain 97
teur 97
Bonjour 96
Islam 96
Thomas 96
Trois 96
auprès 96
cependant 96
don 96
esse 96
habitants 96
ingénieur 96
ira 96
lent 96
longues 96
maman 96
rendez 96
sac 96
ss@@ 96
tandis 96
toit 96
total 96
traitements 96
télé@@ 96
ur@@ 96
us@@ 96
utilisées 96
1@@ 95
Dan 95
Pacifique 95
Par@@ 95
Prenez 95
Twitter 95
appliquer 95
conclusion 95
courir 95
destruction 95
du@@ 95
ets 95
invisible 95
lutte 95
médical 95
métal 95
oeuvre 95
oiseau 95
opérations 95
ordinaire 95
responsables 95
taient 95
tente 95
terminé 95
th@@ 95
16@@ 94
Ben 94
aident 94
aidé 94
apporté 94
auto@@ 94
basée 94
be 94
chefs 94
chute 94
comprends 94
condition 94
dessins 94
grandir 94
génie 94
magnifiques 94
micro@@ 94
nations 94
nécessaires 94
passée 94
positive 94
probabilité 94
quantités 94
relativement 94
retraite 94
spécifique 94
suggère 94
supplémentaires 94
véhicules 94
évoluer 94
Iran 93
Re@@ 93
ber@@ 93
bleue 93
cré@@ 93
donnant 93
dés@@ 93
engager 93
explication 93
extraire 93
extrême 93
foi 93
g 93
hauteur 93
implique 93
mesures 93
montrant 93
personnages 93
pingouins 93
pourcentage 93
prouver 93
religions 93
restent 93
schéma 93
situations 93
so@@ 93
souffrance 93
surpris 93
voisins 93
échange 93
éthique 93
2008 92
Jusqu&apos; 92
Robert 92
baisse 92
date 92
dispositif 92
espérons 92
facteur 92
fleurs 92
frais 92
génétiques 92
heureuse 92
isée 92
magazine 92
nombres 92
partenaires 92
profondeur 92
réussir 92
sérieusement 92
tue 92
15@@ 91
Leur 91
Mo@@ 91
Pouvez 91
aliments 91
attraper 91
bataille 91
connecté 91
conséquence 91
créée 91
entends 91
fondamental 91
fossiles 91
interagir 91
pensions 91
placer 91
provient 91
ramener 91
respect 91
rire 91
suivent 91
surprenant 91
tissus 91
tradition 91
têtes 91
vol@@ 91
volume 91
établir 91
Mondiale 90
Peu 90
Sans 90
Steve 90
aborder 90
acteurs 90
ah 90
allant 90
architectes 90
ate 90
centaine 90
déplace 90
erais 90
eu@@ 90
ig@@ 90
issez 90
leçons 90
men@@ 90
polio 90
riez 90
similaires 90
tourné 90
tée 90
étudie 90
En@@ 89
Grand 89
Quoi 89
R 89
africains 89
anniversaire 89
anti@@ 89
centrale 89
chent 89
chirurgien 89
compter 89
créature 89
devions 89
discussion 89
hiver 89
ok 89
poche 89
prédire 89
réparer 89
souvenir 89
transport 89
vote 89
Deuxièmement 88
accepter 88
agent 88
aille 88
aliser 88
amoureux 88
attaquer 88
aveugle 88
bio 88
cal@@ 88
contr@@ 88
docteur 88
ess@@ 88
furent 88
mondes 88
ondes 88
panneau 88
pensant 88
piano 88
poésie 88
procédé 88
psychologie 88
rel@@ 88
remplacer 88
sal@@ 88
solide 88
traditionnelle 88
transmettre 88
véritablement 88
Dé@@ 87
Ouais 87
Pakistan 87
Premièrement 87
attirer 87
baleines 87
commercial 87
créons 87
degré 87
dée 87
hôpitaux 87
imagine 87
interaction 87
liés 87
médicale 87
nerveux 87
oreilles 87
partis 87
profondes 87
souffle 87
souhaite 87
sympa 87
toile 87
touché 87
traité 87
villages 87
échantillons 87
énergétique 87
Angeles 86
Canada 86
Nations 86
PIB 86
agréable 86
articles 86
blog 86
chiens 86
citation 86
connaît 86
cordes 86
dimension 86
débarrasser 86
dépression 86
détecter 86
essayent 86
explosion 86
foule 86
honnête 86
héritage 86
industrielle 86
intervention 86
ire 86
jambe 86
journaliste 86
ministre 86
motivation 86
mètre 86
naturellement 86
panneaux 86
plans 86
quiconque 86
requin 86
récupérer 86
sau@@ 86
sortent 86
tombé 86
venaient 86
vues 86
én@@ 86
2007 85
Finalement 85
Francisco 85
Guerre 85
Voyons 85
alternative 85
altitude 85
appar@@ 85
balle 85
banque 85
civile 85
comprenez 85
corail 85
diriger 85
empathie 85
faudrait 85
forcément 85
gl@@ 85
hypothèse 85
majeure 85
mené 85
midi 85
militaires 85
médicaux 85
oublié 85
pattes 85
profit 85
puissiez 85
quement 85
quent 85
scanner 85
vo@@ 85
voyager 85
émission 85
ép@@ 85
Brésil 84
ay@@ 84
circulation 84
définir 84
ellement 84
fréquence 84
graines 84
intégrer 84
iter 84
motifs 84
mécanisme 84
neige 84
nuage 84
ob@@ 84
personnalité 84
ph@@ 84
pourrons 84
publics 84
puissants 84
remonte 84
reproduire 84
senti 84
thérapie 84
tifs 84
totale 84
visuelle 84
vérifier 84
19@@ 83
22 83
YouTube 83
bour@@ 83
connait 83
couches 83
dépenser 83
entrepreneur 83
excitant 83
forêts 83
gratuitement 83
illes 83
illusion 83
infantile 83
ing@@ 83
invité 83
marin 83
monté 83
méthodes 83
nécessairement 83
open 83
ot@@ 83
pilote 83
propriétés 83
res@@ 83
serons 83
tive 83
transformé 83
étendre 83
événement 83
Chicago 82
acier 82
apprenons 82
atrice 82
avantages 82
bactérie 82
basse 82
blanche 82
champignons 82
composé 82
creativity 82
ds 82
frontière 82
gestion 82
locale 82
média 82
orbite 82
plan@@ 82
pourrez 82
probable 82
propose 82
savions 82
siècles 82
station 82
tées 82
vaccin 82
vaisseaux 82
vendu 82
écou@@ 82
émotion 82
23 81
Aussi 81
Bretagne 81
Union 81
Voyez 81
admettre 81
all@@ 81
ances 81
auxquelles 81
bureaux 81
client 81
créatif 81
donnait 81
examiner 81
hôtel 81
iller 81
jo@@ 81
lu@@ 81
mange 81
marins 81
min@@ 81
ombre 81
onde 81
oreille 81
pratiquement 81
privé 81
prototype 81
rare 81
remettre 81
résolu 81
silence 81
sommeil 81
vente 81
écosystème 81
élève 81
Boston 80
Car@@ 80
amie 80
attend 80
bouge 80
central 80
chant 80
chanter 80
combat 80
comp@@ 80
disparaître 80
détruire 80
eh 80
feuilles 80
gagne 80
innovations 80
inventer 80
leadership 80
littérature 80
nucléaires 80
onne 80
orchestre 80
plante 80
pollen 80
rap@@ 80
représenter 80
reçoit 80
ridicule 80
rions 80
simplicité 80
sourire 80
traite 80
utiles 80
27 79
Allemagne 79
Bush 79
France 79
Noël 79
Ouest 79
Sh@@ 79
ade 79
aimez 79
augmenté 79
aventure 79
biologiques 79
blancs 79
cinéma 79
connectés 79
croit 79
ennes 79
enseigne 79
envoie 79
exercice 79
ff@@ 79
iers 79
isés 79
ière 79
jusque 79
os@@ 79
passons 79
portent 79
poème 79
pé@@ 79
race 79
reçoivent 79
trouvait 79
via 79
vieillissement 79
visible 79
x@@ 79
économies 79
.@@ 78
65 78
Celle 78
Ro@@ 78
Vidéo 78
accomplir 78
apparaître 78
apparemment 78
attaques 78
cents 78
char@@ 78
courage 78
densité 78
dent 78
défense 78
détail 78
economics 78
expert 78
fondation 78
français 78
fête 78
gi@@ 78
honneur 78
huile 78
intelligente 78
intuition 78
issait 78
opinion 78
philosophie 78
quantique 78
sentez 78
sport 78
tendances 78
tiré 78
transition 78
voire 78
événements 78
îles 78
2005 77
250 77
Apple 77
Australie 77
Ré@@ 77
World 77
accessible 77
arme 77
attendez 77
bar@@ 77
carburant 77
cliniques 77
cru 77
designer 77
dé 77
entend 77
entendez 77
erez 77
foyer 77
gamme 77
iPhone 77
ic@@ 77
immeuble 77
impliqué 77
installer 77
isons 77
joueur 77
mobile 77
observe 77
satellite 77
savaient 77
sculpture 77
standard 77
thé 77
équation 77
ê@@ 77
26 76
95 76
I 76
TEDx@@ 76
Unies 76
automatiquement 76
calculs 76
chansons 76
cherché 76
cri@@ 76
développe 76
intitulé 76
intéressants 76
mathématique 76
mettant 76
morte 76
odeur 76
pa@@ 76
parcours 76
permettant 76
populations 76
principales 76
stupide 76
symétrie 76
travailleurs 76
trouverez 76
âme 76
élevés 76
Allons 75
Congrès 75
Moi 75
ah@@ 75
alisme 75
analyser 75
apporte 75
araignée 75
arrivait 75
arrivez 75
biology 75
donnons 75
enlever 75
graphiques 75
isent 75
libérer 75
légumes 75
militaire 75
minuscule 75
mises 75
montée 75
mystère 75
one 75
ordinaires 75
post 75
préparer 75
prévu 75
rentre 75
resté 75
ris@@ 75
réduction 75
résistance 75
serais 75
sinon 75
sub@@ 75
tours 75
vague 75
volant 75
vraies 75
â@@ 75
1990 74
AB 74
Art 74
Or 74
Voila 74
Y@@ 74
accéder 74
actif 74
agents 74
artificielle 74
autorité 74
bu@@ 74
bulle 74
cer@@ 74
chée 74
claire 74
coupe 74
coups 74
dame 74
désolé 74
développent 74
enseignant 74
expansion 74
gouvernance 74
graphie 74
grave 74
how 74
identiques 74
int@@ 74
isse 74
mangent 74
miroir 74
naturels 74
optimiste 74
plage 74
poulet 74
protéine 74
quez 74
quête 74
rayon 74
saison 74
sauter 74
studio 74
sœur 74
tables 74
war 74
économistes 74
église 74
32 73
Bo@@ 73
City 73
Microsoft 73
Oxford 73
Paris 73
ains 73
and@@ 73
attitude 73
bombe 73
brain 73
bref 73
calculer 73
chers 73
clés 73
collective 73
connue 73
convaincu 73
créant 73
créateurs 73
douce 73
ec@@ 73
empreinte 73
encourager 73
entoure 73
espérance 73
expliqué 73
exploitation 73
finit 73
gras 73
isant 73
lunettes 73
mi@@ 73
peinture 73
perd 73
permanence 73
permettez 73
personnellement 73
plate 73
pos@@ 73
pr@@ 73
pyramide 73
remarquer 73
répond 73
se@@ 73
toilettes 73
Au@@ 72
DH 72
Nobel 72
accepté 72
algorithmes 72
amélioration 72
apparaissent 72
apparaît 72
ards 72
caractère 72
casse 72
cible 72
combattre 72
constru@@ 72
environnements 72
formule 72
franchement 72
intention 72
irait 72
ley 72
organisé 72
poste 72
potentiellement 72
racines 72
retirer 72
retourné 72
routes 72
ré 72
réactions 72
sûre 72
trice 72
çons 72
ène 72
élevée 72
étonnante 72
Life 71
Street 71
Tom 71
attendent 71
blogs 71
ca@@ 71
catastrophe 71
commune 71
conseils 71
dons 71
démarrer 71
fer@@ 71
institution 71
interprétation 71
laser 71
muscles 71
né@@ 71
observé 71
obtenons 71
onner 71
paludisme 71
partenaire 71
préféré 71
qu 71
rempli 71
sions 71
tait 71
terrorisme 71
titres 71
tou@@ 71
ultime 71
um@@ 71
ut 71
val@@ 71
variole 71
vieilles 71
éré 71
2009 70
Gu@@ 70
Lune 70
S 70
Vraiment 70
affecte 70
alisation 70
ang@@ 70
assise 70
biais 70
caméras 70
chat 70
conscient 70
croyances 70
do 70
fausse 70
gramme 70
graphe 70
indique 70
inquiète 70
lance 70
lecture 70
marchent 70
naturelles 70
observation 70
per 70
principaux 70
provenant 70
quelconque 70
reconnaissance 70
réserve 70
spectaculaire 70
symbole 70
te@@ 70
tement 70
tire 70
traduire 70
trait 70
travaillait 70
un@@ 70
ures 70
utilisateur 70
vache 70
vienne 70
élections 70
électroniques 70
2004 69
800 69
IRM 69
P 69
Qu@@ 69
Quelque 69
Suède 69
absence 69
accro@@ 69
aimé 69
apparu 69
arabe 69
censé 69
circonstances 69
confrontés 69
content 69
de@@ 69
déplacent 69
eff@@ 69
enregistré 69
fiction 69
gamin 69
goutte 69
ienne 69
iner 69
ingrédients 69
jouets 69
le@@ 69
logiciels 69
lève 69
medicine 69
merveilleuses 69
modifier 69
muscle 69
mérite 69
oublier 69
pareil 69
partageons 69
pen@@ 69
politiciens 69
pourront 69
primaire 69
rai 69
religieux 69
réserves 69
salles 69
sauce 69
sensible 69
sentent 69
seules 69
sh@@ 69
surfaces 69
technologiques 69
tera 69
terrestre 69
transmission 69
ulaire 69
épaule 69
--@@ 68
BF 68
Faites 68
Nouvelle 68
Obama 68
Peter 68
actifs 68
adopter 68
agriculteurs 68
asseoir 68
blé 68
boire 68
bouton 68
causes 68
colonie 68
culturelle 68
curieux 68
câble 68
difficulté 68
discuter 68
emmené 68
entré 68
faisions 68
fous 68
fruits 68
génér@@ 68
générer 68
heureusement 68
interactions 68
iquement 68
laboratoires 68
locales 68
marques 68
mou@@ 68
numériques 68
physiquement 68
pires 68
productivité 68
présents 68
rais 68
rapports 68
scolaire 68
servent 68
seuil 68
sion 68
soci@@ 68
spatial 68
statut 68
ure 68
vouliez 68
État 68
écologique 68
étend 68
Bang 67
G 67
ONU 67
ain 67
apprécier 67
argument 67
assembler 67
baleine 67
ber 67
bre 67
cadeau 67
cas@@ 67
chaise 67
chocolat 67
col@@ 67
considéré 67
construite 67
cour 67
dignité 67
divertissement 67
déclin 67
exception 67
gie 67
impliquer 67
installations 67
intelligentes 67
lendemain 67
media 67
multiples 67
our 67
professionnel 67
pâte 67
quotidien 67
reproduction 67
revue 67
roi 67
réunions 67
secrets 67
ser 67
supérieur 67
symptômes 67
traditionnel 67
trajectoire 67
tribus 67
urbain 67
vivaient 67
ég@@ 67
élever 67
étranges 67
Aucun 66
Bible 66
Pro@@ 66
abondance 66
arrivera 66
arrivons 66
automobile 66
avancée 66
capteurs 66
catégories 66
circuit 66
concentration 66
connexions 66
construisent 66
copie 66
couper 66
descend 66
dirige 66
diverses 66
dîner 66
forts 66
id@@ 66
infini 66
inverse 66
liées 66
messieurs 66
millier 66
musiciens 66
musulmans 66
parlais 66
passez 66
pause 66
plait 66
pourcent 66
pratiques 66
prenant 66
précision 66
publiques 66
pure 66
qualités 66
ram@@ 66
remonter 66
ressource 66
retrouvé 66
talents 66
terait 66
théories 66
traverse 66
vas 66
voies 66
échantillon 66
équipes 66
étendue 66
évidence 66
Am@@ 65
Chinois 65
Coca 65
Gore 65
Martin 65
Monde 65
Nigeria 65
RB 65
Rwanda 65
alisée 65
anc@@ 65
apparence 65
are 65
atta@@ 65
aî@@ 65
barrière 65
cardiaques 65
chinoise 65
choc 65
contribuer 65
dise 65
dégâts 65
ennemi 65
enregistrement 65
entr@@ 65
feront 65
formé 65
hu@@ 65
iens 65
issons 65
kg 65
logie 65
mammifères 65
maïs 65
mer@@ 65
microscope 65
ous 65
payé 65
placé 65
précise 65
ralentir 65
rares 65
respirer 65
ressenti 65
ru@@ 65
réfléchissez 65
secteurs 65
serre 65
soyons 65
tombée 65
ves 65
virtuel 65
voisin 65
vus 65
ya 65
écrivain 65
épargne 65
Co@@ 64
M 64
Per@@ 64
aie 64
aimerions 64
anciennes 64
baisser 64
comparé 64
courbes 64
disposition 64
environment 64
estime 64
fauteuil 64
finance 64
globe 64
gratuit 64
grosses 64
ha 64
imagerie 64
inspirer 64
japonais 64
lement 64
liée 64
manuel 64
mobiles 64
mu@@ 64
obscurité 64
obésité 64
occidentale 64
ole 64
paire 64
pal@@ 64
parent 64
port 64
poursuivre 64
périodes 64
qué 64
ra@@ 64
radicalement 64
rapides 64
retenir 64
sanguins 64
simulation 64
singe 64
stable 64
storytelling 64
su 64
terriblement 64
totalité 64
travaillais 64
urgence 64
ç@@ 64
échoué 64
éclairage 64
1,@@ 63
Dès 63
Ex@@ 63
Su@@ 63
abandonner 63
abri 63
accent 63
accidents 63
adolescents 63
aimait 63
att@@ 63
blague 63
bloc 63
boule 63
britannique 63
carrés 63
chasse 63
concours 63
cont@@ 63
der@@ 63
diable 63
diront 63
développés 63
ennuyeux 63
essaient 63
ey 63
faibles 63
fenêtres 63
fon@@ 63
fusion 63
ger 63
humour 63
imaginé 63
intéresser 63
lou@@ 63
marine 63
moléculaire 63
négatif 63
ologie 63
option 63
paysages 63
photographe 63
por@@ 63
possèdent 63
pou@@ 63
privée 63
précédent 63
pu@@ 63
puce 63
pères 63
quart 63
reconstruire 63
réfléchi 63
rég@@ 63
sensibles 63
soigner 63
sois 63
tapis 63
transporter 63
vulnérabilité 63
éro@@ 63
œufs 63
Di@@ 62
Etat 62
Ghana 62
Moore 62
Rome 62
Stanford 62
animation 62
auteurs 62
aéroport 62
bain 62
coins 62
crucial 62
dic@@ 62
examen 62
existait 62
exister 62
faciles 62
financier 62
financiers 62
food 62
gris 62
infrastructures 62
kilos 62
levé 62
nôtre 62
origami 62
partagent 62
posée 62
potable 62
profiter 62
rarement 62
rendue 62
réaliste 62
saisir 62
tour@@ 62
vaccins 62
vivante 62
éliminer 62
émotionnelle 62
17@@ 61
2006 61
2010 61
55 61
700 61
Chacun 61
Haïti 61
Histoire 61
J 61
Russie 61
ailes 61
asse 61
autonome 61
avéré 61
ban@@ 61
bière 61
boucle 61
bran@@ 61
caractéristique 61
chante 61
chaude 61
conserver 61
continuent 61
contrairement 61
céréales 61
diviser 61
dor@@ 61
détection 61
enregistrer 61
fermé 61
frappe 61
golf 61
géant 61
informatiques 61
interne 61
lac 61
minuscules 61
musicale 61
obstacles 61
options 61
personnelles 61
phrases 61
pic 61
pli@@ 61
pot 61
puisqu&apos; 61
qués 61
récente 61
secondaires 61
souhait 61
spécifiques 61
synthèse 61
tie 61
tur@@ 61
éli@@ 61
érer 61
évènement 61
14@@ 60
2001 60
Africains 60
Avez 60
Corée 60
H 60
Heureusement 60
Quelles 60
ades 60
administration 60
ajouté 60
amp 60
atifs 60
collègue 60
conversations 60
curiosité 60
da 60
dans@@ 60
demandais 60
directions 60
décès 60
entrent 60
esclavage 60
essentielle 60
eté 60
explo@@ 60
fantôme 60
fournit 60
frappé 60
front 60
intense 60
itant 60
jeunesse 60
limité 60
maximum 60
organique 60
paradigme 60
pe@@ 60
percevoir 60
peuples 60
physicien 60
poitrine 60
pres@@ 60
printemps 60
professionnels 60
rappelez 60
remercie 60
rentré 60
restaurants 60
récompenses 60
sage 60
signification 60
stress 60
suffisant 60
tenu 60
tre 60
usines 60
vaisseau 60
verts 60
voyages 60
ément 60
.000 59
20@@ 59
Africa 59
Antarctique 59
Institut 59
Li@@ 59
Manhattan 59
Mesdames 59
acquis 59
ain@@ 59
ais@@ 59
associé 59
assurance 59
bat@@ 59
bombes 59
bulles 59
bénéfices 59
cap@@ 59
catégorie 59
children 59
classes 59
comparaison 59
confort 59
crâne 59
créateur 59
créatifs 59
demie 59
diapo 59
démontrer 59
entrez 59
eriez 59
etc. 59
fil@@ 59
fleur 59
fo@@ 59
fs 59
grav@@ 59
inf@@ 59
joli 59
kilomètre 59
lier 59
match 59
mines 59
mondialisation 59
mondiaux 59
mâle 59
métier 59
nu 59
nuages 59
oeuvres 59
parti@@ 59
piste 59
pon@@ 59
procès 59
propriétaire 59
réunir 59
sain 59
senti@@ 59
signes 59
supplémentaire 59
ter@@ 59
thé@@ 59
tiennent 59
tiez 59
travaillez 59
vivez 59
vole 59
voyait 59
évènements 59
œuvres 59
120 58
1960 58
28 58
El@@ 58
Italie 58
Mal@@ 58
Mor@@ 58
africain 58
ajoute 58
alimentaires 58
allions 58
arrêt 58
be@@ 58
bourse 58
cancers 58
chaos 58
chercheur 58
cho@@ 58
circuits 58
cm 58
comporte 58
considérons 58
di 58
diabète 58
diapositive 58
enlève 58
enquête 58
folle 58
fourmi 58
gagnent 58
glamour 58
grille 58
habitat 58
ia 58
idé@@ 58
imp@@ 58
its 58
matique 58
matières 58
mine 58
mécanismes 58
occupe 58
organe 58
paquet 58
participation 58
parvenir 58
pes 58
plier 58
portant 58
poumons 58
provoque 58
quées 58
raconté 58
rec@@ 58
repose 58
rou@@ 58
résumer 58
rétro@@ 58
sachant 58
sièges 58
sonne 58
soudainement 58
sûrs 58
tableaux 58
thon 58
tra@@ 58
traduction 58
universel 58
volé 58
écouté 58
1950 57
2003 57
Congo 57
Golfe 57
Mark 57
Pays 57
accep@@ 57
acteur 57
adresse 57
ann@@ 57
atives 57
biologistes 57
cher@@ 57
commande 57
comparer 57
conscients 57
continu@@ 57
contre@@ 57
crédit 57
dieux 57
dou@@ 57
décou@@ 57
désastre 57
développée 57
empêche 57
eut 57
fit 57
fortes 57
grandissent 57
green 57
humanitaire 57
instructions 57
introduit 57
isez 57
laissent 57
life 57
lutter 57
nent 57
origines 57
press@@ 57
prisonniers 57
prête 57
pub 57
recette 57
retourne 57
récifs 57
signifiait 57
spatiale 57
substance 57
sélec@@ 57
tournée 57
tragédie 57
transparence 57
traversé 57
typique 57
universités 57
up 57
vacances 57
vagues 57
ver 57
vivait 57
&amp; 56
Bronx 56
Howard 56
KB 56
King 56
Mc@@ 56
ONG 56
appartement 56
attente 56
biodiversité 56
chés 56
clo@@ 56
collection 56
compliquée 56
coopération 56
discipline 56
discussions 56
docteurs 56
effectuer 56
effondrement 56
effrayant 56
ell@@ 56
enceinte 56
extinction 56
fabrique 56
fantastiques 56
fibres 56
figure 56
fou@@ 56
froide 56
hauts 56
industriel 56
initiative 56
international 56
isées 56
léger 56
malades 56
massive 56
maternelle 56
nécessite 56
optique 56
paraître 56
partagé 56
pierres 56
portes 56
porté 56
poussé 56
proposition 56
puissantes 56
quartiers 56
riz 56
réalise 56
superbe 56
syndrome 56
séquences 56
tic@@ 56
tives 56
tombent 56
traditions 56
unités 56
vallée 56
voyant 56
véri@@ 56
énergies 56
évidente 56
.com 55
0,@@ 55
85 55
Banque 55
Center 55
Israël 55
Th@@ 55
USA 55
ablement 55
acc@@ 55
ager 55
ail@@ 55
ailles 55
appels 55
bandes 55
bon@@ 55
branche 55
brillant 55
cacher 55
care 55
concert 55
conduite 55
corde 55
câbles 55
demandant 55
diffusion 55
démocratique 55
dépenses 55
enthousiasme 55
entropie 55
exploiter 55
financière 55
fondé 55
form@@ 55
frapper 55
habitués 55
idéal 55
illé 55
infirmières 55
intéressés 55
journalistes 55
libres 55
meurt 55
médi@@ 55
métro 55
orange 55
perdez 55
port@@ 55
racon@@ 55
rejoindre 55
remarquables 55
remplir 55
salaire 55
secondaire 55
secours 55
sem@@ 55
sembler 55
serv@@ 55
soeur 55
ten@@ 55
tentative 55
troupes 55
télescope 55
utilis@@ 55
vagin 55
variété 55
écart 55
éch@@ 55
écologie 55
économiser 55
33 54
Aucune 54
Benjamin 54
Coran 54
Maman 54
Mon@@ 54
Nature 54
Ouganda 54
Président 54
Science 54
airs 54
antibiotiques 54
astéroïde 54
atte@@ 54
bleus 54
blocs 54
bo 54
bor@@ 54
brillante 54
cesse 54
chang@@ 54
concepteurs 54
conf@@ 54
conçus 54
croyais 54
culturel 54
cy@@ 54
cérébrale 54
dense 54
devienne 54
diagnostic 54
difficultés 54
efficacement 54
excité 54
faveur 54
fu@@ 54
herbe 54
ien 54
impliqués 54
inc@@ 54
inconnu 54
installation 54
iront 54
iss@@ 54
jou@@ 54
ju@@ 54
mi 54
multi 54
oncle 54
pay@@ 54
performances 54
peurs 54
poly@@ 54
positifs 54
positives 54
proposer 54
psychology 54
pèse 54
quons 54
quée 54
radicale 54
remercier 54
ressent 54
robotique 54
roman 54
roue 54
résumé 54
révèle 54
sacs 54
sauvages 54
surmonter 54
talk 54
tension 54
traités 54
um 54
vend 54
viol@@ 54
visiter 54
voila 54
volent 54
écoutez 54
évolue 54
ô@@ 54
1980 53
29 53
Cinq 53
Floride 53
Frank 53
Parmi 53
Saturne 53
Steven 53
Tim 53
Voix 53
Wikipedia 53
ange 53
association 53
attendant 53
autor@@ 53
barrières 53
bel 53
bles 53
bombar@@ 53
brillants 53
calme 53
commerciaux 53
contiennent 53
dre 53
dynamiques 53
emmène 53
encourage 53
gestes 53
go@@ 53
immunitaire 53
implications 53
ing 53
lev@@ 53
lot 53
net 53
nommée 53
ocytocine 53
offert 53
outre 53
pandémie 53
paradis 53
paraît 53
partant 53
poussent 53
privilège 53
programmation 53
proposé 53
prévenir 53
recul 53
reprendre 53
ressentez 53
sacré 53
scénario 53
sec@@ 53
semblable 53
servi 53
spécialement 53
stimul@@ 53
suivantes 53
supérieure 53
symboles 53
terrestres 53
troubles 53
ture 53
universitaire 53
variations 53
ven@@ 53
viendra 53
volontaire 53
âgées 53
écosystèmes 53
étonnamment 53
48 52
Adam 52
Dev@@ 52
Ray 52
Selon 52
Texas 52
X@@ 52
achet@@ 52
actes 52
archives 52
atique 52
autrefois 52
avancées 52
bal@@ 52
barre 52
camion 52
centimètres 52
collision 52
connaissait 52
connus 52
constante 52
constructions 52
couvrir 52
devenues 52
dialogue 52
dions 52
dioxyde 52
décharge 52
découvre 52
dépensé 52
e.html 52
employer 52
enc@@ 52
enti@@ 52
entrain 52
escalier 52
excellent 52
expressions 52
famine 52
fassent 52
faudra 52
fie 52
fur 52
geste 52
har@@ 52
indienne 52
ins@@ 52
intellectuelle 52
ka 52
lie 52
linéaire 52
lis@@ 52
lé@@ 52
marchait 52
mat@@ 52
ner@@ 52
pente 52
personnels 52
plafond 52
plongée 52
pomme 52
pommes 52
provoquer 52
prévention 52
quotidienne 52
rats 52
ressens 52
réagir 52
sauvé 52
serions 52
solaires 52
souffrent 52
souvenirs 52
stabilité 52
subi 52
sup@@ 52
survécu 52
trace 52
trafic 52
tribu 52
tromper 52
vingt 52
-@@ 51
5000 51
Ac@@ 51
Cambridge 51
Cor@@ 51
Hollywood 51
N 51
Ses 51
V 51
affiche 51
bateaux 51
bruits 51
caché 51
consommer 51
cérébral 51
deviez 51
divers 51
durables 51
démar@@ 51
dési@@ 51
entouré 51
essayait 51
examiné 51
extra 51
ferai 51
fermiers 51
fibre 51
fiée 51
football 51
four@@ 51
fumée 51
go 51
génocide 51
hautement 51
ina 51
infection 51
interagissent 51
inv@@ 51
investissements 51
invisibles 51
iné 51
majeur 51
malheureux 51
mâles 51
méthane 51
nid 51
normes 51
nu@@ 51
opposé 51
original 51
ouverts 51
passées 51
produite 51
propos@@ 51
précieux 51
préfère 51
préférés 51
préparé 51
prévoir 51
pur 51
quait 51
relier 51
rendus 51
régler 51
répondent 51
sav@@ 51
serai 51
transports 51
témoin 51
uniques 51
venais 51
women 51
çant 51
éloigner 51
évaluer 51
Ap@@ 50
Bi@@ 50
Bob 50
Brown 50
Ma@@ 50
PDG 50
Pr@@ 50
abandonné 50
aliste 50
allemand 50
ampoule 50
ari@@ 50
avocat 50
banques 50
batteries 50
calcul@@ 50
cam@@ 50
casque 50
chois@@ 50
chons 50
cinquième 50
civilisations 50
construisons 50
continents 50
cricket 50
critiques 50
diminue 50
dispar@@ 50
déroule 50
détecteur 50
ences 50
eng@@ 50
espérer 50
est@@ 50
ev@@ 50
extrêmes 50
fermer 50
fiable 50
fondamentaux 50
gamins 50
ge@@ 50
graves 50
génère 50
hab@@ 50
history 50
hé@@ 50
introduire 50
intéressent 50
invite 50
issement 50
itent 50
ières 50
jouet 50
larmes 50
lucratif 50
magnétique 50
mangé 50
mensonge 50
meubles 50
mée 50
nettoyer 50
neurone 50
normaux 50
obligé 50
passerait 50
plateforme 50
portait 50
positions 50
proportion 50
rav@@ 50
relever 50
rose 50
récit 50
satellites 50
significative 50
supporter 50
séparer 50
tend 50
territoire 50
thons 50
tis 50
travaillaient 50
tro@@ 50
vaches 50
vieil 50
échapper 50
écrite 50
émotionnel 50
étonnantes 50
42 49
Américain 49
Brian 49
Commençons 49
Grâce 49
Jo@@ 49
Lo@@ 49
Lors 49
Prize 49
Valley 49
Vi@@ 49
abilité 49
achète 49
administr@@ 49
adorent 49
africaine 49
amuser 49
assistance 49
atiques 49
attendais 49
bizarres 49
bri@@ 49
brûl@@ 49
capture 49
chromosome 49
combiner 49
communications 49
compromis 49
connues 49
couvert 49
cuisiner 49
cultiver 49
cycles 49
destin 49
dictionnaire 49
diez 49
diminuer 49
diplôme 49
distinguer 49
document 49
dormir 49
démo@@ 49
démontré 49
dépassé 49
engagé 49
enlevé 49
essayais 49
fondamentales 49
fri@@ 49
géniale 49
hy@@ 49
immeubles 49
indi@@ 49
individuelle 49
inquiéter 49
intégration 49
lâ@@ 49
mental 49
miracle 49
moelle 49
mythe 49
nage 49
nerfs 49
noter 49
néanmoins 49
observant 49
ome 49
onné 49
opér@@ 49
participants 49
pleurer 49
pompe 49
posez 49
poussière 49
puits 49
quit@@ 49
rac@@ 49
recev@@ 49
reconnu 49
respiration 49
retard 49
réunis 49
sauvage 49
section 49
sentais 49
short 49
simuler 49
soldat 49
son@@ 49
stratégies 49
subir 49
taper 49
tir@@ 49
tube 49
tures 49
ventre 49
vides 49
volontaires 49
world 49
échecs 49
21ème 48
36 48
72 48
Indiens 48
Johnson 48
Larry 48
Le@@ 48
Prix 48
Quatre 48
Quels 48
Second 48
Stephen 48
To@@ 48
Tony 48
Turquie 48
achètent 48
adoption 48
affronter 48
aimais 48
ak@@ 48
animals 48
annonce 48
appartient 48
approcher 48
attentes 48
balles 48
banlieue 48
bouteilles 48
bouts 48
boîtes 48
bro@@ 48
brut 48
connecte 48
constater 48
continuons 48
cop@@ 48
croyance 48
créez 48
cé@@ 48
diamètre 48
dinosaure 48
disparaissent 48
douzaine 48
drapeau 48
démarré 48
département 48
détruit 48
emmen@@ 48
engin 48
entraîner 48
envisager 48
exponentielle 48
fiant 48
formés 48
gang 48
hautes 48
igne 48
impressionnant 48
internationales 48
intérieure 48
inutile 48
jusqu 48
maire 48
mangeons 48
minimum 48
mour@@ 48
mèmes 48
nager 48
neuro@@ 48
nie 48
occidental 48
opposition 48
pan@@ 48
papiers 48
parcourir 48
pensiez 48
physiciens 48
plastiques 48
profits 48
promesse 48
promouvoir 48
prouvé 48
proviennent 48
précoce 48
record 48
recours 48
regret 48
rom@@ 48
romantique 48
rouler 48
saine 48
sch@@ 48
semblables 48
session 48
sif 48
sol@@ 48
solides 48
talent 48
tenait 48
tsunami 48
urbaine 48
v 48
vapeur 48
Évidemment 48
èle 48
éduquer 48
égale 48
équations 48
3000 47
Com@@ 47
Earth 47
Environ 47
Feynman 47
Hong 47
Kevin 47
Monsieur 47
SW 47
Sou@@ 47
Ti@@ 47
allumer 47
atelier 47
attentivement 47
avocats 47
biologiste 47
bâton 47
camions 47
cel@@ 47
cellulaire 47
cercles 47
chapitre 47
cherchons 47
chère 47
colle 47
collectif 47
commença 47
commerciale 47
communs 47
comptes 47
conducteur 47
connaissais 47
créative 47
créés 47
cultiv@@ 47
dira 47
drogue 47
défendre 47
dépendance 47
désespoir 47
fac 47
familier 47
finissent 47
fins 47
genoux 47
gigantesque 47
grimper 47
his@@ 47
ho@@ 47
horizon 47
horloge 47
hur@@ 47
ient 47
imprimer 47
influencer 47
intégré 47
inventeur 47
jouant 47
laissons 47
lampe 47
leader 47
levez 47
lions 47
mathématiciens 47
monsieur 47
mont@@ 47
mortes 47
ois 47
partenariat 47
peindre 47
perdent 47
pertes 47
plonger 47
prédictions 47
présentes 47
prê@@ 47
quasi 47
rejoint 47
restait 47
roulant 47
répandre 47
sandwich 47
sexuels 47
support 47
tante 47
tenez 47
tier 47
tom@@ 47
tumeurs 47
ule 47
verrons 47
viseur 47
vols 47
voudrait 47
écrans 47
épuis@@ 47
1970 46
Atlantique 46
Har@@ 46
MS 46
Pôle 46
activer 46
aill@@ 46
aises 46
amment 46
apparition 46
apparue 46
appel@@ 46
ard@@ 46
arr@@ 46
atoire 46
attends 46
avancé 46
bat 46
blement 46
bénéfice 46
capturer 46
catastrophes 46
chanceux 46
charges 46
chirurgiens 46
colonne 46
commentaires 46
concurrence 46
consommateur 46
croyait 46
culturelles 46
deviner 46
devoirs 46
diagramme 46
distances 46
djihad 46
documents 46
dose 46
déclaration 46
définit 46
détermine 46
entraînement 46
exig@@ 46
fascinante 46
fassiez 46
feriez 46
fortement 46
ges 46
human@@ 46
indien 46
inspirés 46
installé 46
interpréter 46
laver 46
lecteurs 46
libér@@ 46
lisez 46
logo 46
luxe 46
mas@@ 46
mentionné 46
mettait 46
moustiques 46
na 46
off@@ 46
organis@@ 46
passera 46
poignée 46
pouvoirs 46
professionnelle 46
progressivement 46
rat 46
ressort 46
répon@@ 46
sc@@ 46
som@@ 46
sortis 46
supposé 46
tenant 46
traces 46
tremblement 46
trouvée 46
tru@@ 46
uni@@ 46
voyais 46
we 46
échelles 46
écrivains 46
évolu@@ 46
2002 45
Aux 45
Daniel 45
Delhi 45
Gates 45
Hu@@ 45
JH 45
Me@@ 45
Newton 45
Ou@@ 45
Prenons 45
Smith 45
So@@ 45
Univers 45
Wikipédia 45
accessibles 45
accélérer 45
ace 45
acides 45
agé 45
aile 45
améliore 45
artificiel 45
ati@@ 45
audience 45
autoroute 45
aver@@ 45
b 45
blessures 45
chait 45
chapeau 45
chaînes 45
cherchent 45
commençait 45
commençant 45
composition 45
comédie 45
constituent 45
contribué 45
coton 45
courants 45
crimes 45
cyber@@ 45
côtes 45
danser 45
demandait 45
dingue 45
dirai 45
dirigé 45
donn@@ 45
emp@@ 45
encre 45
energy 45
enf@@ 45
ennemis 45
estimation 45
expédition 45
fient 45
fixe 45
foyers 45
fromage 45
ger@@ 45
géométrie 45
habit@@ 45
humor 45
hydro@@ 45
hypothèses 45
insecte 45
jazz 45
jolie 45
laissant 45
mienne 45
modes 45
moustiquaires 45
norme 45
obstacle 45
opéra 45
orale 45
ot 45
paires 45
pairs 45
panne 45
parallèle 45
parking 45
parlaient 45
perspectives 45
pleins 45
posent 45
prom@@ 45
prédateurs 45
prédiction 45
radical 45
raisonnable 45
rassemblé 45
regardais 45
reine 45
remarquerez 45
rendant 45
rer 45
ressentent 45
revoir 45
réfléchit 45
réfugiés 45
régulièrement 45
réputation 45
sache 45
satisfaire 45
saut 45
sensibilité 45
suggérer 45
séparation 45
tir 45
tournant 45
tragique 45
économiste 45
éducatif 45
établi 45
éteindre 45
étrangère 45
20ème 44
Bar@@ 44
Bref 44
Ford 44
Gandhi 44
Jim 44
Lee 44
Long 44
Saint 44
Super 44
US 44
algorithme 44
assemblage 44
attrape 44
authentique 44
bords 44
centr@@ 44
cité 44
club 44
commentaire 44
comptent 44
concentré 44
constaté 44
contrat 44
den@@ 44
descendu 44
die 44
don@@ 44
déclen@@ 44
dées 44
dét@@ 44
envoient 44
expérimenter 44
filtre 44
finale 44
four 44
gagnant 44
grammes 44
happiness 44
hi@@ 44
incendie 44
juin 44
justement 44
ke 44
licence 44
limitée 44
lin 44
logue 44
magasins 44
mammographie 44
marqué 44
mondiales 44
moralité 44
my@@ 44
navire 44
nom@@ 44
ouvriers 44
pardon 44
phénomènes 44
planter 44
plaque 44
prenait 44
profondeurs 44
psycho@@ 44
rent 44
reviennent 44
reviens 44
récent 44
récolter 44
sexuelle 44
souff@@ 44
spéciale 44
str@@ 44
systématiquement 44
sèche 44
sée 44
termin@@ 44
tionnel 44
tiss@@ 44
toits 44
traduit 44
transmis 44
transparent 44
traversée 44
tubes 44
ultra 44
vendredi 44
vieill@@ 44
visions 44
échanger 44
émergence 44
37 43
Ethiopie 43
Faisons 43
Hey 43
Mer@@ 43
Po@@ 43
Six 43
Soit 43
acide 43
adaptation 43
agissent 43
aines 43
aléatoire 43
analogie 43
araignées 43
augmentent 43
automne 43
blo@@ 43
brûler 43
bén@@ 43
cach@@ 43
cad@@ 43
capteur 43
caractères 43
ch 43
chauff@@ 43
cli@@ 43
cognitive 43
combustibles 43
commandes 43
constitu@@ 43
constitué 43
contribution 43
corbeaux 43
coupé 43
dauphins 43
dessiné 43
dilemme 43
disque 43
duquel 43
démontre 43
déménagé 43
emporter 43
eries 43
esthétique 43
expli@@ 43
extérieure 43
femelle 43
fiers 43
financement 43
fonctionnait 43
fondations 43
fournissent 43
gne 43
génétiquement 43
illustrer 43
incertitude 43
inclut 43
individuel 43
industries 43
interviewer 43
intégr@@ 43
loc@@ 43
manipuler 43
mique 43
mutuellement 43
métaux 43
oc@@ 43
onique 43
pass@@ 43
passionné 43
permettra 43
poin@@ 43
ponts 43
populaires 43
posséder 43
précédente 43
préférée 43
raff@@ 43
rechercher 43
restée 43
retrouvent 43
ri 43
roues 43
réels 43
réussissent 43
salon 43
saviez 43
sel 43
souligner 43
sports 43
sse 43
suivez 43
susceptibles 43
sérieuse 43
températures 43
terribles 43
ti 43
tournent 43
traditionnels 43
trai@@ 43
tués 43
virtuelle 43
vôtre 43
ède 43
égalité 43
élev@@ 43
émerger 43
étiquette 43
évoluent 43
47 42
Abraham 42
Caroline 42
Clinton 42
Cro@@ 42
Désolé 42
Malgré 42
Regardons 42
Santé 42
U 42
accompli 42
achetez 42
activism 42
adop@@ 42
agence 42
algues 42
alis@@ 42
anim@@ 42
appro@@ 42
ates 42
attiré 42
bar 42
blanches 42
brièvement 42
cache 42
cachée 42
camps 42
ceinture 42
chasseurs 42
chromosomes 42
colonies 42
concer@@ 42
connectivité 42
constitue 42
conçue 42
coucher 42
célébrer 42
doublé 42
doucement 42
dur@@ 42
durer 42
débuts 42
email 42
explor@@ 42
explore 42
fasciné 42
ferais 42
ff 42
filet 42
fonctionné 42
fraction 42
gal@@ 42
graisse 42
grandeur 42
harmonie 42
imagin@@ 42
imiter 42
impulsion 42
ind@@ 42
institu@@ 42
interview 42
inévitable 42
jeté 42
lar@@ 42
librement 42
maîtrise 42
mince 42
mobilité 42
mé 42
mét@@ 42
météo 42
noyau 42
occidentaux 42
ologue 42
orient@@ 42
oubliez 42
papa 42
participé 42
poches 42
porc 42
pp@@ 42
priorités 42
publier 42
rage 42
religieuses 42
remarque 42
remarquez 42
réalisation 42
réelles 42
rétine 42
révél@@ 42
seriez 42
silencieux 42
spécialiste 42
supermarché 42
séparés 42
sœurs 42
textes 42
tisme 42
tra 42
tran@@ 42
tranquille 42
vastes 42
visualisation 42
ète 42
écris 42
étrangers 42
00@@ 41
38 41
Ad@@ 41
Alzheimer 41
Anglais 41
De@@ 41
Dites 41
Homo 41
Jack 41
Jamais 41
Shakespeare 41
St@@ 41
TED@@ 41
Talibans 41
Z 41
adolescence 41
adopté 41
affirme 41
applique 41
apprenez 41
apprise 41
approvisionnement 41
arrê@@ 41
ative 41
atomique 41
aveugles 41
briser 41
bétail 41
canopée 41
cherchez 41
chées 41
computers 41
conserv@@ 41
couple 41
célèbres 41
cérébrales 41
deviendra 41
diriez 41
divisé 41
dossier 41
défaut 41
démographique 41
dépasser 41
effectué 41
enseigné 41
enveloppe 41
environnementaux 41
evolution 41
exact 41
examine 41
explosé 41
fig@@ 41
fre@@ 41
garage 41
geant 41
guider 41
généré 41
habitudes 41
historiques 41
ignorer 41
illusions 41
immenses 41
indépendance 41
issante 41
iv@@ 41
juge 41
lam@@ 41
malaria 41
matiques 41
mentionner 41
mènent 41
més 41
métabolisme 41
ne@@ 41
nourrit 41
négociations 41
obtiennent 41
out 41
parcouru 41
parlerai 41
particule 41
planétaire 41
pouce 41
programmer 41
progression 41
prédit 41
présentent 41
psychologues 41
radi@@ 41
radios 41
ramène 41
recyclage 41
repenser 41
reprises 41
sale 41
sonde 41
souffre 41
spécifiquement 41
supprimer 41
surprenante 41
surveillance 41
sé 41
trajet 41
universelle 41
ventes 41
versions 41
victime 41
Écoutez 41
échanges 41
électrons 41
éloigné 41
étages 41
éti@@ 41
ï@@ 41
19ème 40
2020 40
350 40
52 40
98 40
AK 40
Blanche 40
Everest 40
F 40
For@@ 40
Gr@@ 40
Hans 40
Joshua 40
Ju@@ 40
LG 40
Leurs 40
Lorsqu&apos; 40
Monterey 40
Nigéria 40
Norden 40
Shanghai 40
Soyez 40
Wow 40
Wright 40
accélère 40
ali@@ 40
alistes 40
all 40
alternatives 40
analy@@ 40
aptitude 40
associés 40
assure 40
barres 40
berg 40
branches 40
briques 40
bu 40
bête 40
capitalisme 40
changeant 40
chats 40
chemins 40
chevaux 40
compar@@ 40
coraux 40
correspondent 40
costume 40
courante 40
demandons 40
dement 40
directe 40
distribuer 40
domestique 40
douloureux 40
doux 40
dépensent 40
dépensons 40
erions 40
ex 40
fermes 40
fix@@ 40
fond@@ 40
forcer 40
gen@@ 40
grandissant 40
guide 40
gé@@ 40
horribles 40
illage 40
imprimante 40
indice 40
infirmière 40
intensité 40
joindre 40
légère 40
mang@@ 40
manuels 40
ment@@ 40
menti@@ 40
merde 40
miques 40
monnaie 40
nutriments 40
observons 40
opinions 40
organiques 40
paroles 40
permission 40
ps 40
quet 40
raisonnement 40
regardait 40
religieuse 40
robe 40
roche 40
roul@@ 40
récom@@ 40
résume 40
révéler 40
sexuel 40
signature 40
sols 40
sonore 40
soutient 40
sure 40
tech 40
tin 40
toxiques 40
transforment 40
uc@@ 40
variation 40
vice 40
visualiser 40
vivantes 40
vé@@ 40
y.html 40
écologiques 40
élection 40
étage 40
étique 40
û@@ 40
43 39
Arctique 39
CD 39
Cam@@ 39
Conseil 39
Espagne 39
Groenland 39
Henry 39
Her@@ 39
Indus 39
Jones 39
Lincoln 39
Maison 39
Numéro 39
O 39
PM 39
Pl@@ 39
Sal@@ 39
Salut 39
Scott 39
Suisse 39
Titan 39
Vietnam 39
acoustique 39
afficher 39
aluminium 39
amélior@@ 39
annoncé 39
ans@@ 39
appuie 39
ars 39
asser 39
autonomie 39
aviaire 39
bil@@ 39
bénévoles 39
cage 39
cassé 39
cha@@ 39
chaine 39
cin@@ 39
compl@@ 39
conservateurs 39
contente 39
convertir 39
couvre 39
créations 39
dangereuses 39
destination 39
devenez 39
diminué 39
disparition 39
domin@@ 39
donnera 39
donnés 39
drogues 39
déci@@ 39
défini 39
détru@@ 39
employé 39
enseign@@ 39
entourent 39
envis@@ 39
excellente 39
fabriqués 39
file 39
financer 39
fondée 39
fossé 39
hor@@ 39
indépendant 39
infectés 39
internationaux 39
intervenir 39
intimité 39
irons 39
ist@@ 39
let 39
lourd 39
majeures 39
manquer 39
masses 39
menaces 39
mesuré 39
mis@@ 39
morales 39
naissent 39
neurosciences 39
nées 39
observez 39
occupé 39
partagée 39
perdue 39
planification 39
pleinement 39
portrait 39
poèmes 39
poète 39
prendra 39
propriétaires 39
prospérité 39
protégés 39
proximité 39
préfér@@ 39
préservatifs 39
préserver 39
puzzle 39
pê@@ 39
rappelé 39
reflète 39
rends 39
représenté 39
ressembl@@ 39
retour@@ 39
rituels 39
rivières 39
réalis@@ 39
récession 39
régl@@ 39
révélé 39
sanguin 39
schémas 39
significatif 39
sombres 39
souhai@@ 39
souhaitez 39
spécialistes 39
statistique 39
séparé 39
tar@@ 39
tenais 39
tenté 39
teront 39
terrains 39
thèmes 39
toxique 39
traversent 39
tri 39
tus 39
utilisaient 39
vers@@ 39
voyagé 39
vulnérables 39
éloigne 39
éléphant 39
éteint 39
0@@ 38
Aristote 38
Av@@ 38
Cyrus 38
Du@@ 38
Eric 38
Geographic 38
II 38
Irlande 38
Jeff 38
Jésus 38
Kong 38
Lewis 38
Mandela 38
Ni@@ 38
Sch@@ 38
Ser@@ 38
Tanzanie 38
Tr@@ 38
abandonn@@ 38
affichage 38
agricoles 38
aiguille 38
alcool 38
ampleur 38
américaines 38
ana 38
anesthésie 38
anglaise 38
apparait 38
appropriée 38
aque 38
arm@@ 38
ase 38
ay 38
aérienne 38
aï@@ 38
boulever@@ 38
chev@@ 38
classiques 38
clavier 38
cochons 38
colline 38
combustible 38
comics 38
confortable 38
connections 38
considérez 38
contraintes 38
contrôlée 38
conver@@ 38
corrélation 38
coupable 38
croquis 38
cs 38
destiné 38
directeurs 38
dirigeant 38
distinction 38
douzaines 38
due 38
défin@@ 38
dépasse 38
déplacement 38
empê@@ 38
entend@@ 38
entraîne 38
es.html 38
estimer 38
faute 38
fiées 38
fiés 38
fondateur 38
fondre 38
formidables 38
fuite 38
février 38
gosses 38
grandit 38
gre@@ 38
génomes 38
habituellement 38
hectares 38
identi@@ 38
ignor@@ 38
incapable 38
infections 38
initiale 38
interfaces 38
intime 38
investi 38
inviter 38
issaient 38
jet@@ 38
jette 38
jouait 38
juridique 38
libération 38
libéraux 38
lointain 38
longs 38
mail 38
mangez 38
mathématicien 38
mec 38
ond@@ 38
pathogènes 38
patron 38
payés 38
pers@@ 38
photography 38
pleines 38
prenne 38
pri@@ 38
processeur 38
procédure 38
provo@@ 38
précises 38
préparation 38
ramen@@ 38
rendement 38
récits 38
répar@@ 38
répète 38
répéter 38
sexy 38
soirée 38
tation 38
tenons 38
termine 38
terri@@ 38
texture 38
tuent 38
typiquement 38
télécharger 38
urgences 38
visuelles 38
Égypte 38
çait 38
éclair@@ 38
éd@@ 38
élu 38
épargner 38
1998 37
2,5 37
44 37
97 37
Arthur 37
Attendez 37
Autrement 37
Berlin 37
Centre 37
Chili 37
Cola 37
Copenhague 37
Dean 37
Jane 37
Lego 37
Mi@@ 37
Milo 37
Papa 37
Park 37
Pouvons 37
Se 37
Seattle 37
Wall 37
abor@@ 37
abstrait 37
acquérir 37
actuels 37
adi@@ 37
agricole 37
alisés 37
alliez 37
amateurs 37
amusante 37
angles 37
apprécie 37
arriva 37
assist@@ 37
astéroïdes 37
attaché 37
audio 37
audition 37
azote 37
biosphère 37
ble 37
blessure 37
bleues 37
bougent 37
calories 37
capitale 37
chal@@ 37
changez 37
clip 37
compliqués 37
comportent 37
concentre 37
considèrent 37
consom@@ 37
construits 37
continu 37
copier 37
correct 37
couloir 37
cylindre 37
cô@@ 37
dite 37
duré 37
débuté 37
engagés 37
enregistr@@ 37
exc@@ 37
extension 37
fausses 37
femelles 37
fic@@ 37
fixer 37
fragile 37
fœtus 37
genres 37
gentil 37
gentillesse 37
gloire 37
grain 37
grains 37
habitant 37
hiérarchie 37
hom@@ 37
honnêtement 37
iPod 37
identique 37
implication 37
inconnus 37
indices 37
individuelles 37
infinie 37
inférieure 37
inhabituel 37
iraient 37
jugement 37
ko 37
litres 37
logement 37
marée 37
miles 37
mortel 37
mélang@@ 37
mér@@ 37
ouais 37
ouv@@ 37
ouvrez 37
pai@@ 37
parl@@ 37
particuliers 37
pas@@ 37
poils 37
posi@@ 37
quaient 37
racine 37
radio@@ 37
ramasser 37
rang 37
ray@@ 37
rendait 37
riers 37
récif 37
réduite 37
résister 37
sa@@ 37
sec 37
sexuelles 37
situe 37
sortez 37
squelette 37
sub 37
substances 37
sulfure 37
surveiller 37
symétries 37
synthétique 37
taire 37
tasse 37
tempor@@ 37
terroristes 37
tionn@@ 37
tradu@@ 37
traits 37
trouvaient 37
van 37
veill@@ 37
venues 37
vertes 37
voy@@ 37
âgés 37
èrement 37
élite 37
émet 37
0 36
2050 36
96 36
Ab@@ 36
Alex 36
Amy 36
Andrew 36
BG 36
GPS 36
Institute 36
Mike 36
Musée 36
Mé@@ 36
Nelson 36
Puisque 36
SMS 36
Seconde 36
Silicon 36
abeille 36
abil@@ 36
absolu 36
appelés 36
arra@@ 36
arrêtent 36
assiette 36
aurai 36
biomasse 36
bits 36
brin 36
bénéfique 36
certitude 36
cess@@ 36
chaises 36
chauffeur 36
chi@@ 36
chimiste 36
cibles 36
citer 36
comm@@ 36
communiquent 36
conclusions 36
contenir 36
conviction 36
coûteux 36
cycl@@ 36
descend@@ 36
dessine 36
development 36
devinez 36
devint 36
diminu@@ 36
discu@@ 36
dispositifs 36
division 36
doctorat 36
domicile 36
dopamine 36
déclaré 36
déf@@ 36
démarche 36
dévas@@ 36
emment 36
emplacement 36
enter 36
espérant 36
eue 36
eur@@ 36
exposés 36
extraits 36
familial 36
fine 36
flot@@ 36
guer 36
hum@@ 36
hélium 36
ide 36
idiot 36
ili@@ 36
illent 36
illustr@@ 36
inconnue 36
indiens 36
indiquent 36
inférieur 36
institut 36
inter 36
interdit 36
intestin 36
ive 36
joint 36
jouez 36
language 36
li 36
lumineux 36
majeurs 36
march@@ 36
marqueurs 36
milli@@ 36
modifié 36
mouche 36
musicien 36
mutation 36
méchant 36
nant 36
négoci@@ 36
observations 36
ore 36
ouvrières 36
paie 36
parachute 36
partent 36
peint 36
peintures 36
perd@@ 36
permanente 36
plani@@ 36
planning 36
plats 36
polaire 36
poumon 36
pouss@@ 36
poverty 36
prati@@ 36
prisonnier 36
producteurs 36
prof@@ 36
projet@@ 36
prostate 36
prototypes 36
radiation 36
refusé 36
relie 36
remis 36
remise 36
remède 36
rencontrent 36
rencontrés 36
rep@@ 36
repousser 36
respecter 36
revenons 36
rituel 36
rédu@@ 36
rép@@ 36
révolutionnaire 36
sacrée 36
scolaires 36
signer 36
spéci@@ 36
ta@@ 36
tend@@ 36
tendre 36
terons 36
tolérance 36
traditionnelles 36
trie 36
trou@@ 36
télescopes 36
ulaires 36
ve@@ 36
viendrait 36
voyaient 36
ètes 36
ération 36
étr@@ 36
étudient 36
évaluation 36
130 35
Bas 35
Bell 35
Br@@ 35
Bu@@ 35
Femme 35
Island 35
Jay 35
Me 35
Or@@ 35
Pal@@ 35
Partout 35
Plutôt 35
SETI 35
Sauf 35
Si@@ 35
Sylvia 35
Tant 35
Time 35
Virginie 35
Vos 35
William 35
absolue 35
adolescent 35
agences 35
aimaient 35
ak 35
appuyer 35
aspir@@ 35
attendait 35
attendons 35
attire 35
autorités 35
avril 35
baie 35
bidonville 35
boue 35
by 35
change@@ 35
changeons 35
cherchant 35
chimiothérapie 35
citoyen 35
collecter 35
collège 35
compare 35
concevons 35
condu@@ 35
consac@@ 35
consciemment 35
consciente 35
construites 35
contents 35
contrôl@@ 35
contrôlé 35
cosmos 35
cou 35
cousins 35
creuser 35
cul@@ 35
dangereuse 35
diplomatie 35
décembre 35
dégu@@ 35
dépense 35
embar@@ 35
embr@@ 35
end 35
err@@ 35
explications 35
expliquent 35
expose 35
exprime 35
extr@@ 35
extrémité 35
fac@@ 35
ferons 35
format 35
guérir 35
géants 35
gê@@ 35
hanche 35
haï@@ 35
hommage 35
idité 35
inclure 35
indiquer 35
individuels 35
inquiet 35
instantanément 35
intègre 35
intéress@@ 35
invent@@ 35
inventions 35
investisseurs 35
itaires 35
janvier 35
jaunes 35
lancement 35
lav@@ 35
lique 35
magicien 35
math 35
ments 35
milieux 35
moléculaires 35
moustique 35
multipli@@ 35
musulman 35
médicales 35
nait 35
naître 35
notamment 35
nouveauté 35
nécessité 35
occasions 35
octobre 35
ori@@ 35
ors 35
passions 35
permettait 35
pes@@ 35
pho@@ 35
physics 35
pique 35
pollu@@ 35
pons 35
poubelle 35
prim@@ 35
prisons 35
prochains 35
prothèse 35
prédateur 35
puces 35
pur@@ 35
quitte 35
rab@@ 35
rapproche 35
ras@@ 35
rassemble 35
reconnaitre 35
refaire 35
ressenti@@ 35
retours 35
royaume 35
récolte 35
réveill@@ 35
révélation 35
satisfaction 35
sculptures 35
sien 35
sifs 35
sortant 35
soutenu 35
stations 35
stockage 35
stupides 35
surement 35
taxe 35
thermique 35
tienne 35
ties 35
tionné 35
tirée 35
ton@@ 35
torture 35
touchent 35
transport@@ 35
tront 35
trouvés 35
tuberculose 35
ut@@ 35
vendent 35
vendus 35
violents 35
voile 35
vén@@ 35
your 35
écar@@ 35
échouer 35
écras@@ 35
éo@@ 35
équipements 35
éradiquer 35
34 34
46 34
56 34
76 34
Bur@@ 34
Cal@@ 34
Chacune 34
Craig 34
Disons 34
Docteur 34
Durant 34
Fondation 34
Gen@@ 34
Gene 34
Islamique 34
Lab 34
Lu@@ 34
Mac@@ 34
Messieurs 34
No@@ 34
PC 34
Passons 34
Sarah 34
Sir 34
TEDGlobal 34
accro 34
adapté 34
affectent 34
ajoutez 34
alerte 34
allum@@ 34
amas 34
amor@@ 34
appartements 34
appell@@ 34
appelées 34
apportent 34
approches 34
associée 34
atterrir 34
attrapé 34
aube 34
bas@@ 34
battu 34
boutique 34
canaux 34
carton 34
chair 34
choisis 34
cite 34
cognitives 34
collabor@@ 34
commencement 34
commencer@@ 34
communautaire 34
comparable 34
comporter 34
considérable 34
contribue 34
courtes 34
cube 34
devenons 34
din@@ 34
disparaît 34
donateurs 34
durs 34
décide 34
dér@@ 34
dérange 34
désespérément 34
empire 34
entrés 34
environs 34
essay@@ 34
essentiels 34
esti@@ 34
exacte 34
faisable 34
familiers 34
feux 34
guérison 34
génomique 34
géo@@ 34
hallucinations 34
hausse 34
hein 34
herbes 34
hélicoptère 34
hémisphère 34
hér@@ 34
illa 34
import@@ 34
inten@@ 34
interactif 34
intéressée 34
ises 34
itons 34
iz@@ 34
juger 34
la@@ 34
larges 34
lecteur 34
levée 34
liques 34
mani@@ 34
manifeste 34
manipul@@ 34
matrice 34
miroirs 34
motiv@@ 34
multi@@ 34
mutations 34
mémor@@ 34
méritent 34
nutri@@ 34
occup@@ 34
oceans 34
paramètres 34
paysans 34
pertinent 34
photographié 34
prenaient 34
privés 34
probabilités 34
progresser 34
promotion 34
provoqué 34
précip@@ 34
psychologique 34
psychologue 34
racontent 34
recommencer 34
recru@@ 34
recycl@@ 34
reçois 34
ron@@ 34
récentes 34
réfléchissons 34
réformes 34
rés@@ 34
salaires 34
sentons 34
sin@@ 34
spirale 34
thèse 34
train@@ 34
trains 34
traitons 34
transformée 34
transférer 34
ulé 34
valait 34
with 34
Être 34
écri@@ 34
étendu 34
éventail 34
--- 33
1994 33
1999 33
2011 33
20e 33
31 33
50@@ 33
Charlie 33
DVD 33
Donnez 33
Faire 33
Jill 33
Johnny 33
Joseph 33
Jupiter 33
Loi 33
Mère 33
Projet 33
Q@@ 33
Revenons 33
Rick 33
Savez 33
Se@@ 33
Seulement 33
Van 33
West 33
accor@@ 33
accéléré 33
actualité 33
ad 33
affecter 33
aiss@@ 33
ajou@@ 33
amitié 33
amélioré 33
ancêtre 33
annon@@ 33
annoncer 33
apport@@ 33
arriverait 33
ascenseur 33
astronomie 33
ath@@ 33
atome 33
balance 33
bidonvilles 33
billet 33
billets 33
bouse 33
buts 33
bénéficier 33
béton 33
canal 33
cass@@ 33
chameau 33
clic 33
climatiques 33
coincé 33
colonnes 33
commerci@@ 33
composés 33
confronté 33
couteau 33
coûtent 33
curieuse 33
dessinée 33
devenait 33
diarrhée 33
diraient 33
dirent 33
dispose 33
dité 33
drôles 33
dy@@ 33
dém@@ 33
dépit 33
détermination 33
déterminé 33
ect@@ 33
empil@@ 33
entendent 33
entiers 33
esp@@ 33
essor 33
eter 33
examens 33
expertise 33
fan 33
fardeau 33
fermier 33
fication 33
filmer 33
fions 33
fréquences 33
fusil 33
gri@@ 33
grise 33
gâteau 33
gère 33
humilité 33
hypo@@ 33
ici@@ 33
iles 33
illée 33
inattendues 33
injection 33
inspir@@ 33
intermédiaire 33
interprète 33
intitule 33
introduction 33
jet 33
jus 33
lic@@ 33
logiquement 33
longévité 33
ls 33
lée 33
magazines 33
manifestement 33
mante 33
marchandises 33
marches 33
marge 33
maître 33
montant 33
musées 33
naiss@@ 33
nourrissent 33
nuits 33
nul 33
négocier 33
observ@@ 33
oul@@ 33
participent 33
passionnant 33
perdons 33
philosophique 33
plancton 33
plaques 33
plateau 33
policiers 33
poudre 33
projection 33
prothèses 33
préfèrent 33
préférées 33
pêcheurs 33
quants 33
quoique 33
raté 33
recettes 33
regardaient 33
relève 33
revanche 33
riv@@ 33
régimes 33
régulation 33
résolus 33
saharienne 33
saute 33
sauvetage 33
ski 33
soigneusement 33
soupe 33
space 33
spéciaux 33
statique 33
tactile 33
tal@@ 33
temple 33
tionnelle 33
traitent 33
travaill@@ 33
trom@@ 33
trompe 33
tronc 33
trouvais 33
tuyau 33
utilisait 33
valent 33
vents 33
vir@@ 33
visibles 33
voeu 33
voté 33
vœu 33
çà 33
ètre 33
économ@@ 33
édition 33
égoïste 33
électrodes 33
érant 33
établ@@ 33
2,@@ 32
3,@@ 32
57 32
Bangladesh 32
Bel@@ 32
Bonne 32
Essayez 32
Européenne 32
Force 32
He@@ 32
K 32
Ko@@ 32
Laden 32
Montana 32
Neandertal 32
Pi@@ 32
Ri@@ 32
Sommes 32
Watson 32
Yémen 32
accompag@@ 32
accou@@ 32
actuelles 32
ajuster 32
aliens 32
alier 32
aliment@@ 32
alise 32
alités 32
allume 32
anatomie 32
appelez 32
applau@@ 32
appr@@ 32
apprises 32
aptitudes 32
argile 32
arguments 32
atrices 32
ax@@ 32
baseball 32
battent 32
biotechnologie 32
bond 32
boug@@ 32
brute 32
campus 32
can 32
cancéreuses 32
case 32
centimètre 32
centrales 32
champignon 32
chan@@ 32
charité 32
chemise 32
choisissent 32
climate 32
cliquer 32
combler 32
communes 32
concentrés 32
connaitre 32
conservation 32
conten@@ 32
continuellement 32
contradiction 32
contraste 32
contrôlent 32
cosmique 32
crayon 32
creus@@ 32
cri 32
culturels 32
dale 32
dev@@ 32
dimanche 32
donnerait 32
douleurs 32
dress@@ 32
dro@@ 32
débar@@ 32
décident 32
découvrons 32
déli@@ 32
détect@@ 32
embrasser 32
enlev@@ 32
ensembles 32
esses 32
excités 32
exploser 32
exécu@@ 32
fabuleux 32
faç@@ 32
flèche 32
fonctionn@@ 32
forcé 32
gique 32
gonfl@@ 32
hall 32
high 32
hormones 32
horreur 32
hyper 32
illés 32
impacts 32
instants 32
interviews 32
intrinsèquement 32
invités 32
issue 32
itaire 32
jetons 32
lat@@ 32
levier 32
lobe 32
log@@ 32
mai 32
marchant 32
millénaires 32
missions 32
modi@@ 32
montent 32
mouches 32
mystères 32
méd@@ 32
naviguer 32
neutre 32
new 32
noires 32
onnées 32
optimisme 32
oue 32
ouer 32
ov@@ 32
paradoxe 32
parcour@@ 32
parie 32
parlions 32
patiente 32
perturb@@ 32
philanthropie 32
pin@@ 32
polaires 32
portraits 32
posons 32
poster 32
privées 32
problématique 32
prof 32
propager 32
protégées 32
prélever 32
prévisible 32
prévisions 32
prêter 32
queur 32
rapprocher 32
recher@@ 32
reconstruction 32
refus@@ 32
restaurer 32
rie 32
rond 32
ry 32
réagissent 32
récepteur 32
réun@@ 32
sculp@@ 32
semblaient 32
seringue 32
sexes 32
signé 32
situ@@ 32
sondage 32
soulève 32
standards 32
stes 32
stupéfiant 32
stylo 32
suc@@ 32
suivons 32
surprenantes 32
surveill@@ 32
sépar@@ 32
tempête 32
terez 32
ther@@ 32
thérapies 32
till@@ 32
tionne 32
tirent 32
tomb@@ 32
tombés 32
uler 32
uniforme 32
vend@@ 32
verbe 32
vierge 32
violent 32
voudriez 32
vérités 32
Êtes 32
ènes 32
écrits 32
écrivent 32
éditeur 32
éléphants 32
émerge 32
érons 32
éte@@ 32
évalu@@ 32
évoque 32
100@@ 31
3ème 31
59 31
Alpha 31
Atlanta 31
Be@@ 31
Brooklyn 31
Cambodge 31
Elizabeth 31
Entre 31
Fille 31
Kosovo 31
LED 31
Mac 31
Ministère 31
Mu@@ 31
Natasha 31
Nor@@ 31
Okay 31
Philip 31
Premier 31
Probablement 31
Rappelez 31
Révolution 31
Tasmanie 31
Tokyo 31
WK 31
abordable 31
absorb@@ 31
aigu@@ 31
aisse 31
ampoules 31
antenne 31
apprécié 31
aqu@@ 31
arabes 31
arro@@ 31
astuce 31
atteignent 31
attend@@ 31
atterri 31
attrap@@ 31
autisme 31
autorisé 31
aw@@ 31
ayer 31
basés 31
bonus 31
bénéfici@@ 31
cascade 31
censés 31
chargé 31
chass@@ 31
cien 31
cieux 31
cochon 31
cognitif 31
collecte 31
comportementale 31
composent 31
composée 31
comprend@@ 31
connectée 31
consacrer 31
conseiller 31
consomme 31
construisant 31
construisez 31
copies 31
courses 31
critères 31
croyaient 31
denses 31
denti@@ 31
destinée 31
discuté 31
disposons 31
distribu@@ 31
documentaire 31
dominante 31
doubl@@ 31
déclar@@ 31
découvrez 31
employ@@ 31
empois@@ 31
empreintes 31
emprunter 31
entre@@ 31
envoyez 31
esc@@ 31
essayaient 31
ethniques 31
fabri@@ 31
fabriquent 31
financé 31
fourni 31
fragments 31
futurs 31
galerie 31
geons 31
glaciers 31
gour@@ 31
gratuits 31
gâ@@ 31
géographique 31
haine 31
hon@@ 31
humidité 31
illégal 31
inattendu 31
indépendamment 31
infiniment 31
ing.html 31
initial 31
intellectuel 31
intentions 31
inévitablement 31
ks 31
lan@@ 31
lentilles 31
localement 31
malin 31
manifestation 31
maquette 31
mentir 31
merveille 31
merveilles 31
met@@ 31
miel 31
mien 31
modern@@ 31
mortelle 31
musical 31
mycélium 31
nano@@ 31
navigation 31
nécess@@ 31
négatifs 31
négative 31
négatives 31
obten@@ 31
off 31
onnes 31
orientation 31
originale 31
parfaits 31
pat@@ 31
peace 31
poli@@ 31
primates 31
profonds 31
promis 31
ramené 31
rationnel 31
rayonnement 31
recommand@@ 31
recou@@ 31
regarder@@ 31
remédier 31
rencontr@@ 31
représentations 31
respect@@ 31
ressemblerait 31
ressentons 31
ressortir 31
rest@@ 31
retar@@ 31
retiré 31
rurales 31
réalisent 31
sachiez 31
sais@@ 31
saut@@ 31
scènes 31
serviette 31
sie 31
sixième 31
soumis 31
sp@@ 31
stocker 31
suprême 31
survivent 31
techno@@ 31
time 31
tis@@ 31
tivement 31
toxines 31
transfert 31
triangle 31
tunnel 31
vel@@ 31
vertical 31
visualizations 31
way 31
âmes 31
ève 31
étiques 31
.... 30
.org 30
1,5 30
11@@ 30
Berkeley 30
Cham@@ 30
Croyez 30
Danny 30
Département 30
Ensemble 30
Fer@@ 30
Im@@ 30
Joe 30
Julia 30
Ken 30
Levez 30
Man@@ 30
Mont@@ 30
Ne@@ 30
Pu@@ 30
Singapour 30
St 30
Star 30
Sécurité 30
TV 30
Teszler 30
Val@@ 30
abus 30
achat 30
aci@@ 30
adap@@ 30
admir@@ 30
ador@@ 30
af@@ 30
affirmer 30
africaines 30
aléatoires 30
ambition 30
ands 30
anna 30
annu@@ 30
anéanti@@ 30
appren@@ 30
approprié 30
appréci@@ 30
arrivais 30
assisté 30
ativement 30
authenticité 30
ave 30
ba 30
basant 30
basses 30
bul@@ 30
candidats 30
cascades 30
chasser 30
circuler 30
class@@ 30
collec@@ 30
color@@ 30
combin@@ 30
commençaient 30
community 30
concentr@@ 30
confi@@ 30
connectome 30
considération 30
consistait 30
contemporain 30
crises 30
croyant 30
cruciale 30
créatives 30
créées 30
cuisin@@ 30
dance 30
dauphin 30
david 30
diffuser 30
dique 30
dirigent 30
dispos@@ 30
doubler 30
doués 30
délicieux 30
déplaçant 30
dériv@@ 30
détecteurs 30
détermin@@ 30
emails 30
entendons 30
entendrez 30
enthousiastes 30
entrepris 30
entrons 30
exag@@ 30
existaient 30
existé 30
exploré 30
expérimentation 30
faculté 30
filtres 30
fonctionnel 30
foot 30
formée 30
frapp@@ 30
gare 30
gent 30
glacier 30
gé 30
hey 30
identifié 30
ignez 30
ile 30
indépendants 30
influ@@ 30
innover 30
inst@@ 30
intégrité 30
isolés 30
ième 30
lai@@ 30
lant 30
lave 30
libellules 30
libère 30
lisent 30
listes 30
live 30
logiques 30
mainten@@ 30
maintenance 30
mix@@ 30
moraux 30
moutons 30
mâchoire 30
méditation 30
nus 30
oir 30
ong@@ 30
onnent 30
osseuse 30
ouvertes 30
parasite 30
pati@@ 30
paye 30
penseurs 30
philosophe 30
philosophy 30
photo@@ 30
pitié 30
pla@@ 30
pleur@@ 30
pliage 30
pompiers 30
possé@@ 30
possédons 30
pots 30
poussant 30
premièrement 30
produ@@ 30
productive 30
précieuse 30
préserv@@ 30
publi@@ 30
publication 30
pôle 30
recevez 30
regardiez 30
renverser 30
ress@@ 30
reven@@ 30
robo@@ 30
réalisée 30
réforme 30
répand 30
réponds 30
réserv@@ 30
résonance 30
sauv@@ 30
semi 30
sophistiqué 30
sor@@ 30
sors 30
souci@@ 30
spirituel 30
spirituelle 30
star 30
stock@@ 30
suicide 30
susceptible 30
syn@@ 30
tab@@ 30
tations 30
terminée 30
tionnée 30
tiste 30
transformant 30
traî@@ 30
troisièmement 30
urbaines 30
valor@@ 30
verra 30
victoire 30
vint 30
violon 30
visité 30
viv@@ 30
voter 30
vulnérable 30
vécue 30
what 30
écl@@ 30
égal 30
égaux 30
éloignés 30
épaules 30
épi@@ 30
étrangères 30
1500 29
160 29
21e 29
450 29
49 29
53 29
Actuellement 29
BJ 29
Bosnie 29
Carl 29
Conn@@ 29
Disney 29
Défense 29
Enfant 29
Ge@@ 29
Général 29
Hall 29
Indien 29
Indonésie 29
International 29
Jonathan 29
Kelly 29
Kennedy 29
Musulmans 29
Narrateur 29
Océan 29
Phoenix 29
Prince 29
Rosling 29
Rus@@ 29
Soviétique 29
Square 29
Ver@@ 29
Voie 29
Wolfram 29
abat@@ 29
activement 29
actives 29
activistes 29
agisse 29
aid@@ 29
aimant 29
ajoutons 29
album 29
alisées 29
amen@@ 29
amenés 29
ampli@@ 29
andais 29
anxiété 29
appliqué 29
aquarium 29
arrivant 29
arriver@@ 29
ash@@ 29
associer 29
astronomes 29
athée 29
attendu 29
attraction 29
audacieux 29
autonomes 29
bancaire 29
basique 29
basiques 29
batt@@ 29
battant 29
bilité 29
blessés 29
boites 29
book 29
brevet 29
cabinet 29
canard 29
capit@@ 29
carreaux 29
cesser 29
chaient 29
chanteurs 29
chauffer 29
chorale 29
cit@@ 29
cities 29
cog@@ 29
collaborative 29
coller 29
comparez 29
compliquées 29
compétence 29
compéti@@ 29
concernés 29
conducteurs 29
connaissaient 29
conservateur 29
const@@ 29
consul@@ 29
conte 29
courageux 29
couverts 29
crevettes 29
crier 29
cul 29
demandaient 29
dessin@@ 29
destruc@@ 29
dig@@ 29
débattre 29
décor@@ 29
découpe 29
décro@@ 29
déteste 29
ed@@ 29
effondrer 29
emprun@@ 29
enceintes 29
engineering 29
entendue 29
entraîné 29
envergure 29
esclaves 29
extraordinairement 29
falaise 29
fassions 29
favori 29
fermement 29
fi 29
figur@@ 29
flexible 29
fluide 29
frustration 29
fusée 29
futures 29
féminin 29
gardez 29
gardé 29
gou@@ 29
gouvern@@ 29
gouvernementales 29
gran@@ 29
gratuite 29
greffe 29
grenouilles 29
géante 29
générosité 29
historiquement 29
hop 29
hé 29
iceberg 29
id 29
ign@@ 29
ignons 29
impos@@ 29
improbable 29
improvisation 29
incluant 29
injuste 29
inquiets 29
inspec@@ 29
interventions 29
intuitif 29
intégrée 29
invitation 29
ironie 29
itée 29
itées 29
ker 29
levure 29
lis 29
légal 29
manifestations 29
manqué 29
marines 29
matéri@@ 29
mono@@ 29
motive 29
motiver 29
mouton 29
mème 29
médiatique 29
nat@@ 29
nommer 29
ols 29
ordures 29
ots 29
out@@ 29
panique 29
parait 29
parcs 29
partenariats 29
pend@@ 29
piles 29
planche 29
plongé 29
poignet 29
polluants 29
pop 29
portez 29
poulets 29
prairies 29
pratiquer 29
prendrait 29
preniez 29
producteur 29
profession 29
profil 29
promet@@ 29
présentations 29
psychologiques 29
publiée 29
pé 29
rai@@ 29
ralenti 29
rapproch@@ 29
rebon@@ 29
remplie 29
rencontrez 29
rendons 29
renforcer 29
renvers@@ 29
repérer 29
respire 29
rir 29
rural 29
règne 29
réchauff@@ 29
résilience 29
rêver 29
scope 29
semblant 29
sensations 29
shirt 29
society 29
spéciales 29
stop 29
suggéré 29
suivants 29
symbolique 29
tage 29
tais 29
tam@@ 29
testé 29
th 29
tionner 29
tirez 29
tivité 29
tranches 29
trices 29
tuiles 29
tuées 29
ty@@ 29
tér@@ 29
universitaires 29
user 29
verriez 29
virale 29
virtuels 29
visuels 29
vit@@ 29
véritables 29
watts 29
y&apos; 29
zo@@ 29
zoomer 29
âgée 29
çaient 29
éclairé 29
éclaté 29
éco@@ 29
écrivais 29
électeurs 29
élevées 29
émergent 29
épaisseur 29
ériques 29
évoquer 29
58 28
62 28
73 28
92 28
Albert 28
Alice 28
Autre 28
Ben@@ 28
Bouddha 28
El 28
Essayons 28
Featured 28
Gro@@ 28
Harry 28
Islande 28
Mad@@ 28
Media 28
Ministre 28
Mont 28
Mr 28
Nathan 28
Norman 28
Pittsburgh 28
Première 28
Regarde 28
Ross 28
Rover 28
Ru@@ 28
Sierra 28
Simon 28
Souvent 28
Stewart 28
Vo@@ 28
accepte 28
accueil 28
affir@@ 28
ageant 28
agissons 28
airement 28
ajust@@ 28
allure 28
alphabet 28
ament 28
analysé 28
anci@@ 28
anecdote 28
anger 28
animale 28
antennes 28
app@@ 28
armées 28
assoir 28
assu@@ 28
attr@@ 28
automatique 28
avançons 28
avouer 28
bag@@ 28
bassin 28
bes 28
bibliothèques 28
bie 28
bres 28
brisé 28
britanniques 28
bru@@ 28
budgets 28
bâ@@ 28
bê@@ 28
cachés 28
calculé 28
campagnes 28
capitaine 28
carottes 28
casser 28
chambres 28
chariot 28
chauds 28
chement 28
choléra 28
cliché 28
codes 28
combinaisons 28
command@@ 28
commerciales 28
comprenait 28
condamné 28
contenter 28
contourner 28
contribuent 28
convient 28
conçues 28
coordination 28
correc@@ 28
cuir 28
cécité 28
demander@@ 28
demo 28
den 28
des@@ 28
descendent 28
dette 28
dil@@ 28
disciplines 28
divise 28
doses 28
drait 28
dramatique 28
dy 28
définie 28
définissent 28
délicat 28
démocratiques 28
dépendent 28
dérang@@ 28
désaccord 28
dévou@@ 28
effondre 28
ell 28
encyclopédie 28
enfer 28
enseignent 28
enthousiaste 28
esser 28
este 28
excitante 28
excitation 28
excuse 28
expériment@@ 28
feraient 28
ferions 28
fierté 28
financières 28
foncé 28
fonte 28
fourn@@ 28
from 28
gel 28
graine 28
grimp@@ 28
généreux 28
géré 28
habite 28
habituelle 28
hal@@ 28
heur@@ 28
heureuses 28
if 28
illustration 28
illustre 28
impôts 28
inhi@@ 28
interrupteur 28
invente 28
irez 28
isait 28
isolé 28
ita 28
itures 28
jouons 28
ki@@ 28
lancée 28
lèvent 28
lèvres 28
mariages 28
marrant 28
massives 28
menée 28
migr@@ 28
modeler 28
motivations 28
moto 28
mousson 28
mystérieux 28
natale 28
nor@@ 28
notation 28
obsession 28
obtiend@@ 28
od@@ 28
organise 28
originaire 28
ous@@ 28
passerelle 28
patri@@ 28
pav@@ 28
perpétu@@ 28
pharmaceutique 28
phases 28
plaisante 28
plu@@ 28
postes 28
prit 28
productif 28
programmeurs 28
promener 28
propulsion 28
protocellule 28
protège 28
précieuses 28
préoccuper 28
préservation 28
pul@@ 28
pénétrer 28
rang@@ 28
rappel 28
recueillir 28
recul@@ 28
refl@@ 28
rembour@@ 28
remet 28
remplac@@ 28
rentrent 28
représentés 28
ressemblera 28
restes 28
réfléch@@ 28
réside 28
sauté 28
siez 28
situé 28
soeurs 28
souffrir 28
soul@@ 28
sperme 28
sphères 28
spontanément 28
suiv@@ 28
symétrique 28
techniciens 28
tentent 28
tenue 28
tiquement 28
tuelle 28
tuyaux 28
ultrasons 28
unis 28
vendeur 28
video 28
vingtaine 28
violente 28
vitamine 28
vivais 28
voudraient 28
yant 28
ys 28
âgé 28
écoutant 28
égard 28
électro@@ 28
élimin@@ 28
ém@@ 28
émergé 28
émo@@ 28
épreuve 28
étal@@ 28
étudiante 28
étés 28
180 27
4000 27
5.000 27
51 27
74 27
86 27
87 27
Alaska 27
Arabe 27
Arabie 27
Brad 27
Canyon 27
Caraïbes 27
Char@@ 27
Des@@ 27
Egypte 27
JA 27
Julian 27
Keith 27
Lactée 27
MT 27
Namibie 27
Rob 27
Rouge 27
Récemment 27
Sept 27
Stop 27
Susan 27
Toronto 27
We@@ 27
Wilson 27
ab 27
aboutir 27
absurde 27
ac 27
accords 27
accrocher 27
accélération 27
acquise 27
act@@ 27
activé 27
age@@ 27
align@@ 27
alli@@ 27
allées 27
ani 27
anneaux 27
anticorps 27
apprend@@ 27
arc 27
arrang@@ 27
arrivées 27
arrêtez 27
arrêtés 27
attributs 27
aussitôt 27
az@@ 27
ballons 27
basculer 27
binaire 27
blesser 27
bloquer 27
brancher 27
brins 27
bruyant 27
bé@@ 27
calcule 27
capitaux 27
cartographier 27
chaussure 27
chips 27
choisissez 27
choisissons 27
chrétiens 27
chèque 27
chères 27
cibl@@ 27
circul@@ 27
civique 27
clef 27
cloche 27
colon@@ 27
combiné 27
composant 27
compositeur 27
confus 27
conn@@ 27
connaissions 27
copyright 27
corriger 27
crevette 27
cuisson 27
cuivre 27
cyber 27
dait 27
dangers 27
dessinées 27
deuxièmement 27
diplômés 27
diver@@ 27
divis@@ 27
durabilité 27
débit 27
débris 27
dédié 27
déroul@@ 27
détestent 27
effac@@ 27
effectu@@ 27
encad@@ 27
endre 27
enregistrements 27
enroul@@ 27
ens@@ 27
enter@@ 27
entités 27
environnementales 27
escalade 27
espagnol 27
espoirs 27
essi@@ 27
ester 27
exal@@ 27
fiche 27
fichier 27
fixé 27
foc@@ 27
folles 27
fossile 27
franchir 27
frot@@ 27
fusées 27
fédéral 27
féminine 27
gasp@@ 27
gecko 27
glob@@ 27
gorge 27
gén@@ 27
gér@@ 27
hackers 27
humanity 27
humeur 27
ic 27
icône 27
ider 27
imaginiez 27
impressions 27
imprim@@ 27
impulsions 27
inage 27
incar@@ 27
industriels 27
infos 27
initi@@ 27
injustice 27
inspire 27
instinct 27
insuline 27
intégrés 27
isaient 27
isoler 27
jardins 27
juillet 27
livrer 27
ly 27
léopard 27
mac@@ 27
marier 27
mariée 27
massif 27
mena@@ 27
mentors 27
merveilleusement 27
mette 27
minorité 27
minéraux 27
misère 27
modeste 27
mythes 27
mâ@@ 27
nationaux 27
notions 27
néglig@@ 27
occupés 27
onie 27
ordres 27
orteils 27
oublions 27
parallèles 27
paralysé 27
partageant 27
partez 27
particulières 27
passaient 27
passante 27
perdant 27
perdues 27
pesticides 27
piège 27
plie 27
plom@@ 27
plomb 27
plong@@ 27
pointes 27
politiquement 27
pressions 27
primitive 27
priorité 27
produites 27
projeter 27
prot@@ 27
proté@@ 27
précédemment 27
préfrontal 27
présentée 27
q@@ 27
queurs 27
rapporter 27
rassemblent 27
relativité 27
remon@@ 27
rend@@ 27
renouvelables 27
renvoie 27
responsabilités 27
risqué 27
rock 27
rotation 27
réalisateur 27
réalités 27
régénérer 27
répandu 27
résidents 27
réuni 27
réuss@@ 27
réussit 27
réveille 27
scénarios 27
semblerait 27
semblé 27
sign@@ 27
sive 27
souffrances 27
souviennent 27
spaghetti 27
subit 27
sustainability 27
sépare 27
séquencer 27
séries 27
tabac 27
tan@@ 27
tap@@ 27
taxi 27
techniquement 27
tent@@ 27
terreur 27
that 27
théorique 27
thétique 27
touchée 27
tropicale 27
trouvées 27
uer 27
utilité 27
variable 27
vibration 27
vitre 27
vêtement 27
water 27
y. 27
yo 27
èmes 27
échou@@ 27
éclair 27
écoutent 27
étroitement 27
évidentes 27
évolutionnaire 27
17ème 26
18ème 26
1900 26
1995 26
6000 26
64 26
68 26
71 26
77 26
900 26
Alan 26
Amsterdam 26
Ass@@ 26
Bal@@ 26
Bruce 26
Chez 26
East 26
Ecoutez 26
Em@@ 26
Emily 26
Evidemment 26
Fi@@ 26
Gal@@ 26
Go@@ 26
Jackson 26
Kibera 26
Luther 26
Mur@@ 26
Museum 26
Neil 26
Norvège 26
Pennsylvanie 26
Professeur 26
Rio 26
Ros@@ 26
SS 26
School 26
South 26
Souvenez 26
Ste@@ 26
Va 26
Venez 26
Wil@@ 26
Yves 26
Zipcar 26
aborde 26
accueill@@ 26
adoré 26
affecté 26
affron@@ 26
air@@ 26
alimenter 26
alliés 26
ande 26
angiogenèse 26
anticiper 26
août 26
ara 26
architecturale 26
arg@@ 26
atten@@ 26
attribu@@ 26
auditoire 26
ben 26
bert 26
bijoux 26
boutons 26
brevets 26
bâtir 26
carburants 26
cartographie 26
causé 26
centimes 26
cessé 26
cetera 26
chanté 26
chevau@@ 26
civiles 26
clon@@ 26
coincés 26
comport@@ 26
composante 26
conduits 26
configuration 26
cong@@ 26
connectées 26
consentement 26
contacts 26
contribu@@ 26
convictions 26
coquille 26
coralliens 26
criminels 26
croissante 26
cuis@@ 26
cérémonie 26
descendez 26
descente 26
devra 26
digne 26
diminution 26
diner 26
dirige@@ 26
disparus 26
dommages 26
dynam@@ 26
déclenche 26
dégr@@ 26
dépendants 26
déplacé 26
désirs 26
désordre 26
développons 26
eBay 26
eg@@ 26
embouteillages 26
embê@@ 26
emporte 26
entières 26
entraîn@@ 26
entrées 26
envoyée 26
européenne 26
exceptionnel 26
exclu@@ 26
explose 26
exposer 26
exprim@@ 26
exécuter 26
ey@@ 26
familiale 26
fascinantes 26
fau@@ 26
filmé 26
flash 26
flexibilité 26
flotte 26
flèches 26
formées 26
fum@@ 26
gag@@ 26
gaspillage 26
gentils 26
grossesse 26
géo 26
hamburger 26
he 26
hyper@@ 26
iPad 26
idéale 26
improvis@@ 26
indiennes 26
indépendante 26
infecté 26
influencé 26
inte 26
investi@@ 26
inégalités 26
ion 26
islam@@ 26
issus 26
jouaient 26
lab@@ 26
lente 26
lentille 26
lourds 26
lut@@ 26
ly@@ 26
légers 26
mag@@ 26
maintes 26
maintient 26
marchera 26
marron 26
mesdames 26
mil@@ 26
millimètre 26
modéliser 26
montage 26
moule 26
méduse 26
mées 26
mélodie 26
narration 26
nets 26
noix 26
normales 26
nég@@ 26
obligés 26
offrent 26
oies 26
opère 26
opérer 26
palais 26
parasites 26
pel@@ 26
penche 26
perfec@@ 26
permettrait 26
photographes 26
photographier 26
photographies 26
pilules 26
plonge 26
ports 26
primaires 26
procurer 26
promen@@ 26
protégée 26
préférence 26
prépar@@ 26
présume 26
publicités 26
pénible 26
rassembl@@ 26
reconnaiss@@ 26
rejet@@ 26
remporté 26
rencontres 26
renouvelable 26
respir@@ 26
restez 26
revenue 26
récupéré 26
répondit 26
répétition 26
résol@@ 26
rétro 26
révolutions 26
satisfait 26
sci@@ 26
secou@@ 26
segment 26
sex 26
show 26
simul@@ 26
soign@@ 26
solitaire 26
spectateur 26
ster 26
stimulation 26
sty@@ 26
subventions 26
suffisante 26
surprendre 26
séduisant 26
séduisante 26
terroriste 26
tière 26
tomate 26
tombez 26
trouble 26
trouvera 26
té@@ 26
téléphonique 26
ulation 26
urbains 26
ué 26
valise 26
vif 26
voudrions 26
vélos 26
éclat@@ 26
éclo@@ 26
électron 26
élémentaire 26
élémentaires 26
énergétiques 26
épais 26
étonn@@ 26
étudions 26
140 25
1945 25
1997 25
39 25
89 25
94 25
Armstrong 25
Beach 25
Blue 25
Bou@@ 25
Cho@@ 25
Design 25
Far@@ 25
Fr@@ 25
Ho@@ 25
IBM 25
Iraq 25
Joel 25
Kansas 25
Lama 25
Madame 25
Man 25
Margaret 25
Mme 25
Néanmoins 25
OCDE 25
ON@@ 25
Organisation 25
Parlons 25
Petit 25
Rachel 25
SI 25
Santa 25
Sinon 25
Zélande 25
accompagné 25
accumuler 25
addi@@ 25
admis 25
aidera 25
ail 25
aimerait 25
alarme 25
alentours 25
alimente 25
ambul@@ 25
animé 25
ano 25
aquatique 25
arrêtait 25
assister 25
ater 25
attachement 25
attaqué 25
aud@@ 25
audace 25
audi@@ 25
automobiles 25
balad@@ 25
banjo 25
banlieues 25
bel@@ 25
bioluminescence 25
blessé 25
bonobos 25
caus@@ 25
cer 25
chant@@ 25
charger 25
chouette 25
chronique 25
collaborateurs 25
collaborer 25
collines 25
concepteur 25
conden@@ 25
confronter 25
consacré 25
considérablement 25
constant 25
constitution 25
contenus 25
continuité 25
correcte 25
corrom@@ 25
couru 25
crack 25
crème 25
crête 25
cur@@ 25
célébrité 25
danseurs 25
demandes 25
dess@@ 25
diapos 25
divertiss@@ 25
domestiques 25
débats 25
déclarations 25
décoller 25
démarre 25
dépend@@ 25
dépôt 25
em 25
embau@@ 25
entrant 25
entretien 25
estimé 25
ext@@ 25
fabriquons 25
fast 25
fiables 25
fonctionnelle 25
fondu 25
fruit 25
garantir 25
gau@@ 25
gelé 25
genou 25
gh@@ 25
gue 25
génique 25
générateur 25
honnêteté 25
hôte 25
illons 25
immobilier 25
implan@@ 25
implants 25
impliquent 25
imprimé 25
individuellement 25
inez 25
infectées 25
informer 25
int 25
inée 25
itez 25
juif 25
jungle 25
ki 25
libéré 25
localisation 25
lumin@@ 25
lâcher 25
mai@@ 25
mails 25
mammaire 25
manipulation 25
marchez 25
maîtriser 25
mentalement 25
mentales 25
mers 25
my 25
mélanger 25
métaphores 25
nationales 25
nerf 25
neuroscience 25
nomme 25
nov@@ 25
noy@@ 25
néocortex 25
onnement 25
opposée 25
oublie 25
oxyde 25
partition 25
passionnés 25
pasteur 25
patte 25
permette 25
pharmaceutiques 25
plac@@ 25
planifier 25
plas@@ 25
poison 25
poule 25
prend@@ 25
promesses 25
protocellules 25
publications 25
pun@@ 25
pénétr@@ 25
pér@@ 25
pétro@@ 25
qua 25
quali@@ 25
ques@@ 25
racontons 25
radiations 25
ras 25
rassemblement 25
recherchons 25
redéfinir 25
relié 25
rentable 25
reproduisent 25
retournons 25
reviend@@ 25
russe 25
réinventer 25
répliquer 25
rétablir 25
réveiller 25
sains 25
self 25
sexualité 25
sier 25
slogan 25
sour@@ 25
spectateurs 25
stiques 25
stéréotypes 25
supérieures 25
tapez 25
tendent 25
terai 25
teraient 25
tien 25
tiend@@ 25
tol@@ 25
travailleur 25
tromp@@ 25
tues 25
téléphoniques 25
ules 25
universe 25
usages 25
vain@@ 25
valoir 25
variables 25
visi@@ 25
visibilité 25
vocabulaire 25
why 25
ège 25
éc@@ 25
édu@@ 25
élaborer 25
éman@@ 25
émeutes 25
épouse 25
équivaut 25
éradication 25
éthanol 25
étiquettes 25
étudi@@ 25
évasion 25
) 24
+ 24
100.000 24
1991 24
1996 24
2.0 24
2015 24
66 24
78 24
ARN 24
Africain 24
Bangalore 24
Barry 24
Bl@@ 24
CO 24
Caltech 24
College 24
Contrairement 24
Dallas 24
Danemark 24
Dick 24
Dix 24
Do@@ 24
Fais 24
Gordon 24
Hawaï 24
Hier 24
Ivan 24
Janvier 24
Jefferson 24
Kathryn 24
Ku@@ 24
Linux 24
Louis 24
Mag@@ 24
Ouah 24
Paix 24
Parfait 24
Por@@ 24
Presque 24
RW 24
Remarquez 24
Rose 24
SJ 24
Sahara 24
Sam 24
Sam@@ 24
Seu@@ 24
Soudain 24
Soudan 24
Sous 24
Spoutnik 24
Tibet 24
Tor@@ 24
W 24
Windows 24
Youtube 24
abou@@ 24
acceptable 24
accueillir 24
ach 24
adaptée 24
affec@@ 24
aidés 24
alimenté 24
amateur 24
ang 24
ani@@ 24
animés 24
anneau 24
apo@@ 24
approuvé 24
arche 24
ari 24
arrivaient 24
artificiels 24
artistiques 24
aspirations 24
assises 24
attir@@ 24
auc@@ 24
aus@@ 24
autorisés 24
autoroutes 24
autrui 24
avatar 24
aéro@@ 24
bibli@@ 24
bilan 24
bis@@ 24
bre@@ 24
brouillard 24
cachées 24
causer 24
chatou@@ 24
chaudes 24
cherchait 24
chi 24
chèvre 24
chômage 24
cinquante 24
classement 24
clig@@ 24
collectivement 24
concentrent 24
conclu 24
condam@@ 24
continuera 24
couler 24
cratique 24
croissant 24
croître 24
cru@@ 24
data 24
deviens 24
différenci@@ 24
diplômé 24
discr@@ 24
disques 24
distribué 24
diversi@@ 24
dominant 24
donnaient 24
dra 24
dunes 24
débatt@@ 24
décid@@ 24
déclin@@ 24
définis 24
dégag@@ 24
désh@@ 24
déta@@ 24
dévoile 24
ection 24
effor@@ 24
encontre 24
enn@@ 24
entendues 24
entrain@@ 24
environnemental 24
envoyait 24
envoyés 24
ere 24
estimations 24
européens 24
externe 24
exécution 24
fabricant 24
faisiez 24
favoris 24
favoriser 24
favorite 24
ferez 24
fermés 24
fière 24
formons 24
fur@@ 24
fusionn@@ 24
fê@@ 24
galeries 24
gangs 24
gardiens 24
gn@@ 24
grottes 24
gué 24
habitent 24
ham 24
handicap 24
hind@@ 24
honor@@ 24
hostile 24
hybride 24
hélice 24
ignore 24
imaginaire 24
imaginons 24
immobil@@ 24
impliquée 24
impressionn@@ 24
individu@@ 24
indépendantes 24
inject@@ 24
inquiétude 24
inscrit 24
intuitive 24
inventée 24
irais 24
iriez 24
jumeaux 24
ke@@ 24
lac@@ 24
limit@@ 24
limiter 24
limités 24
lè@@ 24
lésions 24
magiques 24
malnutrition 24
mardi 24
margin@@ 24
masque 24
membrane 24
mini 24
mol@@ 24
montr@@ 24
montrez 24
mur@@ 24
nar@@ 24
nour@@ 24
nourr@@ 24
oblig@@ 24
oeufs 24
om 24
omni@@ 24
onc@@ 24
opérateur 24
organisée 24
organisés 24
orgasme 24
ouragan 24
ouvrent 24
oy@@ 24
pair 24
passionne 24
peintre 24
pilotes 24
pilule 24
piscine 24
pixels 24
places 24
plai@@ 24
plaindre 24
planté 24
poetry 24
polar@@ 24
portés 24
pouvant 24
prenions 24
procure 24
procéder 24
produisant 24
produise 24
projeté 24
propagande 24
propage 24
périphérie 24
querait 24
quette 24
racontée 24
rant 24
rapporte 24
rapporté 24
rassemblés 24
rat@@ 24
refroidir 24
refroidissement 24
rempl@@ 24
remplacement 24
remplis 24
repli@@ 24
reposer 24
ressemblaient 24
restant 24
retire 24
retournée 24
routine 24
russes 24
réalisons 24
réception 24
récol@@ 24
réjou@@ 24
répli@@ 24
rôles 24
sages 24
scientifiquement 24
seins 24
sensé 24
servant 24
serviettes 24
sida 24
sk@@ 24
ski@@ 24
sophistiquées 24
souffert 24
soumettre 24
souple 24
souri@@ 24
stratégique 24
supermarchés 24
supprim@@ 24
supérieurs 24
surplus 24
timide 24
tionnels 24
tionnés 24
tirées 24
trente 24
triques 24
troupeau 24
vendeurs 24
vertu 24
vez 24
vibrer 24
viendront 24
viol 24
viral 24
virtuellement 24
végét@@ 24
ward 24
win 24
yl@@ 24
École 24
écrites 24
égards 24
éloign@@ 24
émerveillement 24
épisode 24
épouser 24
éprouv@@ 24
étale 24
étend@@ 24
étroite 24
î@@ 24
4,@@ 23
54 23
83 23
Age 23
Air 23
Ber@@ 23
C. 23
Cameron 23
Comté 23
Darfour 23
Data 23
Dylan 23
Développement 23
Ed@@ 23
Evan 23
FG 23
Francis 23
Galapagos 23
Gar@@ 23
Graham 23
Himalaya 23
Jersey 23
Juifs 23
Jérusalem 23
Marie 23
Mary 23
Massachusetts 23
Matt 23
McDonald&apos; 23
Mettez 23
Nicholas 23
Nick 23
O&apos; 23
Parkinson 23
Père 23
Reagan 23
Recherche 23
Roi 23
San@@ 23
Somalie 23
Supposons 23
Système 23
Trade 23
abattre 23
abo@@ 23
accroché 23
accél@@ 23
affreux 23
afgh@@ 23
ageons 23
agrandir 23
aides 23
allég@@ 23
ama@@ 23
ambitieux 23
ame 23
amusantes 23
améliorations 23
analyses 23
animations 23
apparaitre 23
apparues 23
appu@@ 23
aps 23
arrêtaient 23
artères 23
assass@@ 23
assimil@@ 23
assur@@ 23
attachés 23
atteintes 23
atteints 23
ature 23
augmentée 23
austr@@ 23
aut@@ 23
aval@@ 23
aven@@ 23
aventures 23
aves 23
basées 23
bla 23
bonnement 23
bosse 23
brillantes 23
brise 23
brûle 23
brûlé 23
bur@@ 23
bâtons 23
cadres 23
calcium 23
caoutchouc 23
capturé 23
catholique 23
chagrin 23
chir 23
chèvres 23
cing@@ 23
commençais 23
commis 23
communique 23
compress@@ 23
compréhensible 23
compté 23
comté 23
concentrons 23
conduisent 23
connectent 23
considérée 23
contrôles 23
convain@@ 23
conventionnelle 23
coque 23
corré@@ 23
couples 23
courent 23
crate 23
crit 23
croch@@ 23
croix 23
cubes 23
culpabilité 23
cœurs 23
dan 23
demanda 23
diffus@@ 23
disiez 23
disponibilité 23
dispu@@ 23
district 23
dormi 23
doué 23
dus 23
défend@@ 23
définitivement 23
dégrad@@ 23
dép@@ 23
déposer 23
déprimé 23
désertification 23
détest@@ 23
développées 23
dévo@@ 23
embarrass@@ 23
ement@@ 23
encl@@ 23
ennuis 23
entité 23
entretenir 23
enver@@ 23
environnementale 23
eons 23
essai@@ 23
essentielles 23
ever 23
excuses 23
excès 23
exercices 23
exige 23
expos@@ 23
expositions 23
exprimé 23
expul@@ 23
expérimenté 23
extraction 23
fabricants 23
falaises 23
familières 23
favor@@ 23
favorise 23
façade 23
ffer 23
flor@@ 23
fournisseurs 23
fus 23
féministe 23
gadgets 23
gagn@@ 23
gardes 23
ges@@ 23
giques 23
glisser 23
globalement 23
grandement 23
grenouille 23
génèrent 23
his 23
ian 23
ignorance 23
illumin@@ 23
immédiat 23
immédiate 23
impliquées 23
impératif 23
inciter 23
inclus 23
ingrédient 23
inqui@@ 23
inspirée 23
instantanée 23
intern@@ 23
internes 23
interviewé 23
intégrante 23
inutiles 23
istance 23
ièmes 23
jetez 23
journalisme 23
joyeux 23
justes 23
lin@@ 23
lithium 23
logues 23
lundi 23
management 23
masculin 23
me@@ 23
mentor 23
menu 23
mesur@@ 23
mesurée 23
modélisation 23
moine 23
montrait 23
montrons 23
musicales 23
mél@@ 23
météor@@ 23
mê@@ 23
nectar 23
nerveuse 23
nette 23
nou@@ 23
nôtres 23
obligation 23
obsédé 23
obé@@ 23
occupation 23
occupent 23
océanique 23
oire 23
ologique 23
ones 23
onnés 23
oph@@ 23
optimis@@ 23
opèrent 23
origin@@ 23
oubli@@ 23
paquets 23
paralysie 23
passagers 23
passionn@@ 23
passionnante 23
passive 23
pencher 23
personnalités 23
placés 23
plateformes 23
pleure 23
pluies 23
portaient 23
portons 23
posant 23
poursuit 23
prie 23
prime 23
procur@@ 23
procédures 23
produisons 23
programmés 23
protégé 23
précédentes 23
préoccupe 23
pâ@@ 23
rapidité 23
rappellent 23
reconnaissent 23
reconnaît 23
reflet 23
remarqu@@ 23
représentant 23
restera 23
restés 23
retir@@ 23
retrouvez 23
retrouvés 23
reviendrai 23
robuste 23
rocher 23
roule 23
réagit 23
récents 23
répartition 23
répond@@ 23
réservoir 23
rêvé 23
sanguine 23
secrète 23
sensorielles 23
sentait 23
serpents 23
sible 23
siff@@ 23
signal@@ 23
sincèrement 23
socialement 23
soirs 23
sonores 23
spectacles 23
spectaculaires 23
spécul@@ 23
squelettique 23
structu@@ 23
sucré 23
sugg@@ 23
sympas 23
sympath@@ 23
tambour 23
tangible 23
tau@@ 23
tentatives 23
testicules 23
third 23
til@@ 23
tin@@ 23
tonn@@ 23
tonne 23
tortues 23
traitée 23
transmettent 23
trembl@@ 23
tricher 23
trouva 23
tré@@ 23
usées 23
vasculaire 23
vasculaires 23
vement 23
vital 23
vitale 23
vr@@ 23
yer 23
you 23
échafaudage 23
écho 23
échouent 23
économiquement 23
écraser 23
écrivait 23
écrivez 23
édi@@ 23
éditeurs 23
élan 23
élites 23
émergentes 23
éolienne 23
équité 23
érées 23
éth@@ 23
étonnants 23
ïque 23
1968 22
1984 22
41 22
60@@ 22
81 22
84 22
91 22
AIMS 22
Absolument 22
Ach@@ 22
Alexander 22
At@@ 22
BL 22
Bri@@ 22
Cassini 22
Celles 22
Col@@ 22
Cuba 22
Derni@@ 22
Direc@@ 22
Fin@@ 22
Fort 22
Foundation 22
Français 22
Hawking 22
Incroyable 22
Jamie 22
Jazeera 22
Joh@@ 22
Ka@@ 22
Kal@@ 22
Khan 22
Kiribati 22
Kyoto 22
Lagos 22
Mel@@ 22
Min@@ 22
Mozart 22
Moïse 22
Nike 22
OMS 22
Pat@@ 22
Pe@@ 22
Plusieurs 22
Pré@@ 22
Qatar 22
RISD 22
Réfléchissez 22
Sibérie 22
Sony 22
Surtout 22
TE@@ 22
Tar@@ 22
Thé@@ 22
Troisièmement 22
Viens 22
Warren 22
Zero 22
a.html 22
about 22
abstraction 22
accompl@@ 22
accroître 22
activ@@ 22
adaptés 22
adh@@ 22
admiration 22
adress@@ 22
afro 22
agenda 22
agran@@ 22
allongé 22
allumé 22
amenée 22
aminés 22
anges 22
anie 22
appartenance 22
arrêtée 22
assembl@@ 22
associ@@ 22
associées 22
asthme 22
athées 22
ationnelle 22
atrazine 22
atri@@ 22
atteinte 22
attentif 22
atterrissage 22
auditorium 22
ball 22
banc 22
battements 22
bier 22
biodiversity 22
blagues 22
bonobo 22
bottes 22
bougez 22
boul@@ 22
brou@@ 22
cabane 22
cadeaux 22
calendrier 22
calottes 22
canapé 22
candidat 22
catalyseur 22
cha 22
chaotique 22
chargée 22
choisit 22
choquant 22
chuté 22
civils 22
commencions 22
complètes 22
connaiss@@ 22
connaisse 22
considé@@ 22
contenant 22
contracter 22
convaincus 22
conven@@ 22
copine 22
cosmo@@ 22
coûterait 22
crainte 22
crochet 22
croît 22
cryp@@ 22
cule 22
culte 22
dan@@ 22
demeure 22
diff@@ 22
digitale 22
dimensionn@@ 22
disease 22
distinctes 22
divor@@ 22
dixième 22
dodo 22
dommage 22
dossiers 22
débor@@ 22
décor 22
découvrent 22
déployer 22
dérouler 22
développ@@ 22
développements 22
dévor@@ 22
dôme 22
eant 22
ecteur 22
emb@@ 22
eme 22
encourag@@ 22
ends 22
enfer@@ 22
engage 22
engrais 22
enthousias@@ 22
entrainer 22
erg@@ 22
ers@@ 22
essions 22
estomac 22
esté 22
euros 22
eus 22
excep@@ 22
exceptions 22
existant 22
existantes 22
fabuleuse 22
fantas@@ 22
faune 22
fertil@@ 22
fiez 22
fis@@ 22
fièvre 22
fleuve 22
flottant 22
formations 22
franch@@ 22
gagnez 22
gardent 22
geait 22
golfe 22
graphies 22
gratte 22
gribou@@ 22
gross@@ 22
gée 22
générique 22
habituel 22
ial 22
iale 22
icônes 22
identification 22
idiots 22
ilité 22
ill 22
imite 22
immer@@ 22
impli@@ 22
impossibles 22
imprimerie 22
indigènes 22
inflation 22
ingéniosité 22
inhabituelle 22
innovateurs 22
inquiétez 22
instable 22
intellectuels 22
interag@@ 22
intrigu@@ 22
intrigue 22
iné@@ 22
inégalité 22
ires 22
italien 22
itations 22
iti@@ 22
jac@@ 22
ky 22
lion 22
lir 22
lon@@ 22
ludique 22
légale 22
létales 22
maintien 22
manqu@@ 22
marées 22
matériels 22
maximale 22
mensonges 22
microbienne 22
mignon 22
ministres 22
mobil@@ 22
modifications 22
modifie 22
more 22
motivés 22
moul@@ 22
ms 22
mythologie 22
méchants 22
médic@@ 22
navig@@ 22
navigateur 22
nitrique 22
no 22
numéros 22
nutrition 22
omniprésent 22
onnant 22
optiques 22
ory 22
osité 22
oublierai 22
panier 22
paraly@@ 22
parfaites 22
patience 22
paul 22
perdus 22
persuader 22
philanthropy 22
philosophes 22
pieuvre 22
pingouin 22
pirates 22
pit@@ 22
plat@@ 22
pleut 22
plis 22
point@@ 22
porcs 22
potentielle 22
prenais 22
prière 22
pro 22
processeurs 22
professionnelles 22
promets 22
prononcé 22
propul@@ 22
présent@@ 22
préservatif 22
prévision 22
prêtes 22
pèlerins 22
quanti@@ 22
qui@@ 22
races 22
ran 22
recensement 22
recueill@@ 22
recycler 22
refait 22
regardions 22
regrets 22
remarquablement 22
remontent 22
repris 22
ressentais 22
retournés 22
retrait 22
retrouvons 22
retrouvée 22
roses 22
roug@@ 22
ruban 22
rupture 22
rurale 22
récepteurs 22
réconfort 22
réfléchissant 22
répertoire 22
rési@@ 22
résul@@ 22
rêv@@ 22
saisons 22
salée 22
score 22
sim@@ 22
sophistiqués 22
souche 22
sses 22
st 22
statue 22
stein 22
stress@@ 22
stupé@@ 22
suff@@ 22
suggèrent 22
suivis 22
supposons 22
surviv@@ 22
symbol@@ 22
séquoia 22
séquoias 22
sévère 22
tible 22
tourisme 22
tourn@@ 22
transistor 22
transmet 22
transplantation 22
transportation 22
tremp@@ 22
triangles 22
trier 22
tropicales 22
témoignage 22
ung 22
ur 22
use 22
vaccination 22
van@@ 22
vari@@ 22
variantes 22
veille 22
verront 22
verticale 22
veu@@ 22
violer 22
visiblement 22
visiteurs 22
voc@@ 22
volumes 22
vraisemblablement 22
week 22
wi@@ 22
Église 22
èr@@ 22
échapp@@ 22
égo@@ 22
élevage 22
énigme 22
érieurs 22
étendues 22
éthiques 22
étrique 22
éveillé 22
évo@@ 22
ï 22
,@@ 21
10.000 21
1800 21
1985 21
79 21
8,@@ 21
93 21
Alexandre 21
Allen 21
Amazon 21
Apollo 21
Argentine 21
Arizona 21
BMW 21
Bienvenue 21
CAPTCHA 21
Can@@ 21
Carnegie 21
Christ 21
DARPA 21
Dame 21
Deuxième 21
Désormais 21
Ed 21
Exactement 21
FDA 21
Flickr 21
Gary 21
Ger@@ 21
Higgs 21
IM 21
Inter@@ 21
Israel 21
J.@@ 21
Jobs 21
Katrina 21
Leone 21
Lui 21
Milieu 21
Mission 21
Nairobi 21
Negroponte 21
Octobre 21
Pardon 21
Pen@@ 21
Rom@@ 21
SRAS 21
Saoudite 21
Sar@@ 21
Syrie 21
TEDMED 21
TS 21
Tu@@ 21
Venter 21
Vir@@ 21
Voulez 21
Walker 21
Williams 21
Zimbabwe 21
académique 21
accomplissement 21
accumulation 21
achetons 21
achè@@ 21
adapte 21
adhérer 21
adorable 21
adresser 21
agres@@ 21
aidez 21
aimants 21
aimeriez 21
aintes 21
ala 21
allocution 21
amus@@ 21
améliorent 21
anes 21
anesthé@@ 21
ap 21
apercev@@ 21
apogée 21
apprenant 21
ascension 21
assemble 21
assemblée 21
ationn@@ 21
atomiques 21
attache 21
attendaient 21
audacieuse 21
auv@@ 21
avi@@ 21
aviation 21
bai@@ 21
baissé 21
ball@@ 21
bang 21
bav@@ 21
ben@@ 21
bougie 21
brille 21
brocoli 21
brève 21
cabine 21
canon 21
cardio@@ 21
cav@@ 21
cave 21
centi@@ 21
cerf 21
certi@@ 21
charte 21
chim@@ 21
chimpanzé 21
chérie 21
cis@@ 21
cle 21
cocaïne 21
comedy 21
comité 21
commandé 21
comparons 21
compil@@ 21
comprenne 21
comptabilité 21
concentrez 21
concentrée 21
concernent 21
concerts 21
consensus 21
considérés 21
constituer 21
contamin@@ 21
continuait 21
controverse 21
convention 21
convergence 21
copi@@ 21
coude 21
coulisses 21
courrier 21
coïn@@ 21
coûteuse 21
cre@@ 21
crimin@@ 21
croûte 21
curseur 21
cérébraux 21
dames 21
datant 21
demandés 21
descendus 21
diapositives 21
dictionnaires 21
dimensionnel 21
direc@@ 21
dirigeons 21
dissémin@@ 21
domination 21
donnais 21
dues 21
dures 21
déb@@ 21
débrouiller 21
découle 21
découper 21
décour@@ 21
décédé 21
défie 21
déforestation 21
dégradation 21
dépassent 21
dépendre 21
déplacements 21
dépour@@ 21
désor@@ 21
déséquilibre 21
développeurs 21
dévers@@ 21
ed 21
emballage 21
embauché 21
empêchent 21
endur@@ 21
engendre 21
enseignements 21
entendais 21
envahir 21
envoyons 21
ep@@ 21
erectus 21
escal@@ 21
exemplaires 21
externes 21
façonner 21
façonné 21
ffe 21
filets 21
filtr@@ 21
finie 21
fish 21
flexibles 21
fluides 21
focalisés 21
folie 21
fondement 21
fron@@ 21
fût 21
gam@@ 21
gard@@ 21
gaz@@ 21
gelée 21
gentiment 21
gobelets 21
goûter 21
gribouillage 21
grotte 21
guer@@ 21
généraux 21
ha@@ 21
han@@ 21
has@@ 21
historien 21
ignent 21
impose 21
impressionnante 21
imprévisible 21
incapables 21
incendies 21
incitations 21
indu@@ 21
informé 21
innov@@ 21
inquiétant 21
insister 21
insisté 21
intangible 21
intensifs 21
interrog@@ 21
intér@@ 21
invers@@ 21
investissons 21
ironique 21
irré@@ 21
isais 21
itables 21
itation 21
itre 21
japonaise 21
jouais 21
justi@@ 21
lais@@ 21
lampes 21
lan 21
linguistique 21
lisse 21
lit@@ 21
litre 21
love 21
low 21
légendaire 21
lés 21
malheur 21
manquait 21
marquer 21
marqueur 21
mars 21
marteau 21
mes@@ 21
migraines 21
millénaire 21
ministère 21
mo 21
mod@@ 21
mons 21
moutarde 21
multitude 21
méduses 21
métiers 21
nano 21
nanom@@ 21
naï@@ 21
ney 21
numériser 21
obligations 21
ol 21
ologues 21
onnée 21
oo@@ 21
ooh 21
optimistes 21
org@@ 21
paraissent 21
parlement 21
part@@ 21
parvenus 21
passionnée 21
pensés 21
perceptions 21
percu@@ 21
permanent 21
pin 21
pionnier 21
pionniers 21
placez 21
plages 21
portions 21
possession 21
possédait 21
posées 21
pot@@ 21
pourcents 21
poursuite 21
privilégi@@ 21
proc@@ 21
produira 21
proie 21
projecteur 21
protocole 21
province 21
pénurie 21
pêcher 21
raisin 21
ralentit 21
rap 21
rationnelle 21
rattraper 21
ravi 21
ravis 21
recommande 21
reconn@@ 21
reconnaissant 21
reconnaissante 21
recréer 21
rejo@@ 21
relative 21
remet@@ 21
remplacé 21
rendra 21
rentrée 21
reportage 21
représent@@ 21
retenu 21
reté 21
revenant 21
revenez 21
ro 21
roches 21
ruche 21
réalistes 21
réalisés 21
réchauffe 21
récup@@ 21
réduc@@ 21
réf@@ 21
réflexions 21
références 21
régul@@ 21
régulier 21
régulière 21
répandue 21
répété 21
résout 21
réussi@@ 21
révèlent 21
sai@@ 21
samedi 21
serveur 21
sexuellement 21
sibles 21
signaler 21
simultanément 21
sorties 21
souhaitons 21
soulever 21
soutiennent 21
stades 21
stimulant 21
subtile 21
sul@@ 21
séance 21
sécheresse 21
séquençage 21
taches 21
tatouage 21
temp@@ 21
tes@@ 21
test@@ 21
tion@@ 21
tionnaires 21
tisée 21
toires 21
top 21
trac@@ 21
tranche 21
transcendance 21
transformations 21
transistors 21
transportent 21
tristesse 21
trottoir 21
ty 21
urg@@ 21
utilisable 21
utérus 21
vaincre 21
variabilité 21
vecteur 21
veste 21
viable 21
vive 21
vivions 21
well 21
yo@@ 21
ze 21
âges 21
édifice 21
élé@@ 21
élévation 21
épo@@ 21
épouvantable 21
équitable 21
érée 21
étagère 21
éternelle 21
éventuellement 21
ît 21
œuf 21
00 20
1.000 20
1982 20
2030 20
2ème 20
40@@ 20
88 20
Andy 20
Arrêtez 20
Bono 20
Bruno 20
CNN 20
Cap@@ 20
Centrale 20
Cré@@ 20
DE@@ 20
Dave 20
Empire 20
Encelade 20
Er@@ 20
FMI 20
Fro@@ 20
Grecs 20
Green 20
Ground 20
Hudson 20
IV 20
Indi@@ 20
Jean 20
Jet@@ 20
Juan 20
Kamen 20
Kepler 20
Kim 20
LA 20
Maldives 20
Mumbai 20
Murray 20
Nationale 20
Normalement 20
Philippe 20
Princeton 20
Pâques 20
Pékin 20
QI 20
Rec@@ 20
Reed 20
Reste 20
Romo 20
Roy 20
Russes 20
Sor@@ 20
Sur@@ 20
Tandis 20
UV 20
Vegas 20
Village 20
abandonnés 20
abstraite 20
accoupler 20
accroche 20
activiste 20
adhésif 20
affectés 20
affi@@ 20
affirmation 20
afflu@@ 20
aillent 20
ajoutant 20
alisent 20
ami@@ 20
ander 20
annuel 20
appartiennent 20
appellerais 20
appliquée 20
apport 20
aques 20
assistant 20
astronomique 20
athlètes 20
atro@@ 20
attachée 20
bactéri@@ 20
baiss@@ 20
bambou 20
banal 20
bananes 20
baril 20
biom@@ 20
biscuits 20
boom 20
bosses 20
bouill@@ 20
briller 20
bâti@@ 20
bêtes 20
camarades 20
carrières 20
cellulaires 20
cen@@ 20
chants 20
cheminées 20
chera 20
choqué 20
chroniques 20
chér@@ 20
cide 20
civiques 20
clarté 20
classi@@ 20
clichés 20
clôture 20
coeurs 20
collectionn@@ 20
combattants 20
commer@@ 20
comparant 20
compatissant 20
complications 20
compose 20
comptons 20
condi@@ 20
connect@@ 20
contempl@@ 20
continuez 20
convo@@ 20
coopér@@ 20
coordonnées 20
coul@@ 20
couvrent 20
coïncidence 20
coûté 20
cra@@ 20
crabe 20
crash 20
céré@@ 20
d.html 20
descendant 20
destin@@ 20
diab@@ 20
diagnostiquer 20
diagrammes 20
dialoguer 20
dien 20
dies 20
diffusé 20
diplomate 20
discute 20
dispute 20
dissement 20
distributeur 20
divergence 20
divin 20
donna 20
donneur 20
douche 20
dys@@ 20
déch@@ 20
déchiffrer 20
déclencher 20
définitive 20
démo 20
dépendant 20
désin@@ 20
détaillée 20
ec 20
eil 20
empar@@ 20
empires 20
encourage@@ 20
endant 20
enfermé 20
enfu@@ 20
enrich@@ 20
entendus 20
escro@@ 20
excite 20
excl@@ 20
explos@@ 20
faciliter 20
fameux 20
faîtes 20
feu@@ 20
fications 20
fidèles 20
flammes 20
fondateurs 20
formuler 20
française 20
frustr@@ 20
fréquemment 20
fun@@ 20
fusionner 20
félic@@ 20
germes 20
glori@@ 20
graphes 20
graphis@@ 20
griffes 20
géographie 20
géologique 20
gérons 20
habillé 20
haches 20
handicap@@ 20
hospit@@ 20
ich 20
ics 20
impatients 20
implément@@ 20
incertain 20
incident 20
inclu@@ 20
inconscient 20
incré@@ 20
indiqué 20
infectieuses 20
informés 20
ington 20
injecter 20
inondations 20
instru@@ 20
interagit 20
intermédiaires 20
introdu@@ 20
intégralité 20
intéressait 20
invasive 20
inventeurs 20
irai 20
isson 20
istiques 20
john 20
jure 20
justifier 20
lancent 20
land 20
lauré@@ 20
lents 20
ling 20
linge 20
liv@@ 20
lourde 20
législ@@ 20
légitime 20
manette 20
manquent 20
manteau 20
marchais 20
marionnettes 20
marqu@@ 20
mentaux 20
mesurons 20
miracles 20
missiles 20
mit 20
monstre 20
montrés 20
mosquée 20
motivé 20
mul@@ 20
musulmane 20
mutil@@ 20
mécan@@ 20
navires 20
nigéri@@ 20
nœuds 20
obsc@@ 20
observent 20
oll@@ 20
ologiques 20
ong 20
ongles 20
pacifique 20
paient 20
parabole 20
parvient 20
pellicule 20
penses 20
peupl@@ 20
phénoménal 20
pi 20
pic@@ 20
pics 20
pigmentation 20
piques 20
pistes 20
plaisanterie 20
posait 20
posés 20
pourrai 20
produisait 20
propagation 20
proph@@ 20
propositions 20
proprement 20
prouv@@ 20
précé@@ 20
précédents 20
préférences 20
prépare 20
présentant 20
prêtre 20
pubs 20
purement 20
quinze 20
records 20
recouvert 20
refuser 20
reliés 20
remplace 20
repartir 20
représentait 20
représentants 20
ressor@@ 20
rey 20
ridicul@@ 20
rit 20
rière 20
rochers 20
rois 20
roupies 20
rythmes 20
réplique 20
résistant 20
résou@@ 20
réunissent 20
réveillé 20
sceptique 20
scolar@@ 20
sections 20
sens@@ 20
sensée 20
serveurs 20
shopping 20
sincère 20
sique 20
sives 20
sky 20
soif 20
solo 20
soucier 20
souvient 20
spec@@ 20
spor@@ 20
sser 20
stocks 20
submer@@ 20
suic@@ 20
suivait 20
suppos@@ 20
supposés 20
surf 20
survivants 20
systé@@ 20
sément 20
sérieuses 20
sévères 20
tabou 20
tale 20
talentueux 20
tantes 20
tape 20
tel@@ 20
tennis 20
tensions 20
terrifiant 20
touchant 20
tournés 20
tox@@ 20
transplan@@ 20
trions 20
valable 20
valve 20
variétés 20
verse 20
verser 20
viez 20
vocation 20
voisinage 20
votes 20
vou@@ 20
voyiez 20
végétation 20
végétaux 20
work 20
writing 20
éclip@@ 20
écoule 20
élabor@@ 20
élargir 20
électromagnétique 20
élo@@ 20
élégant 20
élégante 20
émettre 20
éner@@ 20
épilepsie 20
épinière 20
équateur 20
érie 20
érique 20
éruption 20
étonné 20
étouff@@ 20
ête 20
ë 20
ïde 20
1,3 19
110 19
67 19
7,@@ 19
82 19
= 19
AV 19
Act 19
Acumen 19
Afin 19
Alabama 19
American 19
Ash@@ 19
Attention 19
Babylone 19
Barack 19
Bond 19
Carter 19
Cer@@ 19
Certes 19
Clay 19
Colombie 19
Comp@@ 19
Copernic 19
Diana 19
Dis 19
Droits 19
Démo@@ 19
ET 19
Esp@@ 19
Hill 19
Huit 19
Jason 19
Jerry 19
Jeux 19
Jimmy 19
Kar@@ 19
Lawrence 19
MO 19
Miller 19
Moins 19
Nicole 19
Now 19
Né@@ 19
One 19
Panbanisha 19
Peux 19
Port 19
Portugal 19
Pourriez 19
RG 19
Reine 19
Roger 19
Règle 19
République 19
S.@@ 19
SDF 19
SE@@ 19
ST 19
Septembre 19
Sida 19
Simplement 19
Skype 19
Sobule 19
Stirling 19
Stone 19
Tom@@ 19
Trop 19
Ur@@ 19
Vénus 19
Whit@@ 19
Young 19
Zéro 19
abordé 19
absorbe 19
absorber 19
acceptation 19
accorder 19
accouplement 19
accumulent 19
achar@@ 19
ache 19
acquisition 19
agers 19
agu@@ 19
ague 19
aiderait 19
aiguilles 19
alimentée 19
alphabétisation 19
amb@@ 19
ambi@@ 19
anecdotes 19
animer 19
anonyme 19
aper@@ 19
apparus 19
apprécient 19
appuyant 19
arché@@ 19
arranger 19
arriverons 19
asseyez 19
associations 19
assurément 19
atroce 19
attacher 19
attentifs 19
atterr@@ 19
attirent 19
avancés 19
avertissement 19
bab@@ 19
back 19
barbe 19
barils 19
barrage 19
bars 19
beauty 19
bin@@ 19
biologiquement 19
blan@@ 19
bol 19
bonjour 19
boucles 19
boulangerie 19
bousier 19
brass@@ 19
bruy@@ 19
bâti 19
bénéficient 19
calcaire 19
catastrophique 19
cauchemar 19
ceaux 19
chais 19
chantent 19
cherchaient 19
cheur 19
chiff@@ 19
chirurgicale 19
chron@@ 19
cibler 19
cid@@ 19
cigarettes 19
ciment 19
citations 19
coch@@ 19
cohérente 19
collect@@ 19
comb@@ 19
combine 19
commander 19
commettre 19
communi@@ 19
compli@@ 19
composer 19
conc@@ 19
conditionné 19
conduisant 19
conduisez 19
confron@@ 19
confrontée 19
cons@@ 19
conspiration 19
contemporaine 19
contenait 19
contrats 19
coule 19
courag@@ 19
courts 19
cristal@@ 19
cuire 19
cure 19
dant 19
descendants 19
devenant 19
deviend@@ 19
devrons 19
dez 19
digital 19
dirigée 19
discutons 19
dissent 19
dissi@@ 19
distincts 19
documenter 19
donneurs 19
dorm@@ 19
durent 19
débutant 19
déchiré 19
décoration 19
découvri@@ 19
décr@@ 19
décé@@ 19
défauts 19
défend 19
déficit 19
déser@@ 19
déterminée 19
eait 19
ecteurs 19
ek 19
empiler 19
engag@@ 19
enregistre 19
entrainement 19
envahis@@ 19
enzymes 19
ern@@ 19
ession 19
ethnique 19
ett 19
euph@@ 19
expliquant 19
export@@ 19
expérimental 19
extinctions 19
faille 19
faillite 19
fais@@ 19
fas@@ 19
fermée 19
flam@@ 19
flot 19
flottent 19
fonctionnalité 19
forage 19
forcée 19
forcés 19
franc 19
frappant 19
fréquent 19
fus@@ 19
féminisme 19
gain 19
gel@@ 19
gon@@ 19
goûts 19
graisses 19
gratitude 19
générée 19
habitats 19
hacker 19
horri@@ 19
huîtres 19
hôtels 19
icité 19
idéologie 19
iler 19
iment 19
imitation 19
immobile 19
impatient 19
imposer 19
impressionné 19
inadéqu@@ 19
ince 19
incorporer 19
indre 19
inflig@@ 19
informa@@ 19
ino 19
inspirent 19
installe 19
installés 19
insul@@ 19
interroger 19
intrinsèque 19
introvertis 19
inés 19
ison 19
ister 19
itait 19
itement 19
jalousie 19
journées 19
jur@@ 19
kin@@ 19
kr@@ 19
labyrinthe 19
laiss@@ 19
lancez 19
largeur 19
law 19
les@@ 19
lies 19
lig@@ 19
limitées 19
lisant 19
logements 19
lue 19
lumineuse 19
lég@@ 19
maladro@@ 19
marcherait 19
marié 19
mazoutés 19
mement 19
mentalité 19
messagerie 19
mettr@@ 19
minimiser 19
minuit 19
mir@@ 19
mm 19
mondi@@ 19
montait 19
mousse 19
multinationales 19
mystérieuse 19
nais 19
nanomètres 19
nanotechnologie 19
narrateur 19
neurologiques 19
nourri 19
négociation 19
obsédés 19
ode 19
ombres 19
optimiser 19
orateur 19
orateurs 19
orienter 19
orienté 19
originelle 19
ose 19
ote 19
ox@@ 19
ozone 19
pani@@ 19
paralysés 19
parviennent 19
passages 19
payez 19
payons 19
pertinente 19
perçu 19
physiologie 19
piét@@ 19
planétaires 19
politicien 19
pompier 19
pore 19
porel 19
poussée 19
poètes 19
pper 19
primitif 19
primordial 19
programmé 19
prouve 19
prudence 19
préférez 19
préoccupations 19
préparés 19
prévue 19
publicitaire 19
punition 19
périodique 19
quelquefois 19
quotidiennes 19
racontant 19
rails 19
raisonn@@ 19
ran@@ 19
rationnels 19
reconnait 19
refer@@ 19
regroup@@ 19
relâche 19
remix@@ 19
remor@@ 19
renoncer 19
repos 19
reproduit 19
représentée 19
requiert 19
restauration 19
rig@@ 19
rive 19
royal 19
ruches 19
réacteurs 19
réci@@ 19
récoltes 19
réfléchissent 19
réglé 19
rétic@@ 19
révol@@ 19
saisi 19
sales 19
sant 19
sar@@ 19
sauve 19
semences 19
silicone 19
simpli@@ 19
sit@@ 19
sivité 19
sms 19
sortait 19
sortons 19
soulagement 19
soulevé 19
soviétique 19
ssant 19
ssent 19
stop@@ 19
suspendue 19
synapses 19
sélectionner 19
séparées 19
temporelle 19
tempêtes 19
tendu 19
terais 19
tho@@ 19
tionnaire 19
tionnelles 19
toir 19
topo@@ 19
tortue 19
touchés 19
tracer 19
tracé 19
transfé@@ 19
transporte 19
tribunal 19
troupeaux 19
trouviez 19
ulture 19
urbanisation 19
utiliserons 19
vendait 19
vin@@ 19
violences 19
vitesses 19
voiturette 19
von 19
vér@@ 19
weekend 19
wood 19
yn@@ 19
écr@@ 19
écrasé 19
éduqués 19
élect@@ 19
électr@@ 19
émer@@ 19
émotionnellement 19
épanou@@ 19
équipés 19
établissement 19
étrang@@ 19
étroit 19
évolutive 19
1930 18
1989 18
30@@ 18
6,@@ 18
63 18
69 18
Abu 18
Air@@ 18
Amanda 18
Américaine 18
Association 18
Austr@@ 18
Avons 18
Bas@@ 18
Bertie 18
Bhoutan 18
Bombay 18
Bon@@ 18
C.@@ 18
CIA 18
CP 18
Central 18
Cl@@ 18
Clairement 18
Columbia 18
Comm@@ 18
Costa 18
Cou@@ 18
Cr@@ 18
Cu@@ 18
DJ 18
Derrière 18
FBI 18
Fran@@ 18
Galilée 18
Galois 18
Go 18
Haw@@ 18
Hor@@ 18
Hyun 18
IR@@ 18
Ile 18
Intel 18
Iran@@ 18
Islam@@ 18
Japonais 18
Jonas 18
Jour 18
Journal 18
Liban 18
Léonard 18
Mat@@ 18
Mau@@ 18
Mer 18
Natalie 18
Op@@ 18
PH 18
Pas@@ 18
Pepsi 18
Personnellement 18
Pol@@ 18
Pou@@ 18
Pourrions 18
Project 18
Pérou 18
R.S. 18
Saviez 18
Sergio 18
Sook 18
Sri 18
State 18
Studio 18
Tam@@ 18
Tamiflu 18
Thaïlande 18
Trans@@ 18
Tri@@ 18
UCLA 18
Vas 18
Ven@@ 18
Vers 18
YR 18
abond@@ 18
accorde 18
activation 18
actrice 18
adorais 18
affai@@ 18
affection 18
affich@@ 18
ageux 18
agr@@ 18
agré@@ 18
aimeraient 18
aison 18
alliance 18
allonger 18
altruisme 18
ambiante 18
amende 18
amies 18
ams 18
amènent 18
ané@@ 18
apercevoir 18
approuv@@ 18
appréciation 18
arder 18
ascend@@ 18
assemblé 18
asser@@ 18
associe 18
ationnel 18
automatis@@ 18
avan@@ 18
avancent 18
avancez 18
aéroports 18
baby 18
baguette 18
bal 18
balancer 18
battus 18
berger 18
bi 18
bizarrement 18
bli@@ 18
blogu@@ 18
boissons 18
bous@@ 18
braconn@@ 18
brev@@ 18
brésili@@ 18
building 18
bule 18
bureau@@ 18
camarade 18
camera 18
cant@@ 18
cardi@@ 18
cardiologie 18
carreau 18
cataly@@ 18
cathédrale 18
causée 18
cell@@ 18
certes 18
chameaux 18
changera 18
changerait 18
chantier 18
chiez 18
choré@@ 18
circulaire 18
circulent 18
clairs 18
coc@@ 18
coloré 18
coma 18
commenc@@ 18
commission 18
commun@@ 18
compagnon 18
compati@@ 18
complément@@ 18
comportemental 18
composantes 18
comprenais 18
conclu@@ 18
confin@@ 18
congrès 18
constructeur 18
consultation 18
consulter 18
continuum 18
coopérer 18
coordonner 18
correspondre 18
coûteuses 18
craie 18
cratère 18
creux 18
cris 18
critiquer 18
crois@@ 18
cruci@@ 18
crâ@@ 18
créait 18
créatrice 18
crédible 18
crédits 18
culaire 18
célibataire 18
célibataires 18
dansent 18
day 18
deman@@ 18
demeur@@ 18
dentaire 18
devenaient 18
devise 18
devront 18
diplômes 18
direz 18
disposer 18
dist@@ 18
dits 18
doctor@@ 18
donnerai 18
douze 18
drapeaux 18
droites 18
débarr@@ 18
déc@@ 18
décidez 18
décrivent 18
démographie 18
déplac@@ 18
désir@@ 18
détecte 18
déterminent 18
détérior@@ 18
dévoiler 18
effacer 18
ela 18
embaucher 18
enrac@@ 18
envahi 18
escence 18
eure 18
excitée 18
exemplaire 18
explorateurs 18
expérimentale 18
extraterrestre 18
extraterrestres 18
extrémisme 18
fa@@ 18
facilité 18
factu@@ 18
fascinants 18
fauteuils 18
feedback 18
fich@@ 18
finances 18
finissez 18
flotter 18
ford 18
fortune 18
fourni@@ 18
fractales 18
froides 18
frontal 18
gaming 18
gants 18
geeks 18
gers 18
gies 18
glucides 18
gner 18
gor@@ 18
gratuites 18
grec 18
gren@@ 18
grimpe 18
grossi@@ 18
gs 18
gues 18
guitare 18
handicapés 18
her@@ 18
hip 18
honnêtes 18
hybrides 18
hétéro@@ 18
iaux 18
identifie 18
ignant 18
implanter 18
incapacité 18
inconnues 18
industri@@ 18
industrielles 18
inefficace 18
infecter 18
infiltr@@ 18
innombrables 18
instruction 18
intensément 18
interrom@@ 18
intimement 18
intrig@@ 18
ints 18
invasion 18
ismes 18
isolement 18
israéli@@ 18
issements 18
jacente 18
jetée 18
jugements 18
juges 18
kit 18
lacs 18
lame 18
lancés 18
landais 18
larves 18
latine 18
libertés 18
line 18
lisais 18
logistique 18
los 18
loterie 18
légalement 18
machinerie 18
magnifiquement 18
magnétiques 18
malheureuse 18
mangeait 18
manger@@ 18
mar 18
mari@@ 18
mariés 18
marre 18
massivement 18
maux 18
menacés 18
mez 18
mie 18
migration 18
mill@@ 18
mions 18
modér@@ 18
monstres 18
montez 18
montrerai 18
montés 18
multitâche 18
mun@@ 18
mû@@ 18
nettement 18
neuro 18
nions 18
noble 18
novembre 18
noyaux 18
obscur 18
obsolète 18
occidentales 18
odor@@ 18
offici@@ 18
officielle 18
oppos@@ 18
oriquement 18
oug@@ 18
oun@@ 18
oï@@ 18
papillons 18
pareille 18
parfum 18
pari@@ 18
parles 18
partagées 18
partait 18
personn@@ 18
photosynthèse 18
pigeon 18
piquer 18
piétons 18
plaisant 18
pneumonie 18
policier 18
pom@@ 18
pompes 18
potentiels 18
pourri 18
poursuivi 18
prairie 18
pre 18
procédés 18
profs 18
progress@@ 18
progresse 18
projette 18
prolong@@ 18
prou@@ 18
provenance 18
précaution 18
préjugés 18
prélevé 18
prématu@@ 18
puberté 18
publiées 18
publiés 18
py@@ 18
pée 18
pôles 18
qualifié 18
racontait 18
rajou@@ 18
rajouter 18
ramassé 18
ratio 18
reconnaissez 18
reconnaissons 18
recruter 18
reflètent 18
rejoignent 18
relev@@ 18
relief 18
relâ@@ 18
remerci@@ 18
remplit 18
rencontrée 18
rentr@@ 18
représentatif 18
requis 18
restons 18
richesses 18
roy@@ 18
réacteur 18
réagissons 18
récipient 18
réduits 18
réfl@@ 18
référ@@ 18
réguler 18
réparation 18
réplicateur 18
répondaient 18
réunies 18
réussie 18
réussites 18
sabbatique 18
sables 18
sag@@ 18
saines 18
salut 18
san@@ 18
satisfaits 18
savane 18
sensoriel 18
seringues 18
sey 18
siens 18
signifient 18
soja 18
song@@ 18
sonn@@ 18
souci 18
soucis 18
souhaiterais 18
souhaits 18
squ@@ 18
stabil@@ 18
stabiliser 18
ste 18
steak 18
suivaient 18
suscité 18
systématique 18
tailles 18
technicien 18
tentant 18
teries 18
teriez 18
terrifiante 18
testés 18
the@@ 18
tige 18
tion.html 18
titu@@ 18
tofu 18
toiles 18
touchez 18
toutefois 18
traitées 18
transformés 18
transmet@@ 18
transparente 18
transporté 18
trique 18
trompé 18
tte 18
tude 18
union 18
unir 18
urban@@ 18
urbanisme 18
verbes 18
verticalement 18
vibr@@ 18
vielle 18
vietnam@@ 18
violation 18
viser 18
visites 18
vocale 18
volants 18
volcans 18
volontiers 18
volts 18
volée 18
voyag@@ 18
wa 18
¨ 18
âtre 18
éblou@@ 18
écarter 18
écologistes 18
éducatifs 18
égi@@ 18
élastique 18
éloignées 18
émergents 18
émettent 18
émis 18
éno@@ 18
épaisse 18
épicerie 18
épidémies 18
épou@@ 18
éra 18
érieur 18
érotique 18
étrangement 18
évolutif 18
ômes 18
™ 18
* 17
00.000 17
10,000 17
125 17
1973 17
3,5 17
AM 17
Ag@@ 17
Archie 17
Avoir 17
BC 17
Barbara 17
Beethoven 17
Benki 17
Billy 17
Christopher 17
Cour 17
DG 17
Demandez 17
Doha 17
E. 17
EB 17
ED 17
Edward 17
Etes 17
FOXO 17
Gehry 17
Grèce 17
Géorgie 17
Harris 17
Hiroshima 17
IDEO 17
Imaginons 17
Jennifer 17
Karen 17
Ke@@ 17
Khmers 17
Klein 17
Las 17
Lau@@ 17
Libéria 17
MacArthur 17
Magazine 17
Mahatma 17
Mahmoud 17
Max 17
Molas 17
Mou@@ 17
Neu@@ 17
News 17
Népal 17
Olympiques 17
Oubliez 17
Pan@@ 17
Ph@@ 17
Philadelphie 17
Point 17
Pour@@ 17
Red 17
Ren@@ 17
SLA 17
Sec@@ 17
Sol@@ 17
Sortez 17
Sweeney 17
Sénat 17
Tennessee 17
Tour@@ 17
Travail@@ 17
University 17
Ushahidi 17
Wal@@ 17
Wide 17
XIX@@ 17
Yorker 17
abandonne 17
abl@@ 17
abris 17
accessoire 17
accident@@ 17
accompagne 17
accroissement 17
ack 17
actionnaires 17
adventure 17
affect@@ 17
ag 17
ald 17
algèbre 17
ali 17
aliment 17
alisant 17
alpinistes 17
amenant 17
amer 17
amphi@@ 17
amuse 17
angio@@ 17
ank@@ 17
anthropologue 17
antiqu@@ 17
applaudir 17
apprends 17
approximativement 17
appréciez 17
arbitr@@ 17
arch@@ 17
artisan@@ 17
artisanat 17
aspiration 17
assemblent 17
assurent 17
astique 17
astronomy 17
ateliers 17
athlète 17
ation.html 17
ato@@ 17
atoires 17
attrapent 17
augment@@ 17
augmentant 17
autiste 17
avènement 17
balay@@ 17
bancs 17
banquiers 17
banquise 17
biotech 17
bouddhiste 17
boulanger 17
boum 17
branché 17
brill@@ 17
bronze 17
brutes 17
carbonate 17
carnet 17
carotte 17
celà 17
centrique 17
centré 17
certificat 17
chauffage 17
cherchais 17
chimistes 17
choisie 17
chop 17
ciseaux 17
cités 17
clin@@ 17
clou@@ 17
clubs 17
cocktail 17
col 17
collectivités 17
collisions 17
colorés 17
comparaisons 17
complétement 17
compression 17
comprise 17
compteur 17
concret 17
concurrents 17
congé 17
connec@@ 17
conse@@ 17
conservé 17
content@@ 17
contes 17
converti 17
coqu@@ 17
corpor@@ 17
coupes 17
cousin 17
couv@@ 17
coû@@ 17
coûtait 17
crains 17
crayons 17
cueilleurs 17
cuisinier 17
curieusement 17
cymatique 17
célébr@@ 17
céram@@ 17
desquelles 17
diagnostique 17
diagnostiqué 17
diens 17
différenti@@ 17
din 17
diques 17
directrice 17
dirigez 17
dissant 17
distr@@ 17
dom@@ 17
dominer 17
dominé 17
dri@@ 17
dront 17
dune 17
déchir@@ 17
décida 17
décollé 17
défenses 17
définitions 17
dégrade 17
délai 17
démocrati@@ 17
déploiement 17
déposé 17
déprim@@ 17
désespérée 17
détresse 17
dî@@ 17
effondré 17
ego 17
embl@@ 17
emprunté 17
encombr@@ 17
encourageant 17
endommag@@ 17
enlevez 17
ennement 17
ennuyeuse 17
enquêtes 17
enregistrée 17
entendait 17
entour@@ 17
entourés 17
entrepôt 17
envelop@@ 17
envoyées 17
etre 17
eues 17
examin@@ 17
exigences 17
exo@@ 17
explicite 17
explorent 17
explosions 17
exprès 17
faiblesse 17
fascin@@ 17
fidèle 17
financièrement 17
financés 17
fleur@@ 17
fluctuations 17
fonder 17
forum 17
fragiles 17
fumer 17
furieux 17
fédér@@ 17
gains 17
gan@@ 17
gardant 17
gents 17
glaces 17
glacée 17
gonfler 17
gouttes 17
grandissante 17
graphiquement 17
guise 17
guér@@ 17
géniales 17
habil@@ 17
habitu@@ 17
humides 17
ical 17
ice 17
ices 17
iciens 17
ick@@ 17
idéaux 17
ignorent 17
illages 17
illettr@@ 17
immersion 17
implant 17
improviser 17
impré@@ 17
inacceptable 17
incidence 17
incluent 17
inconvénients 17
indicateur 17
indicateurs 17
inform@@ 17
infrarouge 17
inimaginable 17
innocent 17
innovante 17
innovantes 17
innovants 17
instinctivement 17
instincts 17
interférence 17
interpr@@ 17
interrompu 17
intervalle 17
intervenants 17
intéressons 17
inverser 17
invitée 17
irrigation 17
isions 17
issantes 17
ital 17
itu@@ 17
itude 17
iture 17
ity.html 17
jam@@ 17
jets 17
jolies 17
juive 17
jury 17
ken 17
kh@@ 17
laissée 17
laissés 17
langages 17
laps 17
lau@@ 17
lenteur 17
liquides 17
localiser 17
location 17
logarithmique 17
logiste 17
logistes 17
lot@@ 17
lots 17
louer 17
légende 17
législation 17
maill@@ 17
mait 17
maitr@@ 17
male 17
mangeaient 17
masques 17
matérielles 17
medical 17
men 17
menées 17
mettiez 17
microscopique 17
mignons 17
milit@@ 17
millimètres 17
mobiliser 17
moche 17
modification 17
modélis@@ 17
moquer 17
moustiquaire 17
moy@@ 17
moyennes 17
mystique 17
mén@@ 17
naz@@ 17
nement 17
neur@@ 17
nocivité 17
nue 17
néo 17
nœud 17
observateur 17
occident 17
offrant 17
offres 17
ope 17
opérateurs 17
ora 17
oxy@@ 17
paille 17
pap@@ 17
para@@ 17
paraitre 17
pareilles 17
particip@@ 17
passa 17
passais 17
patho@@ 17
pathologies 17
pel 17
penché 17
percevons 17
perçoivent 17
perçus 17
placée 17
plaisirs 17
pler 17
plume 17
polymère 17
posture 17
pous@@ 17
prendrais 17
prières 17
produisaient 17
promettre 17
proportions 17
prospère 17
protègent 17
provoc@@ 17
préci@@ 17
prélev@@ 17
prétend 17
prétend@@ 17
pulvér@@ 17
punir 17
pén@@ 17
péri@@ 17
quin@@ 17
quotidiens 17
raccourci 17
rad@@ 17
rangée 17
rappro@@ 17
rebelles 17
reculé 17
regardée 17
registre 17
regret@@ 17
rein 17
reins 17
rejeté 17
rel 17
relâcher 17
remix 17
rencontrées 17
renseignements 17
rentrés 17
renvoyer 17
replier 17
reprise 17
respec@@ 17
rhume 17
rideau 17
ries 17
ris 17
réalisées 17
récl@@ 17
réconfor@@ 17
réflexe 17
réglementation 17
répand@@ 17
réparti 17
résistantes 17
résistants 17
rétroaction 17
sanitaire 17
scan 17
scanners 17
schizophrénie 17
sessions 17
sh 17
sha 17
sienne 17
sil@@ 17
situés 17
socio 17
software 17
solennel 17
soulev@@ 17
soustr@@ 17
spiritualité 17
sponsor@@ 17
spores 17
standardis@@ 17
statistics 17
stopper 17
stric@@ 17
stu@@ 17
substanti@@ 17
sucres 17
suey 17
superbes 17
supprimé 17
surf@@ 17
surg@@ 17
survient 17
survit 17
suspendu 17
symbio@@ 17
synchron@@ 17
synonyme 17
sédiments 17
sélectionné 17
séquencé 17
tatouages 17
teau 17
temporaire 17
tentation 17
tenues 17
ters 17
teste 17
testostérone 17
thèque 17
tigre 17
tim@@ 17
tirait 17
tirant 17
tirés 17
touchées 17
transf@@ 17
transmise 17
traumatis@@ 17
trentaine 17
tristes 17
trons 17
troupe 17
trouver@@ 17
tueur 17
typographie 17
tz 17
télécommande 17
téléphonie 17
témoins 17
variées 17
vic@@ 17
vieillir 17
violoncelle 17
virage 17
vivement 17
voudront 17
vérifié 17
wan 17
á@@ 17
èdre 17
ètent 17
échappe 17
écologiste 17
écroul@@ 17
égyp@@ 17
élèvent 17
émerveill@@ 17
émin@@ 17
émouvante 17
épuisé 17
équili@@ 17
éveill@@ 17
ë@@ 17
ôt 17
ôts 17
œu@@ 17
( 16
1918 16
1947 16
1949 16
1975 16
1976 16
1986 16
1993 16
4ème 16
61 16
Academy 16
Africaine 16
Agence 16
Apparemment 16
Appel@@ 16
As@@ 16
Assez 16
Autriche 16
Bali 16
Bouddhis@@ 16
Bour@@ 16
Chi@@ 16
Child 16
Coll@@ 16
Considérez 16
Cooper 16
DP 16
Day 16
Deep 16
Dennis 16
Dimitri 16
Dolby 16
Dr@@ 16
Eames 16
Ecole 16
Eli@@ 16
Eu@@ 16
Euh 16
Excusez 16
Fant@@ 16
Faucon 16
Fondamentalement 16
Fox 16
Fé@@ 16
Grace 16
Greg 16
Génial 16
HA 16
Han 16
Hitler 16
Hon@@ 16
Hubble 16
Hum@@ 16
Hy@@ 16
I.@@ 16
Isaac 16
Jacqueline 16
Je@@ 16
Langley 16
Latine 16
MA 16
Mann 16
Marshall 16
Mart 16
Maryland 16
Mas@@ 16
Maslow 16
May@@ 16
Mitchell 16
Na@@ 16
Nevada 16
Ni 16
Noir 16
Nollywood 16
Nouveau 16
Oliver 16
Oprah 16
Palestine 16
Parlez 16
Paulo 16
Philippines 16
Photoshop 16
Pri@@ 16
Research 16
Robin 16
Ron 16
Roosevelt 16
Rory 16
Rouges 16
Saddam 16
Shar@@ 16
Sil@@ 16
Stanley 16
Stockholm 16
Sun 16
Sérieusement 16
T&apos; 16
Talks 16
Ted 16
Titanic 16
Toutefois 16
Treasure 16
Venezuela 16
White 16
Wi@@ 16
Women 16
abondante 16
abordables 16
abr@@ 16
accompli@@ 16
accus@@ 16
accusé 16
acronyme 16
adaptées 16
agnostique 16
agon 16
agée 16
aimerai 16
ajoutée 16
alie 16
als 16
altern@@ 16
amin@@ 16
amoureuse 16
aménagement 16
angl@@ 16
angs 16
anthropologie 16
antiangio@@ 16
anticip@@ 16
antidote 16
apartheid 16
apiculteurs 16
apportant 16
apportons 16
approchant 16
aquatiques 16
architectural 16
arctique 16
armement 16
arri@@ 16
art@@ 16
artificielles 16
artère 16
asiatique 16
asse@@ 16
assent 16
asses 16
assi@@ 16
assumer 16
astuces 16
atement 16
ation@@ 16
attentats 16
attirés 16
authenti@@ 16
automati@@ 16
aérien 16
aître 16
balader 16
bassins 16
berceau 16
bien@@ 16
bile 16
bonbons 16
bonhomme 16
bourg 16
bousiers 16
brillent 16
brouill@@ 16
brûlent 16
budg@@ 16
bulletin 16
caf@@ 16
cailloux 16
caisse 16
caravane 16
cars 16
cassettes 16
cation 16
causent 16
censure 16
censée 16
cham@@ 16
cheuse 16
chol@@ 16
chou 16
cicatrices 16
cigarette 16
cintres 16
ciné@@ 16
cire 16
citron 16
civil@@ 16
clan@@ 16
clique 16
cohér@@ 16
combinant 16
compatibles 16
comprenant 16
comète 16
confirmer 16
confortables 16
consommons 16
consommé 16
constructeurs 16
contrainte 16
contreplaqué 16
contrôlés 16
coor@@ 16
cortic@@ 16
cosmologie 16
couloirs 16
coupée 16
courriel 16
cous@@ 16
crach@@ 16
crie 16
criminalité 16
criti@@ 16
dal@@ 16
dera 16
designs 16
desquels 16
dessinateur 16
deviendront 16
dia 16
dict@@ 16
diction 16
diffuse 16
différ@@ 16
distingue 16
divisent 16
dizaine 16
dresse 16
drogués 16
décentr@@ 16
déclarer 16
défaill@@ 16
défil@@ 16
délibérément 16
démographiques 16
dépendait 16
dépendons 16
déplacés 16
déploy@@ 16
déprimés 16
détourner 16
efface 16
eman 16
emblé@@ 16
emploie 16
encer 16
enci@@ 16
endez 16
enflam@@ 16
enjeux 16
enseignons 16
entraient 16
entraine 16
entrait 16
envoler 16
envoy@@ 16
enzyme 16
esqu@@ 16
euh 16
européennes 16
excessi@@ 16
existants 16
exploité 16
expres@@ 16
expéditions 16
fabriquant 16
facilit@@ 16
far@@ 16
fascinée 16
fe@@ 16
fesses 16
feuill@@ 16
fique 16
fluor@@ 16
fondent 16
formules 16
foulée 16
fournissant 16
fournisseur 16
franchise 16
friction 16
frustrés 16
fuites 16
fécon@@ 16
gagnants 16
gamma 16
gan 16
gaspiller 16
geek 16
genèse 16
gnent 16
gol@@ 16
gout@@ 16
gouvernementaux 16
graver 16
group@@ 16
gâchis 16
généti@@ 16
géométrique 16
gêne 16
ham@@ 16
harmon@@ 16
humanitaires 16
humili@@ 16
hydrocarbures 16
hypertension 16
hésit@@ 16
ication 16
icien 16
ides 16
ignorons 16
ignoré 16
illement 16
illumination 16
ima 16
impasse 16
inattendue 16
inauguration 16
inerte 16
initiatives 16
initié 16
inné 16
inquiétudes 16
instaur@@ 16
intact 16
interrogé 16
intr@@ 16
intuitions 16
isants 16
isolation 16
isolée 16
istr@@ 16
iteur 16
ives 16
jail@@ 16
jargon 16
jetable 16
labos 16
laïque 16
let@@ 16
leu@@ 16
leur@@ 16
librairie 16
lignée 16
lisses 16
littéraire 16
lle 16
look 16
lueur 16
lâche 16
lées 16
make 16
mam@@ 16
manche 16
manifes@@ 16
marchandise 16
maris 16
massifs 16
mau@@ 16
maîtr@@ 16
mente 16
mesurable 16
meurs 16
meurtre 16
meute 16
mineurs 16
minim@@ 16
minuti@@ 16
missile 16
modifiée 16
montrée 16
montrées 16
moralement 16
motor@@ 16
multiplier 16
multipliez 16
musculaires 16
médit@@ 16
méditer 16
méfiance 16
még@@ 16
mémoriser 16
mêler 16
nation@@ 16
navette 16
naît 16
ners 16
nids 16
nique 16
noté 16
obser@@ 16
obsessionn@@ 16
obtiens 16
obèse 16
obèses 16
occupée 16
oculaires 16
olympiques 16
ona 16
oncles 16
opéré 16
orages 16
orchestres 16
orie 16
orique 16
orphelins 16
ors@@ 16
parvenu 16
pathogène 16
pathologie 16
peluche 16
pens@@ 16
percep@@ 16
percev@@ 16
peter 16
phon@@ 16
phénoménale 16
pil@@ 16
piloter 16
pinceau 16
pionn@@ 16
pizza 16
piég@@ 16
plaign@@ 16
plaisan@@ 16
plongées 16
pointer 16
poiv@@ 16
pol@@ 16
pollinisateurs 16
portefeuille 16
portion 16
postu@@ 16
poules 16
pouls 16
prag@@ 16
pratiqué 16
prient 16
prince 16
problématiques 16
program@@ 16
progressé 16
projections 16
promet 16
proposent 16
pru@@ 16
préciser 16
préoccup@@ 16
préoccupent 16
prêté 16
publicitaires 16
publiquement 16
puc@@ 16
puis@@ 16
pulmonaire 16
pétrolière 16
quais 16
quettes 16
quo@@ 16
raccour@@ 16
racisme 16
radar 16
rail@@ 16
ralentiss@@ 16
rame 16
recevons 16
recomm@@ 16
recommence 16
rectangle 16
reculer 16
relais 16
remar@@ 16
rendues 16
rentrez 16
repère 16
respecte 16
retournent 16
retournez 16
revenait 16
revendi@@ 16
rides 16
rigide 16
rivage 16
robinet 16
rugosité 16
ruée 16
réalisable 16
réalisez 16
récupère 16
réfléchis 16
réformer 16
régr@@ 16
répétée 16
réservé 16
résistante 16
révolu@@ 16
sab@@ 16
sapiens 16
saumon 16
saurez 16
says 16
scann@@ 16
sceptiques 16
sculpteur 16
selle 16
sensorielle 16
sentie 16
sentier 16
servi@@ 16
signifier 16
simplifier 16
solitude 16
sollic@@ 16
sommets 16
somp@@ 16
soucient 16
spatiaux 16
spécialisation 16
stag@@ 16
stand 16
stars 16
sti@@ 16
strictement 16
stérile 16
stéréo@@ 16
subtils 16
sui@@ 16
surgit 16
surprenants 16
survivr@@ 16
sy@@ 16
sécur@@ 16
sées 16
sérotonine 16
sés 16
tan 16
taxes 16
tenaient 16
théière 16
tigres 16
touristes 16
tournage 16
tournez 16
traducteur 16
tranquillement 16
transform@@ 16
traumatisme 16
traversant 16
triez 16
triomphe 16
tueurs 16
ultraviolet 16
uranium 16
urgent 16
utilisais 16
vac@@ 16
vacciner 16
vapor@@ 16
varie 16
verait 16
versa 16
veuille 16
villageois 16
violentes 16
violée 16
volante 16
volcanique 16
voudra 16
voulant 16
voyage@@ 16
vraisemblable 16
végétarien 16
yp@@ 16
zoo 16
zz@@ 16
² 16
çon 16
çonn@@ 16
èces 16
èlement 16
ètement 16
ètres 16
éclaire 16
égal@@ 16
élus 16
émet@@ 16
émouvant 16
éni@@ 16
épanouissement 16
épineux 16
établie 16
éternellement 16
étriques 16
êt 16
ôme 16
ü@@ 16
1,2 15
1974 15
1983 15
1992 15
2012 15
3.@@ 15
360 15
5,@@ 15
ABC 15
AG 15
AS 15
Académie 15
Achille 15
Ali 15
Ann 15
Anthony 15
BP 15
Bab@@ 15
Bank 15
Barbie 15
Batman 15
Bay 15
Beck 15
British 15
CA@@ 15
Cap 15
Chef 15
Ci@@ 15
Cochrane 15
Cohen 15
Compar@@ 15
Construire 15
DL 15
DNA 15
Dalaï 15
Dawkins 15
Detroit 15
Dic@@ 15
Doug 15
Dépression 15
Excellent 15
Friedman 15
Garçon 15
General 15
Grey 15
Guinée 15
Hab@@ 15
Hillis 15
III 15
IM@@ 15
Julie 15
KS 15
Kate 15
Kh@@ 15
Kr@@ 15
Lea@@ 15
Linked 15
Maitreya 15
Manifestement 15
Map 15
Marc 15
Marine 15
Maya 15
Michigan 15
Mil@@ 15
Minnesota 15
Mississippi 15
Mola 15
Moscou 15
NM 15
Neumann 15
Occident@@ 15
Open 15
PIPA 15
Pakistanais 15
Pentagone 15
PowerPoint 15
Prom@@ 15
Qaïda 15
Rem@@ 15
Rift 15
Rires 15
Riverside 15
Roots 15
Royal 15
SOPA 15
Sa@@ 15
Sciences 15
Sebastian 15
Shoots 15
Skycar 15
Som@@ 15
Stuxnet 15
Sudhir 15
Sul@@ 15
Super@@ 15
Superman 15
TTF 15
Texte 15
Tiers 15
Toyota 15
Tur@@ 15
Ty@@ 15
Télé@@ 15
Vermeer 15
Vie 15
Wal 15
Walter 15
Wh@@ 15
Witness 15
Wol@@ 15
Yo 15
ZK 15
absorbent 15
absorption 15
absur@@ 15
abus@@ 15
accabl@@ 15
acceptent 15
accessoires 15
accueille 15
accumul@@ 15
accélér@@ 15
aches 15
achevé 15
ack@@ 15
acou@@ 15
acquiert 15
activent 15
ada 15
agressif 15
aidant 15
aideront 15
aies 15
aisance 15
ajout 15
aki 15
allers 15
allong@@ 15
alternatif 15
aly@@ 15
ama 15
ambassadeur 15
ampu@@ 15
anche 15
animales 15
anime 15
anor@@ 15
anthropologues 15
anton 15
aperçus 15
appartenir 15
appli 15
appliquent 15
apportait 15
apprenait 15
appréhender 15
artic@@ 15
artificiellement 15
arène 15
aspire 15
assés 15
atrocités 15
attaquent 15
attitudes 15
atures 15
auditif 15
aur@@ 15
autorisation 15
autoritaire 15
aye 15
aéronef 15
ba@@ 15
ballet 15
bascule 15
batailles 15
battait 15
bec 15
bine 15
bip 15
boeuf 15
boisson 15
borne 15
bouclier 15
bourses 15
boî@@ 15
brebis 15
brique 15
bée 15
calamar 15
calculatrices 15
calmer 15
cape 15
caractérise 15
cartographié 15
cat@@ 15
ce@@ 15
cessez 15
challenge 15
champion 15
chantant 15
charg@@ 15
charme 15
chauffe 15
chauve 15
chercheuse 15
chutes 15
ciens 15
cinéaste 15
classer 15
cliquez 15
cobra 15
coca 15
combustion 15
communic@@ 15
communisme 15
comparée 15
comprenaient 15
comprendrez 15
conceptions 15
conceptu@@ 15
concrètement 15
conduisait 15
confusion 15
consistant 15
consomment 15
constate 15
contempler 15
controversée 15
contrô@@ 15
copié 15
corne 15
correspon@@ 15
costumes 15
coupables 15
coupez 15
croisent 15
crowdsourcing 15
croyants 15
cruel 15
crées 15
cueil 15
cues 15
cules 15
cultive 15
culturellement 15
célébration 15
daf 15
danie 15
dat@@ 15
demandera 15
demandée 15
diaporama 15
diffusée 15
dirigeait 15
disaster 15
distant 15
distingu@@ 15
dorment 15
dotés 15
douloureuse 15
douter 15
débou@@ 15
déchi@@ 15
décideurs 15
décidons 15
décollage 15
déconcer@@ 15
découverts 15
découvrant 15
décri@@ 15
déduire 15
défaite 15
défibrill@@ 15
déjeu@@ 15
déni 15
dépistage 15
déploie 15
désigner 15
désirez 15
détaill@@ 15
détenus 15
déterminant 15
développant 15
dévoil@@ 15
effrayante 15
effrayantes 15
emballages 15
embarqué 15
encer@@ 15
enchères 15
endommagé 15
ennuie 15
ennuy@@ 15
enregistrées 15
enregistrés 15
enseignait 15
enterrement 15
enterré 15
enti 15
entrepren@@ 15
envoyant 15
eras 15
escaliers 15
examinons 15
exceptionnelle 15
exclusivement 15
exer@@ 15
exerc@@ 15
explorateur 15
exportations 15
expédi@@ 15
expérimentateur 15
faciales 15
facil@@ 15
facture 15
fameuse 15
familière 15
fascination 15
favorable 15
favorables 15
fe 15
fertile 15
fiabilité 15
fichiers 15
finan@@ 15
finis 15
fissures 15
fli@@ 15
floue 15
fondements 15
fondées 15
fontaine 15
formant 15
formulaire 15
fragilité 15
frappée 15
frontale 15
fuir 15
fêtes 15
gagnante 15
gagner@@ 15
genetics 15
gig@@ 15
gigantesques 15
gliss@@ 15
gouver@@ 15
goû@@ 15
gu 15
gy@@ 15
génies 15
habitable 15
habits 15
habitué 15
hache 15
hallucin@@ 15
hamburgers 15
han 15
hiérarch@@ 15
honorer 15
hop@@ 15
horizons 15
horizontale 15
héroïne 15
icon@@ 15
identités 15
idi@@ 15
iennes 15
illant 15
illis 15
illées 15
ilé 15
ilée 15
imaginant 15
imaginent 15
impliquant 15
inaudible 15
inaugur@@ 15
inclin@@ 15
induit 15
indé@@ 15
indéfiniment 15
infin@@ 15
influences 15
ings 15
ini 15
initialement 15
innovant 15
insiste 15
install@@ 15
intacte 15
interactive 15
interconnecté 15
interf@@ 15
intergalactique 15
intersection 15
intervient 15
intègrent 15
inventi@@ 15
investis 15
involon@@ 15
isol@@ 15
issants 15
issu 15
istan 15
iterait 15
jambon 15
je@@ 15
jetables 15
joues 15
judiciaire 15
latin 15
littér@@ 15
longueurs 15
léopards 15
magnitude 15
maillé 15
maintiennent 15
mant 15
marais 15
marathon 15
marchaient 15
marijuana 15
marionnette 15
massacre 15
matern@@ 15
maîtres 15
menacées 15
menant 15
mesu@@ 15
mettaient 15
microscopiques 15
minimale 15
mité 15
mont 15
mortels 15
mourut 15
mus@@ 15
médium 15
mélangés 15
ménage 15
nettoie 15
neurologique 15
neuroscientifiques 15
nienne 15
nies 15
nigérian 15
nourris 15
nourrissons 15
obligatoire 15
obtiendrez 15
officiel 15
ois@@ 15
olets 15
ony 15
opposées 15
opérationnel 15
orb@@ 15
orbit@@ 15
organisent 15
orges 15
orial 15
ormeau 15
ota 15
ouh 15
ouvri@@ 15
paisible 15
palette 15
paléonto@@ 15
pancréas 15
paraissait 15
parent@@ 15
parkings 15
parleur 15
partici@@ 15
partiellement 15
partisans 15
parts 15
paru 15
patrimoine 15
percer 15
perles 15
personnaliser 15
persu@@ 15
perç@@ 15
perçoit 15
phone 15
pianiste 15
piliers 15
pirat@@ 15
pist@@ 15
pistolet 15
placard 15
placebo 15
plancher 15
plaçons 15
pleuré 15
plongeurs 15
pollin@@ 15
porteur 15
pote 15
pouces 15
prier 15
primitifs 15
programm@@ 15
prolif@@ 15
prop@@ 15
protons 15
protéomique 15
proverbe 15
préc@@ 15
préoccupé 15
préoccupés 15
prés@@ 15
présidente 15
prét@@ 15
prévoit 15
prêtent 15
psychiatres 15
pt 15
pue 15
puissances 15
pétroliers 15
qualifiés 15
quante 15
quarks 15
quera 15
quo 15
rach@@ 15
rag@@ 15
rareté 15
recommencé 15
reconnaî@@ 15
reconstituer 15
recyclés 15
rejeter 15
renaissance 15
rencontrons 15
rende 15
rendrait 15
renseign@@ 15
repos@@ 15
respiratoire 15
ressent@@ 15
restre@@ 15
risquent 15
rives 15
romans 15
roulé 15
rout@@ 15
routière 15
ruines 15
ruisseau 15
rus@@ 15
réalisateurs 15
réc@@ 15
réconciliation 15
récupération 15
récur@@ 15
réfléchissiez 15
réfrigérateur 15
réfrigération 15
répandent 15
répartis 15
répercussions 15
résidence 15
sacrifice 15
saisit 15
sation 15
savon 15
scru@@ 15
secrétaire 15
sement 15
sen 15
serie 15
set 15
sme 15
sociologues 15
sondages 15
sophistiquée 15
sorti@@ 15
souffrait 15
souffrant 15
soupç@@ 15
soupçonne 15
sourcils 15
sourd 15
soutenue 15
souver@@ 15
spécialisés 15
ssez 15
stables 15
stationnement 15
statistiquement 15
stupéfiante 15
styles 15
succ@@ 15
suggestion 15
suivie 15
suj@@ 15
supernova 15
supports 15
supposer 15
supposition 15
sures@@ 15
sympathie 15
symphonie 15
sémin@@ 15
sénateur 15
séparément 15
séro@@ 15
sûres 15
tag@@ 15
talons 15
tax@@ 15
tem@@ 15
terie 15
terrifiés 15
théor@@ 15
ticul@@ 15
tile 15
tillant 15
times 15
tionnées 15
tiser 15
tissent 15
tières 15
total@@ 15
tourbill@@ 15
traductrice 15
traitait 15
transe 15
transforma@@ 15
transplanter 15
trav@@ 15
traver@@ 15
trib@@ 15
tric@@ 15
tricherie 15
triplé 15
trouverons 15
tèmes 15
uni 15
unicell@@ 15
unissent 15
up@@ 15
util@@ 15
ventilateur 15
ventilation 15
vera 15
vesti@@ 15
vieillesse 15
virent 15
vise 15
visionnaire 15
visuellement 15
voyants 15
vétérans 15
wat@@ 15
world.html 15
Écoute 15
èche 15
èges 15
échang@@ 15
échangent 15
échantill@@ 15
éclairer 15
écoulement 15
écoutons 15
écrivons 15
écu@@ 15
élas@@ 15
élég@@ 15
épines 15
éponge 15
éprouver 15
équ@@ 15
équivalente 15
éral 15
érance 15
érations 15
érieures 15
érosion 15
établit 15
éter 15
éternité 15
éthiop@@ 15
étudiais 15
évanou@@ 15
éven@@ 15
évoqué 15
,7 14
0.@@ 14
1940 14
1967 14
1978 14
1988 14
650 14
750 14
Aimee 14
Alfred 14
Amazonie 14
Ari@@ 14
Arkansas 14
Arr@@ 14
Arts 14
Aur@@ 14
Aurora 14
Ay@@ 14
Balkans 14
Bibliothèque 14
Bientôt 14
Birmanie 14
Bol@@ 14
Bollywood 14
Bor@@ 14
Browne 14
Bulgarie 14
Business 14
C.A. 14
Ca@@ 14
Celsius 14
Club 14
Colorado 14
Croix 14
Créer 14
Cy@@ 14
DA 14
DDT 14
Dor@@ 14
Déjà 14
E8 14
Eden 14
Espace 14
Essex 14
Européens 14
Face 14
Faut 14
Fi 14
Fon@@ 14
GPHIN 14
Gag@@ 14
Gardez 14
Gaza 14
Gilbert 14
Global 14
God 14
Goldman 14
Gould 14
H5N1 14
Harlem 14
Hi@@ 14
ID@@ 14
Ian 14
Impossible 14
Jacques 14
Jaune 14
Ki@@ 14
Kir@@ 14
La@@ 14
Luke 14
MI 14
Mai 14
Mathematica 14
Michel 14
Midwest 14
Monologues 14
Morgan 14
My@@ 14
Netra 14
Nu@@ 14
Ooh 14
Oregon 14
Oscar 14
Petite 14
Pink 14
Pos@@ 14
Post 14
Py@@ 14
RO@@ 14
Ra@@ 14
Radio 14
Ronald 14
Républicain 14
SO@@ 14
Sand@@ 14
Sarajevo 14
Seth 14
She@@ 14
Sir@@ 14
Sont 14
Suprême 14
Susie 14
Sé@@ 14
T. 14
Tel 14
Telescope 14
Ter@@ 14
Transition 14
Troisième 14
Tso 14
Type 14
U.@@ 14
Verte 14
Vinci 14
Virgin 14
Vol@@ 14
Walmart 14
Warner 14
Wi 14
Yale 14
abandonnent 14
abriter 14
absorbé 14
acceptons 14
acceptée 14
accompagner 14
accomplis 14
accueilli 14
accélérateur 14
achats 14
activée 14
actu@@ 14
adapt@@ 14
adorait 14
adorons 14
adéquate 14
adés 14
affiché 14
agon@@ 14
agress@@ 14
agriculteur 14
aign@@ 14
ainement 14
alignés 14
ambassade 14
ambiance 14
amenez 14
amic@@ 14
amical 14
amèner@@ 14
analogique 14
andes 14
andro@@ 14
angoisse 14
anisme 14
anne 14
anonymat 14
aplati@@ 14
apparaî@@ 14
appe 14
appliquons 14
apportée 14
approbation 14
architectures 14
archét@@ 14
argent@@ 14
ariat 14
arithmétique 14
arti@@ 14
ash 14
aspirer 14
assassiné 14
assemblées 14
assemblés 14
assey@@ 14
astro@@ 14
astronautes 14
atout 14
attendrait 14
attray@@ 14
attribuer 14
aug@@ 14
augmentez 14
autoritaires 14
aversion 14
axes 14
aya 14
aéronautique 14
aïsme 14
bac 14
bac@@ 14
bactérienne 14
bad@@ 14
balan@@ 14
balcon 14
bancaires 14
bann@@ 14
banquier 14
barbecue 14
bascul@@ 14
battue 14
best 14
bicycl@@ 14
bienfaits 14
biostase 14
bioénergie 14
biscuit 14
blah 14
bless@@ 14
blogosphère 14
blue 14
bouff@@ 14
bougé 14
boutiques 14
brûlant 14
bug 14
burg 14
buvez 14
bé 14
bœuf 14
cab@@ 14
cachets 14
cahier 14
cali@@ 14
cancérigènes 14
captiv@@ 14
captur@@ 14
caractéris@@ 14
carit@@ 14
cellulose 14
censur@@ 14
centrée 14
chantait 14
chanteur 14
chap@@ 14
chasseur 14
chat@@ 14
chem@@ 14
cherchions 14
chocs 14
château 14
ciels 14
cine 14
ck 14
clari@@ 14
cligno@@ 14
climatis@@ 14
clips 14
clô@@ 14
coalition 14
cohérent 14
coiff@@ 14
collaborateur 14
comman@@ 14
commencera 14
commiss@@ 14
communautaires 14
compatible 14
complets 14
compreniez 14
comprenions 14
compétent 14
concev@@ 14
concevable 14
condamnés 14
confir@@ 14
consci@@ 14
conseillers 14
conservatrice 14
conserve 14
considérables 14
contam@@ 14
contest@@ 14
contrôlant 14
conçoit 14
copain 14
correspondait 14
correspondance 14
couché 14
coulé 14
couteaux 14
couvertes 14
couvertures 14
couvr@@ 14
craint 14
cristal 14
cristaux 14
crocodile 14
croisés 14
croy@@ 14
cé 14
cédé 14
daient 14
danseuse 14
dec@@ 14
dengue 14
dentiste 14
destinés 14
dettes 14
deviendrait 14
dialo@@ 14
dicton 14
diffèrent 14
discer@@ 14
disparaitre 14
disposent 14
dissez 14
dissoci@@ 14
distraction 14
distribuée 14
distribués 14
div@@ 14
divine 14
document@@ 14
documenté 14
dore 14
dout@@ 14
drons 14
duction 14
débute 14
décap@@ 14
déchiff@@ 14
décoll@@ 14
découlent 14
décré@@ 14
défenseurs 14
dégoû@@ 14
délicates 14
dénominateur 14
dénu@@ 14
dépassés 14
déplacées 14
dérivé 14
désastr@@ 14
déserts 14
désire 14
détachées 14
détaillé 14
détruisent 14
elli 14
empir@@ 14
empl@@ 14
emporté 14
enclos 14
endormi 14
endormir 14
engren@@ 14
ennui 14
enten@@ 14
enthousiasmant 14
entrainé 14
environn@@ 14
enz@@ 14
eron 14
ery 14
escargots 14
ese 14
espérais 14
essant 14
essayions 14
etait 14
exagéré 14
excellence 14
excessive 14
excusez 14
exe 14
exis@@ 14
exposées 14
expérimentations 14
extase 14
fabriquée 14
fabriquées 14
fail@@ 14
failli@@ 14
faith 14
fans 14
farine 14
fatigués 14
festival 14
fiante 14
filaments 14
filtrer 14
fines 14
fleu@@ 14
flots 14
flûtes 14
fonctionnerait 14
fouiller 14
foules 14
fourch@@ 14
fourrure 14
fragment@@ 14
franche 14
froids 14
fêter 14
galvan@@ 14
gant 14
gay 14
get 14
gg@@ 14
glaci@@ 14
glaciaires 14
gosse 14
gouvernementale 14
grandis@@ 14
grant 14
grati@@ 14
grecque 14
grimpeurs 14
grou@@ 14
gré 14
guerrier 14
guidée 14
guê@@ 14
géantes 14
génit@@ 14
généalogique 14
générales 14
haw@@ 14
he@@ 14
hilar@@ 14
holistique 14
honoré 14
horizontal 14
hutte 14
hygiénique 14
héber@@ 14
héroïque 14
idéalisme 14
illon 14
illégale 14
immédi@@ 14
impatience 14
importent 14
imposent 14
impéri@@ 14
incarnation 14
incitation 14
incite 14
inconsciemment 14
incul@@ 14
index 14
indication 14
industrialisés 14
iner@@ 14
infinitésimal 14
influencent 14
informatici@@ 14
informel 14
insist@@ 14
intensi@@ 14
interdits 14
interdépendance 14
interprété 14
interro@@ 14
intes 14
intitu@@ 14
intuitivement 14
intégrées 14
invas@@ 14
inventées 14
investissez 14
inées 14
ionn@@ 14
ira@@ 14
irs 14
islamique 14
itch@@ 14
itinéraire 14
ium 14
ivre 14
ja 14
jacentes 14
jec@@ 14
ji 14
job 14
jong@@ 14
kil@@ 14
kilo@@ 14
ko@@ 14
lanc@@ 14
leurre 14
libé@@ 14
libérée 14
licences 14
lisait 14
lition 14
lits 14
littéral 14
livraison 14
lointaine 14
loisirs 14
machin 14
macro 14
maient 14
mantes 14
manu@@ 14
maquettes 14
maquillage 14
mariées 14
master 14
maturité 14
mensu@@ 14
menti 14
migraine 14
migré 14
milles 14
minable 14
minces 14
mite 14
mmm 14
moines 14
mond 14
monot@@ 14
montraient 14
monétaire 14
moquette 14
mp@@ 14
multimédia 14
multiplié 14
mèner@@ 14
médaille 14
mépris@@ 14
métabol@@ 14
métastases 14
météorologiques 14
nagé 14
naturaliste 14
nav@@ 14
neig@@ 14
net@@ 14
nettoyage 14
neurologue 14
neuve 14
neuvième 14
nocturne 14
numériquement 14
nécessitent 14
néerlandais 14
néo@@ 14
obs@@ 14
obscure 14
octets 14
oculaire 14
océano@@ 14
odes 14
odeurs 14
officiellement 14
ok@@ 14
ola 14
old 14
olive 14
on.html 14
onco@@ 14
onnaire 14
optimal 14
ores 14
ortho@@ 14
ouvrière 14
oxyd@@ 14
paiement 14
palestinien 14
pantalons 14
papas 14
param@@ 14
parcelle 14
pare 14
paresseux 14
partagés 14
participe 14
partons 14
paume 14
payent 14
penseriez 14
pent@@ 14
persist@@ 14
personal 14
personnalisation 14
personnalisé 14
pertin@@ 14
pertinentes 14
pertur@@ 14
pessim@@ 14
peu@@ 14
pill@@ 14
piratage 14
pitch 14
pivoter 14
placées 14
plais@@ 14
plane 14
plaçant 14
plumes 14
polymères 14
polystyrène 14
ponc@@ 14
posté 14
poussés 14
pren@@ 14
pris@@ 14
procl@@ 14
productifs 14
profitent 14
profité 14
progressi@@ 14
proies 14
prolifération 14
promène 14
prophète 14
prudent 14
préconçues 14
préjugé 14
préoccupation 14
préparais 14
préparent 14
présentait 14
présidence 14
présidents 14
présum@@ 14
prétendre 14
psy@@ 14
pull 14
pédago@@ 14
pétales 14
quarante 14
quarts 14
quel@@ 14
rabat 14
raie 14
rain@@ 14
ralenti@@ 14
randonnée 14
rappel@@ 14
rapportent 14
rapprochent 14
raser 14
rassemblées 14
rationalité 14
read 14
recule 14
redout@@ 14
reg@@ 14
regards 14
regrouper 14
rejetée 14
relevé 14
reliant 14
remettent 14
renfer@@ 14
renouvel@@ 14
reporter 14
respiratoires 14
resterait 14
richard 14
risquer 14
ronde 14
rong@@ 14
ruraux 14
réd@@ 14
réduisez 14
réfléchissais 14
réfu@@ 14
régation 14
rénov@@ 14
réplication 14
répu@@ 14
répéti@@ 14
résulte 14
rétin@@ 14
rétréc@@ 14
sachions 14
sautent 14
sauvées 14
scandale 14
scin@@ 14
scri@@ 14
seau 14
sel@@ 14
sensibilisation 14
septième 14
sermon 14
serpent 14
serré 14
seur 14
siffl@@ 14
signifierait 14
silencieuse 14
simil@@ 14
simulateur 14
simultan@@ 14
sinistre 14
sis 14
slide 14
soixante 14
sortaient 14
sortais 14
soucie 14
soucions 14
soufre 14
souhaitent 14
soutiens 14
souven@@ 14
spatiales 14
sph@@ 14
spécialisé 14
ssé 14
statiques 14
statu 14
ster@@ 14
stimule 14
stock 14
stratosphère 14
sueur 14
suggestions 14
suisse 14
superficie 14
suppositions 14
surfer 14
surpêche 14
susciter 14
suédois 14
synchronisation 14
synesthésie 14
tache 14
tal 14
talon 14
tapé 14
tectoniques 14
tein@@ 14
temporal 14
teuse 14
ticket 14
tickets 14
timbre 14
tisse 14
tolérer 14
tonnerre 14
tourno@@ 14
transactions 14
transformées 14
transi@@ 14
transmises 14
trau@@ 14
traversons 14
traîner 14
triang@@ 14
trop@@ 14
tropiques 14
trouvions 14
tuée 14
tère 14
télécharg@@ 14
unisson 14
urban 14
utilisations 14
utilisions 14
vagins 14
vas@@ 14
vase 14
vau@@ 14
vendaient 14
vendant 14
vendez 14
vendue 14
venti@@ 14
vern@@ 14
vertic@@ 14
vessie 14
vigueur 14
viraux 14
visant 14
visualis@@ 14
volcan 14
voyagent 14
vrer 14
w.html 14
war@@ 14
yons 14
zoom 14
écor@@ 14
écossais 14
éducateurs 14
éducative 14
églises 14
électro 14
éloignée 14
émotionnelles 14
ému 14
énerv@@ 14
énonc@@ 14
époustouflante 14
ési@@ 14
étagères 14
étiqu@@ 14
étonnement 14
étu@@ 14
étudiantes 14
évidents 14
œstro@@ 14
1,4 13
170 13
1850 13
1957 13
1962 13
1965 13
1979 13
1981 13
24h 13
2D 13
5ème 13
A.@@ 13
Agnès 13
Aidez 13
Allan 13
Apprendre 13
BBC 13
Bagdad 13
Ban@@ 13
Bat@@ 13
Beau 13
Bezos 13
Botswana 13
Brigades 13
Brilliant 13
Britanniques 13
Bro@@ 13
Bureau 13
Cancer 13
Cape 13
Cas@@ 13
Chang@@ 13
Cher@@ 13
Clark 13
Colom@@ 13
Commerce 13
Comprenez 13
Connecticut 13
Critique 13
Darwin@@ 13
Davis 13
Derek 13
Devinez 13
Dire 13
Donnell 13
Droit 13
Dun@@ 13
E.@@ 13
Ecosse 13
Ecoute 13
Eduardo 13
Emmanuel 13
Enriquez 13
Ess@@ 13
Essentiellement 13
Esther 13
Eve 13
Fin 13
Ful@@ 13
Full 13
Gi@@ 13
Glenn 13
Gol@@ 13
Great 13
Gs 13
Han@@ 13
Hay@@ 13
Hom@@ 13
Hopkins 13
Humain 13
Humanité 13
Hussein 13
IN@@ 13
IP 13
Internationale 13
Irakiens 13
Istanbul 13
J. 13
JC 13
Jesse 13
Joey 13
Jus@@ 13
Kanzi 13
Kerry 13
Kurzweil 13
LHC 13
Lanka 13
Len 13
Leonard 13
Lis@@ 13
Lisa 13
Lumières 13
Ly@@ 13
Léviathan 13
March@@ 13
Marco 13
Mari@@ 13
Marines 13
Matthieu 13
Miami 13
OLPC 13
Observez 13
PR 13
Parc 13
Pat 13
Picasso 13
Platon 13
Potter 13
Prends 13
Ram@@ 13
Rand 13
Renaissance 13
Rica 13
Rockett 13
Rufus 13
Répon@@ 13
SB 13
Sachant 13
Samuel 13
Seigneur 13
Sen@@ 13
Side 13
Sin@@ 13
Sinclair 13
Spéci@@ 13
Starbucks 13
Stefan 13
Str@@ 13
Sue 13
Suis 13
TM 13
Tab@@ 13
Tan 13
Tarahumara 13
Toujours 13
Tour 13
Tricératops 13
Troie 13
Tunisie 13
Téhéran 13
Tél@@ 13
Ulysse 13
Utiliser 13
Vallée 13
Virtual 13
Wat@@ 13
Watt 13
Wired 13
WorldWide 13
Yu@@ 13
Yémén@@ 13
Zambie 13
abattu 13
abrite 13
absol@@ 13
accidentellement 13
accélérée 13
aces 13
acheteur 13
acité 13
acqu@@ 13
activés 13
actualités 13
actée 13
acu@@ 13
adaptent 13
addiction 13
adhésion 13
admirer 13
ado@@ 13
adoptée 13
adresses 13
adul@@ 13
advers@@ 13
adéquation 13
affilée 13
agneau 13
agés 13
aider@@ 13
aim@@ 13
aimer@@ 13
aissaient 13
aitre 13
aler@@ 13
algorith@@ 13
alien 13
alisez 13
allai@@ 13
allusion 13
amant 13
amo@@ 13
amusants 13
amusement 13
anatomiques 13
anesthési@@ 13
ango@@ 13
animée 13
annuelle 13
anonymes 13
anorm@@ 13
antérieure 13
apais@@ 13
apparente 13
apparentés 13
appelaient 13
apper 13
appli@@ 13
appor@@ 13
approchons 13
approché 13
apprête 13
appuyez 13
arité 13
articulations 13
ary 13
aspirent 13
assiettes 13
astronomiques 13
astrophysi@@ 13
asymé@@ 13
ationnelles 13
atteindra 13
augmentait 13
aut 13
autopsie 13
autours 13
avaler 13
avant@@ 13
aveugl@@ 13
aériennes 13
aérodynamique 13
badge 13
baiser 13
balayage 13
balises 13
bandeau 13
bap@@ 13
baptisé 13
barbar@@ 13
barreaux 13
bazar 13
beurre 13
bienveill@@ 13
big 13
biomatériaux 13
biomimétisme 13
biomé@@ 13
biosphere 13
bizarr@@ 13
blanchiment 13
bli 13
blog@@ 13
blogueurs 13
boit 13
bone 13
botter 13
bricolage 13
bricoler 13
bris@@ 13
brosse 13
buv@@ 13
bénéficié 13
cable 13
cafés 13
caillou 13
cale 13
camp@@ 13
cancéreuse 13
cartographi@@ 13
ceintures 13
centraux 13
chapitres 13
charpen@@ 13
chercher@@ 13
cheurs 13
chinoises 13
chronom@@ 13
cime@@ 13
cir 13
circule 13
claires 13
collant 13
collectent 13
collections 13
collent 13
coloni@@ 13
colonisation 13
colorées 13
coloss@@ 13
com 13
combatt@@ 13
come 13
comment@@ 13
commet@@ 13
complex@@ 13
complexity 13
compost 13
comprimé 13
compétiteurs 13
concentrations 13
concerné 13
concrets 13
concré@@ 13
conditionnelle 13
confiant 13
confirmé 13
confiture 13
consoli@@ 13
contacter 13
contagieux 13
conteur 13
contin@@ 13
continueront 13
contours 13
convaincant 13
coupés 13
coussins 13
craindre 13
crati@@ 13
cravate 13
criminel 13
ction 13
cue@@ 13
culp@@ 13
cybercriminels 13
câ@@ 13
câbl@@ 13
dent@@ 13
descendance 13
descendue 13
descriptions 13
devinrent 13
deviné 13
devrez 13
diamant 13
difficilement 13
différencier 13
digesti@@ 13
digérer 13
dilemmes 13
diplom@@ 13
dir 13
discipl@@ 13
discrimination 13
dispers@@ 13
disposé 13
distor@@ 13
distribue 13
divisée 13
dog@@ 13
dominée 13
doubles 13
dres 13
débarrasse 13
débuter 13
décalage 13
déception 13
déclenché 13
décrits 13
décrivait 13
défaire 13
défiler 13
défl@@ 13
délivrer 13
démissionné 13
démocraties 13
démonter 13
déplacez 13
déprimant 13
dérive 13
déroulé 13
déso@@ 13
détaillées 13
déter@@ 13
détient 13
déçu 13
eam 13
eda 13
effondrées 13
empirer 13
emplacements 13
employons 13
emprisonn@@ 13
ena 13
enchaî@@ 13
enfou@@ 13
enfre@@ 13
engins 13
engou@@ 13
enregistrent 13
enrichir 13
entourage 13
entourée 13
entraînés 13
envoyaient 13
esclave 13
esque 13
essaim 13
essu@@ 13
esthétiques 13
estiment 13
excellents 13
excit@@ 13
exclu 13
excé@@ 13
exist@@ 13
exper@@ 13
exponentiellement 13
exporter 13
expriment 13
exub@@ 13
factures 13
fatale 13
fati@@ 13
fatigue 13
fax 13
field 13
filament 13
financ@@ 13
finira 13
fir@@ 13
fission 13
flu@@ 13
fluidité 13
focaliser 13
fonc@@ 13
foncer 13
fonctionnalités 13
fonctionnels 13
fonctionnera 13
formel 13
frac@@ 13
fracture 13
fragment 13
fraîche 13
fréquents 13
fumier 13
fâ@@ 13
féro@@ 13
garantie 13
gardien 13
glu@@ 13
gonflé 13
goudron 13
gouffre 13
gouverner 13
graci@@ 13
gradu@@ 13
graduellement 13
gravement 13
gres 13
growth 13
grès 13
géniques 13
générées 13
gênant 13
gêné 13
habiller 13
hau@@ 13
hectare 13
hi 13
hominidés 13
homo 13
horaires 13
horizon@@ 13
hormone 13
hostilité 13
huitième 13
humble 13
hygiène 13
hélicoptères 13
héré@@ 13
iPods 13
ible 13
idement 13
illi@@ 13
illimité 13
illustrations 13
imaginais 13
immun@@ 13
implanté 13
imprimés 13
incrédulité 13
indirectement 13
inement 13
infectée 13
influencés 13
informe 13
informelle 13
ingénieuse 13
inhal@@ 13
inhér@@ 13
injec@@ 13
innocents 13
inon@@ 13
instruc@@ 13
insulte 13
insurrection 13
insé@@ 13
insérer 13
intellectuelles 13
interactives 13
interprét@@ 13
intitulée 13
intrus 13
intuiti@@ 13
inventés 13
inversion 13
irent 13
irr@@ 13
irrationnel 13
isit 13
issance 13
james 13
jetés 13
jouée 13
jus@@ 13
kel 13
kilo 13
kin 13
ku@@ 13
lacrymo@@ 13
laissait 13
laissera 13
lament@@ 13
las@@ 13
lexique 13
liber@@ 13
libèrent 13
liez 13
limbique 13
limitations 13
lointains 13
loué 13
loyauté 13
lunes 13
luttent 13
lymph@@ 13
légitimité 13
lésion 13
m2 13
magic 13
main@@ 13
maintenu 13
males 13
mallé@@ 13
mammifère 13
manches 13
mandat 13
mangeais 13
manifester 13
marchands 13
matelas 13
matins 13
matinée 13
mc@@ 13
mecs 13
membranes 13
miam 13
migrations 13
mile 13
mimétisme 13
mobilier 13
model 13
model@@ 13
modules 13
monarchie 13
mondialement 13
monopole 13
mortelles 13
motrice 13
motrices 13
multivers 13
municipalité 13
mécaniques 13
mépris 13
métaphorique 13
métrage 13
nag@@ 13
nage@@ 13
nappe 13
neaux 13
neuronale 13
neuroscientifique 13
nostal@@ 13
noyade 13
nuire 13
nécro@@ 13
néfas@@ 13
occasionnellement 13
océaniques 13
oeuf 13
oignon 13
olympique 13
omniprésente 13
onnait 13
orphelinat 13
oubliant 13
oul 13
ouvrons 13
pantalon 13
parabo@@ 13
paras@@ 13
parier 13
parlera 13
parlerons 13
parodie 13
partageaient 13
particularité 13
passager 13
payait 13
pein@@ 13
pell@@ 13
pent 13
performan@@ 13
permettront 13
personnalisée 13
persuadé 13
pertinence 13
peser 13
peuse 13
pez 13
philanthro@@ 13
photographi@@ 13
photons 13
physi@@ 13
ping 13
pins 13
pirate 13
plasticité 13
play 13
plon@@ 13
polarisation 13
polit@@ 13
poll@@ 13
pondent 13
pornographie 13
post@@ 13
postales 13
postulat 13
poterie 13
poupées 13
poussi@@ 13
poétique 13
primitives 13
primés 13
probl@@ 13
professionn@@ 13
programmeur 13
promenade 13
propag@@ 13
propagent 13
prosp@@ 13
protest@@ 13
prudents 13
préalable 13
préliminaires 13
préparez 13
prés 13
présentés 13
préventi@@ 13
psych@@ 13
puiser 13
pule 13
pus 13
péché 13
pées 13
pénicilline 13
pénètre 13
pénètrent 13
péril 13
pêcheries 13
quadr@@ 13
qualifiée 13
quarantaine 13
que@@ 13
quelquechose 13
questionner 13
quions 13
radicales 13
radiologues 13
raf@@ 13
rais@@ 13
ralentissent 13
ramènent 13
rappell@@ 13
rationn@@ 13
rayonnements 13
reconnais 13
reconnue 13
recouvre 13
regar@@ 13
reines 13
relatif 13
relient 13
relé@@ 13
remonté 13
remplissent 13
renfor@@ 13
renforce 13
rent@@ 13
rentrais 13
renvoy@@ 13
renvoyé 13
reposent 13
représen@@ 13
représentaient 13
requête 13
research 13
respectueuse 13
resse 13
ressortent 13
restreinte 13
retirée 13
rhinovirus 13
rhétorique 13
rigol@@ 13
râ@@ 13
réag@@ 13
rédaction 13
réfugi@@ 13
régénérative 13
rémun@@ 13
rénover 13
réper@@ 13
répondez 13
répugn@@ 13
répét@@ 13
résolvons 13
réussissons 13
rééducation 13
sacrifices 13
salons 13
sangl@@ 13
satur@@ 13
saura 13
sauvent 13
scotch 13
secour@@ 13
seigner 13
sensibil@@ 13
sente 13
seurs 13
significatifs 13
simpliste 13
simulations 13
socle 13
solidi@@ 13
souffler 13
soulèvement 13
sourds 13
sourit 13
souterrain 13
souveraineté 13
splendeur 13
start 13
stat@@ 13
stati@@ 13
stigmatis@@ 13
stimulus 13
structuré 13
subvention 13
sule 13
supposée 13
suppression 13
surgi 13
surpasser 13
surprises 13
surviennent 13
suspend@@ 13
synthétiser 13
séisme 13
séjour 13
séparée 13
t.html 13
tabilité 13
taill@@ 13
tants 13
tartes 13
tention 13
textile 13
thermiques 13
thique 13
théâtrale 13
tilles 13
tionnement 13
tises 13
tisées 13
tman 13
tonalité 13
torse 13
torturé 13
tournaient 13
tournait 13
tournons 13
tournées 13
trach@@ 13
traient 13
trajets 13
tranqu@@ 13
transcend@@ 13
transducteur 13
transformons 13
transportée 13
trillions 13
triple 13
trompent 13
trompés 13
troncs 13
trottoirs 13
troublant 13
trouvant 13
tueux 13
tun@@ 13
tuons 13
typiques 13
tâ@@ 13
tê@@ 13
ult@@ 13
utop@@ 13
vaccin@@ 13
vain 13
varient 13
verrait 13
vibrations 13
vicieux 13
victor@@ 13
vierges 13
vins 13
violées 13
virtu@@ 13
viscér@@ 13
vitales 13
voisines 13
voyions 13
vrir 13
vérifie 13
vê@@ 13
vôtres 13
w 13
we@@ 13
Âge 13
Éco@@ 13
Égyptiens 13
çants 13
èbres 13
èse 13
èvent 13
échappé 13
écoutais 13
écouteurs 13
écrivit 13
éduc@@ 13
élaboré 13
éleveurs 13
élimination 13
éloqu@@ 13
élu@@ 13
élégance 13
émis@@ 13
éolien 13
épargn@@ 13
épargnent 13
éparpill@@ 13
épat@@ 13
épingle 13
équilibrer 13
équip@@ 13
équiper 13
érez 13
érité 13
éruptions 13
érés 13
étendent 13
étincelle 13
étudiés 13
évacu@@ 13
évang@@ 13
évi@@ 13
ïe 13
ût 13
01 12
190@@ 12
1969 12
1er 12
2,3 12
2500 12
30.000 12
9000 12
@ 12
AR@@ 12
Aaron 12
Accenture 12
Acteur 12
Applau@@ 12
Applaudissements 12
Arabes 12
Attends 12
Austin 12
Ayez 12
Beatles 12
Bonnet 12
Brand 12
Bravo 12
Bre@@ 12
Breton 12
Bru@@ 12
CE@@ 12
CERN 12
Casey 12
Chap@@ 12
Chen 12
Chrétiens 12
Cli@@ 12
Comprendre 12
Constru@@ 12
Contr@@ 12
Cynthia 12
Côte 12
Diplomat 12
Don@@ 12
Dre@@ 12
Dubai 12
EEG 12
EG 12
Eco@@ 12
Economist 12
Et@@ 12
Evelyn 12
Exxon 12
Frères 12
GB 12
Gallery 12
Gillian 12
Gri@@ 12
Guardian 12
Hadrons 12
Hel@@ 12
Herbie 12
Holocauste 12
Honduras 12
Hou@@ 12
I. 12
IA 12
IMS 12
Illinois 12
Independent 12
Interface 12
Israéli@@ 12
Ital@@ 12
Jan@@ 12
Jessica 12
Jon 12
Jor@@ 12
K. 12
Kaboul 12
Kam@@ 12
Kay 12
LEDs 12
Laptop 12
Lequel 12
Levin 12
Ligue 12
Lind@@ 12
Lor@@ 12
Lord 12
Madagascar 12
Mal 12
Malawi 12
Mao 12
Maria 12
Matthew 12
Mettons 12
Mill@@ 12
Mondial 12
Mort 12
My 12
Myhrvold 12
Médecine 12
Nancy 12
Naomi 12
Nat@@ 12
Net@@ 12
Normands 12
OPEP 12
OTAN 12
Ol@@ 12
PCB 12
Page 12
Panthéon 12
Paradis 12
Pascal 12
Paula 12
Pierre 12
Pinker 12
Pologne 12
Quant 12
RI@@ 12
Racon@@ 12
Ralph 12
Rebecca 12
Restez 12
Rev@@ 12
Rezero 12
Rob@@ 12
Robinson 12
Rock@@ 12
Sagmeister 12
Sally 12
Satan 12
Secrétaire 12
Sher@@ 12
Society 12
Soyons 12
Sp@@ 12
Suiv@@ 12
Sus@@ 12
TEDTalk 12
TEDWomen 12
Theater 12
Tro@@ 12
Un@@ 12
United 12
Venise 12
Vierge 12
Wisconsin 12
Woody 12
Yor@@ 12
Ze@@ 12
aboutit 12
abstraites 12
abî@@ 12
acidification 12
acqui@@ 12
acti@@ 12
addition 12
ader 12
administrateurs 12
ado 12
adolescentes 12
adoptent 12
adorerais 12
adressé 12
adéquat 12
affectée 12
affiches 12
affirmations 12
affr@@ 12
agissant 12
agitation 12
agne 12
agressifs 12
agréables 12
aidait 12
aint 12
aiser 12
aisser 12
aisses 12
aissez 12
ajoutent 12
ake 12
aler 12
allo@@ 12
allument 12
aman 12
ambiguïté 12
ambigüité 12
ambulance 12
amenons 12
amer@@ 12
amusés 12
améliorée 12
analogue 12
ancer 12
angulaire 12
anteur 12
anthro@@ 12
anémie 12
appliquez 12
appliquées 12
approchez 12
approfon@@ 12
approfondie 12
approfondir 12
appui 12
arbitre 12
archive 12
arienne 12
arracher 12
arriveront 12
arron@@ 12
artérielle 12
asile 12
associons 12
assom@@ 12
ata 12
atin 12
ator 12
attaquant 12
attirant 12
attén@@ 12
avançant 12
awa 12
baignoire 12
balanc@@ 12
balayer 12
band@@ 12
bec@@ 12
bienvenue 12
bijou 12
biodégrad@@ 12
biographie 12
bipède 12
bler 12
blocage 12
bloqué 12
bocal 12
box@@ 12
briquettes 12
broy@@ 12
brume 12
brutal@@ 12
buff@@ 12
buissons 12
bénéfiques 12
béquilles 12
bét@@ 12
cacahuètes 12
caires 12
calmes 12
canadi@@ 12
candidature 12
cano@@ 12
carrément 12
celer 12
censées 12
centen@@ 12
cep@@ 12
championnat 12
changée 12
chaussée 12
che@@ 12
chements 12
cheminement 12
chemises 12
chlor@@ 12
chocol@@ 12
choice 12
chon 12
choquée 12
chouettes 12
chrétien 12
cidences 12
circonvolution 12
citoyenneté 12
classé 12
cognitifs 12
cohérence 12
cohésion 12
coiffure 12
colibri 12
collectivité 12
collé 12
coloniser 12
combattu 12
combinent 12
combinés 12
comestible 12
commandant 12
commandement 12
commencèrent 12
communiste 12
compos@@ 12
comptez 12
compétitions 12
comètes 12
comédi@@ 12
conceptuelle 12
concevez 12
concilier 12
concl@@ 12
concrètes 12
confis@@ 12
confor@@ 12
connection 12
conqu@@ 12
considérant 12
constat@@ 12
constatons 12
construc@@ 12
contemporains 12
conteuse 12
continuant 12
contracté 12
contradictions 12
contrari@@ 12
contributeurs 12
convaincante 12
conventions 12
convulsions 12
coopérative 12
corri@@ 12
coréen 12
cos@@ 12
cot@@ 12
cotés 12
couch@@ 12
coumarine 12
coup@@ 12
courageuse 12
courantes 12
crabes 12
croisement 12
croisé 12
cré 12
cursus 12
cus 12
cylind@@ 12
célébrités 12
cémie 12
cônes 12
côtières 12
del 12
dem@@ 12
dements 12
demos 12
dence 12
deven@@ 12
diagnostiqués 12
dialec@@ 12
dictateurs 12
dienne 12
dirigeaient 12
disions 12
disparaissait 12
distinc@@ 12
dividende 12
divisions 12
doctrine 12
domesti@@ 12
dort 12
doutes 12
dresser 12
débarrassé 12
débrouill@@ 12
décer@@ 12
décharges 12
déclare 12
décomposition 12
découpé 12
décrite 12
déesse 12
déj@@ 12
délais 12
déménager 12
dén@@ 12
déployé 12
détendre 12
détriment 12
détruite 12
dévier 12
dîtes 12
ectu@@ 12
eds 12
effectuent 12
effrayés 12
elly 12
emballé 12
embarqués 12
embryonnaires 12
emploient 12
emprunte 12
empêchant 12
encouragent 12
encouragé 12
endorm@@ 12
ene 12
enfuir 12
engagements 12
engagent 12
engendrer 12
enquêter 12
enseignante 12
enthousiasmé 12
entrailles 12
entraî@@ 12
entraînent 12
entretiens 12
envisage 12
escalader 12
estimons 12
estrade 12
eures 12
européen 12
examinant 12
excepté 12
exercer 12
exotique 12
expir@@ 12
explic@@ 12
exploitations 12
explorations 12
exposée 12
extern@@ 12
extravertis 12
faces 12
facettes 12
fai@@ 12
faiblesses 12
failles 12
failli 12
faisabilité 12
falsi@@ 12
familiar@@ 12
fan@@ 12
façonnent 12
fertilité 12
ffes 12
fiantes 12
figures 12
filer 12
flo@@ 12
flottante 12
fonctionnaient 12
foncée 12
fonde 12
fortu@@ 12
fro@@ 12
fréquent@@ 12
fug@@ 12
féminines 12
ga@@ 12
game 12
geaient 12
gences 12
gente 12
gentille 12
gieux 12
glac@@ 12
glandes 12
gouvernemental 12
gouverneur 12
government 12
grandissais 12
gratification 12
gravitationnelle 12
grenier 12
grilles 12
grimace 12
guent 12
guitar@@ 12
guépar@@ 12
guéri 12
gèrent 12
géniaux 12
générateurs 12
génériques 12
géographiques 12
géom@@ 12
h30 12
habitations 12
habité 12
haleine 12
haricots 12
hauteurs 12
historiens 12
homo@@ 12
hot@@ 12
humide 12
humor@@ 12
hypothé@@ 12
hyène 12
hôtes 12
ica 12
ident 12
ignes 12
imbri@@ 12
imitent 12
implicite 12
impressionnantes 12
impressionner 12
imprimantes 12
inaires 12
inclinaison 12
inconfortable 12
indul@@ 12
inertie 12
infime 12
infir@@ 12
inflexion 12
influencée 12
infr@@ 12
inité 12
innocence 12
inscrire 12
inscrite 12
insignifi@@ 12
installent 12
institutionnel 12
intellect 12
intelligemment 12
intenses 12
intentionnellement 12
interrogation 12
interrupteurs 12
intimidant 12
introduite 12
inventons 12
inversé 12
irri@@ 12
ish@@ 12
isi@@ 12
isolées 12
issais 12
issiez 12
issions 12
issonn@@ 12
istant 12
itable 12
itération 12
ja@@ 12
jaill@@ 12
jardinage 12
jay 12
jeans 12
jonathan 12
jongler 12
jor@@ 12
jouions 12
joyeuse 12
juifs 12
k.html 12
ken@@ 12
kes 12
labeur 12
labor@@ 12
lak@@ 12
lancées 12
lapins 12
lasers 12
latitude 12
levain 12
lobes 12
loisir 12
lum@@ 12
légaux 12
légi@@ 12
légères 12
magiciens 12
mail@@ 12
maillage 12
makes 12
malins 12
mamans 12
manchots 12
mandarin 12
mann 12
mantra 12
mants 12
marquée 12
marr@@ 12
marshmallow 12
matchs 12
mate 12
mati@@ 12
menacer 12
menacé 12
menons 12
mentent 12
menton 12
menés 12
mercredi 12
mesurez 12
mettions 12
meuble 12
mid@@ 12
miens 12
miez 12
mignonne 12
militant 12
miniature 12
missionn@@ 12
mit@@ 12
modalités 12
modo 12
monstru@@ 12
monument@@ 12
munici@@ 12
municipal 12
musculaire 12
museau 12
méga 12
mément 12
mémoires 12
ménages 12
méno@@ 12
méthodologie 12
métropolit@@ 12
nageant 12
nageoires 12
nas@@ 12
natation 12
navigu@@ 12
netto@@ 12
nettoy@@ 12
neufs 12
niez 12
nocif 12
nomades 12
nuclé@@ 12
nuisibles 12
nul@@ 12
obli@@ 12
oblige 12
occupais 12
officielles 12
officier 12
olog@@ 12
ondul@@ 12
onze 12
opho@@ 12
ophysi@@ 12
oppression 12
oranges 12
osc@@ 12
otage 12
otes 12
oti@@ 12
oublient 12
ouu 12
ouvrier 12
oux 12
pag@@ 12
palestiniens 12
palmier 12
palour@@ 12
palpit@@ 12
pan 12
pandémies 12
parachu@@ 12
pari 12
partageait 12
passeport 12
passif 12
peer 12
pelouse 12
percée 12
perfection 12
perie 12
permet@@ 12
persiste 12
personnalisés 12
peuplé 12
pharmac@@ 12
phil@@ 12
phoques 12
pig@@ 12
pigeons 12
pions 12
plaint 12
plantation 12
pleurs 12
pliez 12
plu 12
pluri@@ 12
pneu@@ 12
poign@@ 12
pointent 12
pollinisation 12
pomp@@ 12
portail 12
potential 12
prendrai 12
prescri@@ 12
primate 12
primordiale 12
profil@@ 12
promoteur 12
prononce 12
propulsé 12
prospérer 12
prostitu@@ 12
protestation 12
provi@@ 12
provisions 12
provoquent 12
précipitations 12
préfèr@@ 12
présentées 12
présidenti@@ 12
prêtres 12
pseudo 12
purs 12
pèsent 12
quad@@ 12
quiez 12
quittent 12
rabbin 12
raccro@@ 12
racontais 12
raies 12
raisonnablement 12
ranger 12
rationnelles 12
rebelle 12
reconstruit 12
recueilli 12
redondance 12
redress@@ 12
refuse 12
refusent 12
regardés 12
regroupement 12
regroupent 12
rembourser 12
remplacée 12
remplies 12
rendaient 12
rendements 12
rentabilité 12
repense 12
repoussent 12
reprogrammer 12
repères 12
ressemblance 12
ressentie 12
restaient 12
restaur@@ 12
restriction 12
restrictions 12
retirez 12
reviendra 12
ridicules 12
rier 12
ril 12
robes 12
robotiques 12
romance 12
ros@@ 12
rot@@ 12
réalisant 12
récréation 12
régionale 12
régissent 12
rén@@ 12
réservée 12
résili@@ 12
résist@@ 12
résolue 12
résurrection 12
réutiliser 12
révolutionner 12
révélateur 12
révélations 12
sacrément 12
sacrés 12
saint 12
saints 12
sante 12
satis@@ 12
saurait 12
sauts 12
sauvés 12
scand@@ 12
seign@@ 12
sembl@@ 12
serrer 12
servaient 12
sex@@ 12
she@@ 12
shi@@ 12
significatives 12
signée 12
silicium 12
similarités 12
simplifié 12
singer 12
sings 12
sman 12
soudaine 12
souffl@@ 12
soulager 12
soup@@ 12
souriant 12
sourient 12
spin 12
spirituels 12
spécialisées 12
strat@@ 12
strom 12
subjective 12
submergé 12
submersibles 12
subsaharienne 12
subsistance 12
substitution 12
subtil 12
subtiles 12
subventi@@ 12
suivais 12
supporte 12
survoler 12
symptôme 12
synchronisés 12
synthétis@@ 12
tablette 12
tards 12
teaux 12
temples 12
tempér@@ 12
territoires 12
testées 12
thérapeute 12
ting 12
tionnellement 12
tistes 12
tisé 12
tomates 12
tordre 12
touches 12
tragédies 12
transit 12
translu@@ 12
traîne 12
tremblements 12
trez 12
trimestre 12
troit 12
troubl@@ 12
trouverait 12
trouveront 12
trésor 12
ts@@ 12
tuait 12
tunnels 12
tw@@ 12
twe@@ 12
undi 12
unifiée 12
urent 12
vaincu 12
varier 12
variés 12
vendons 12
verb@@ 12
verrou@@ 12
versez 12
versus 12
vertébrale 12
vider 12
viendrez 12
vingtième 12
violet 12
violoniste 12
vitres 12
vives 12
vivi@@ 12
voeux 12
volez 12
votent 12
vraient 12
vré 12
ye 12
yez 12
yl 12
yn 12
zéros 12
Écr@@ 12
Î@@ 12
çais 12
ço@@ 12
èdent 12
ès 12
ébauche 12
ébou@@ 12
écarts 12
échau@@ 12
écho@@ 12
échoue 12
éclat 12
éclater 12
éco 12
économisé 12
écritures 12
écriv@@ 12
écrivant 12
égar@@ 12
élimine 12
éliminé 12
éloignement 12
émeute 12
émorer 12
émotionnels 12
éoliennes 12
épiphanie 12
époques 12
épousé 12
équilibré 12
équival@@ 12
éradiqué 12
ériorité 12
éru@@ 12
étab@@ 12
établis 12
étang 12
étincelles 12
étou@@ 12
étudiées 12
évapore 12
évite 12
évolutionniste 12
&apos;@@ 11
.S. 11
02 11
120@@ 11
150@@ 11
1858 11
195@@ 11
1987 11
200.000 11
240 11
2e 11
4,5 11
40.000 11
747 11
AC 11
AD@@ 11
AIDS 11
AO 11
AT@@ 11
Accep@@ 11
Administration 11
Afro 11
Ajou@@ 11
Alexandrie 11
Allem@@ 11
Aug@@ 11
Auschwitz 11
Avenue 11
Bern@@ 11
Beverly 11
Blair 11
Blanc 11
Bleu 11
Bobby 11
Boeing 11
Bren@@ 11
Brothers 11
Budapest 11
Bun@@ 11
CL 11
CM2 11
Carolyn 11
Carson 11
Catherine 11
Cheval 11
Chin@@ 11
Chuck 11
Ciel 11
Conférence 11
Coupe 11
Creek 11
Crick 11
Curi@@ 11
D.C. 11
Dalai 11
Dan@@ 11
Dem@@ 11
Denisova 11
Dennett 11
Différ@@ 11
Duke 11
Dur@@ 11
Dyson 11
Décou@@ 11
Eleanor 11
Enfants 11
Erik 11
Ernest 11
Est@@ 11
Etre 11
Explor@@ 11
FedEx 11
Finlande 11
Franchement 11
Fred 11
Freud 11
G. 11
Gamble 11
Gapminder 11
Gh@@ 11
Ghraib 11
Giussani 11
Grove 11
Guatemala 11
Ha@@ 11
Hal@@ 11
Hawaii 11
Health 11
Heures 11
Hillary 11
Hol@@ 11
Hô@@ 11
Iraniens 11
JE 11
JO 11
JPL 11
Jabbar 11
Janine 11
Jou@@ 11
Joy@@ 11
Juin 11
June 11
Justice 11
Justin 11
Karl 11
Kentucky 11
Kiki 11
Kiva 11
Kowe@@ 11
Lam@@ 11
Leo 11
Les@@ 11
Lib@@ 11
Libye 11
Light 11
Lynn 11
MBA 11
MM 11
Machine 11
Macintosh 11
Maeda 11
Mah@@ 11
Maltais 11
Manchester 11
Mellon 11
Mettre 11
Mid@@ 11
Min 11
Mobile 11
Mongolie 11
Motors 11
Mus@@ 11
Méditerranée 11
NB 11
Najmuddin 11
Nano 11
Nation 11
New@@ 11
Novogratz 11
Noé 11
Néander@@ 11
Ob@@ 11
Objectifs 11
Ohio 11
Ok@@ 11
On@@ 11
Orléans 11
Palestin@@ 11
Parlement 11
Pleo 11
Pop@@ 11
Porto 11
Prendre 11
Présentateur 11
Prê@@ 11
Puisqu&apos; 11
Pur@@ 11
Q 11
Quiconque 11
Quo@@ 11
R.@@ 11
RHex 11
Rab@@ 11
Randi 11
Regarder 11
Retour 11
Revenez 11
Rhode 11
River 11
Robicsek 11
Robo@@ 11
Réfléch@@ 11
S. 11
SA 11
SM 11
SP@@ 11
Sachs 11
Salman 11
Sao 11
Sergey 11
Service 11
Shirky 11
South@@ 11
Space 11
Stu@@ 11
Sw@@ 11
Sénégal 11
TBP 11
TEDx 11
TR 11
Tch@@ 11
Te@@ 11
Tech 11
Temps 11
Top 11
Trav@@ 11
Trouvez 11
Turc 11
Tyrannosau@@ 11
Uruguay 11
VI@@ 11
Vagin 11
Vert 11
Video 11
Vie@@ 11
Vienne 11
Von 11
W. 11
Wa@@ 11
Waouh 11
War@@ 11
We 11
Willie 11
Word 11
XXI@@ 11
Yorkais 11
Zo@@ 11
Zoé 11
aa@@ 11
abondant 11
abord@@ 11
abstraits 11
abîme 11
acarien 11
accompagnée 11
accordent 11
accouchement 11
accru 11
accumulé 11
acheteurs 11
adage 11
adopte 11
adrénaline 11
adé 11
adée 11
affirment 11
agglom@@ 11
agi 11
agn@@ 11
agos 11
agrég@@ 11
ahur@@ 11
aimes 11
aints 11
aissant 11
aliers 11
alisons 11
alla 11
allem@@ 11
allonge 11
alo@@ 11
amation 11
ambig@@ 11
ambitieuse 11
amidon 11
amplifier 11
amusent 11
amusé 11
amé 11
analphab@@ 11
analysant 11
anarchie 11
anatomique 11
ances@@ 11
anciers 11
annes 11
annonc@@ 11
anson 11
antique 11
anxieux 11
anz@@ 11
ao 11
apparaisse 11
appartenant 11
appellerait 11
apper@@ 11
appl@@ 11
appliquant 11
appliqués 11
apprenais 11
approprier 11
appropriés 11
apprécions 11
appétit 11
arbor@@ 11
architecturales 11
argument@@ 11
ariens 11
armer 11
armé 11
arraché 11
arriv@@ 11
arrières 11
arrêtons 11
artisans 11
asi@@ 11
ason 11
asphal@@ 11
assied 11
assurez 11
asséch@@ 11
ast@@ 11
astrolabe 11
astronome 11
ataire 11
atation 11
athéisme 11
atis@@ 11
atre 11
attachent 11
attachez 11
atterriss@@ 11
attribué 11
atténuer 11
atz 11
auditeurs 11
auditive 11
autes 11
autistes 11
autorise 11
autorisées 11
avérer 11
baby@@ 11
balcons 11
balis@@ 11
banale 11
barr@@ 11
basket 11
battement 11
bestioles 11
bins 11
bitumeux 11
blin@@ 11
boivent 11
bot 11
bouchons 11
boules 11
boulots 11
bricol@@ 11
bright 11
brousse 11
brusquement 11
brutalité 11
brée 11
brûlés 11
bureaucratie 11
butineuses 11
cadavres 11
cafétéria 11
calam@@ 11
cannette 11
capsule 11
capter 11
captivité 11
cascadeur 11
cases 11
cassette 11
catalo@@ 11
cath@@ 11
catégor@@ 11
cauchemars 11
causalité 11
causées 11
cendres 11
centrés 11
certitudes 11
chai 11
chanteuse 11
chantiers 11
chargement 11
chargées 11
chargés 11
charmant 11
charter 11
cherie 11
cheveu 11
china 11
chloro@@ 11
chronologie 11
chucho@@ 11
cides 11
cion 11
cis 11
citad@@ 11
civil 11
climats 11
cockpit 11
combats 11
combinées 11
commerces 11
commod@@ 11
compartiment@@ 11
compléments 11
compléter 11
comportementaux 11
comptait 11
conceptuel 11
concrète 11
confirme 11
conform@@ 11
conforme 11
confrontation 11
conquérir 11
consacrée 11
constituée 11
consumér@@ 11
contacté 11
contagi@@ 11
contenaient 11
conteneurs 11
contentons 11
conteurs 11
contextes 11
contract@@ 11
contrôlées 11
conventionnels 11
convergent 11
convertit 11
convivi@@ 11
copient 11
correspond@@ 11
cosmiques 11
coupant 11
coupent 11
coupons 11
couss@@ 11
coutume 11
coûtera 11
craign@@ 11
craignons 11
cran 11
crates 11
cratie 11
cratères 11
crire 11
cris@@ 11
crous@@ 11
créera 11
cueill@@ 11
cumul@@ 11
cybercriminalité 11
célé@@ 11
darwin@@ 11
datent 11
derie 11
dernièrement 11
descendante 11
design.html 11
dessinateurs 11
dessinent 11
destinées 11
destructeur 11
deuil 11
deux@@ 11
diagonale 11
dier 11
dingues 11
disciplinaire 11
discutable 11
discutions 11
disparité 11
disproportionnée 11
diss@@ 11
dissements 11
dissimul@@ 11
dissou@@ 11
documentaires 11
donniez 11
douceur 11
douloureuses 11
drama@@ 11
duit 11
débo@@ 11
débu@@ 11
décen@@ 11
déchirer 11
décisif 11
décisive 11
décoder 11
déconnexion 11
dédic@@ 11
dédiée 11
défen@@ 11
dégage 11
dégager 11
démocrate 11
démonstrations 11
démor@@ 11
démén@@ 11
dépass@@ 11
dépensez 11
dépêches 11
déri@@ 11
dérivés 11
déroulement 11
déroulent 11
désen@@ 11
désirent 11
désolée 11
détailler 11
détecté 11
détend@@ 11
détendu 11
détester 11
détruites 11
développer@@ 11
dévis@@ 11
dévouement 11
ea@@ 11
eaient 11
effectuée 11
efficience 11
effrayé 11
effroy@@ 11
eler 11
ellip@@ 11
emballer 11
embrass@@ 11
embre 11
embryon 11
embête 11
emph@@ 11
employeurs 11
emprisonnement 11
enberg 11
endommagés 11
endé@@ 11
enfermés 11
engendré 11
englou@@ 11
enjeu 11
ennu@@ 11
entente 11
entin 11
entrav@@ 11
envole 11
ero 11
ert 11
escente 11
escentes 11
esthé@@ 11
eureux 11
exaltation 11
excitantes 11
excré@@ 11
exes 11
exhor@@ 11
exotiques 11
expliquait 11
exploit 11
extrémistes 11
faisceau 11
falloir 11
familiales 11
farfel@@ 11
fatigué 11
fauss@@ 11
fermeture 11
fermées 11
fillette 11
finalité 11
finissons 11
fiques 11
flag@@ 11
focalisation 11
foies 11
foul@@ 11
frappent 11
free 11
freiner 11
freins 11
frustrant 11
fréné@@ 11
ft 11
fusi@@ 11
future.html 11
fé@@ 11
félins 11
gagnons 11
garanti@@ 11
garder@@ 11
glo@@ 11
globales 11
gly@@ 11
gos 11
gram@@ 11
grammaire 11
grapp@@ 11
gravure 11
gravé 11
grises 11
grosso 11
gueule 11
guid@@ 11
gâché 11
gâteaux 11
généreuse 11
habituelles 11
habituer 11
her 11
hippie 11
hockey 11
homosexuels 11
hongrois 11
hormonal 11
humanoïde 11
humoristique 11
huître 11
hygiéniques 11
hyperbolique 11
hémoglobine 11
héroïsme 11
icieux 11
iger 11
illet 11
imaginaires 11
imit@@ 11
immigration 11
imminente 11
immortalité 11
immunité 11
imposé 11
impuissance 11
impuissant 11
incarcération 11
incarne 11
incidents 11
incomplète 11
incompréhensible 11
incorporé 11
indications 11
indispensable 11
infecte 11
influer 11
ingue 11
ingénieux 11
initiés 11
inj@@ 11
ino@@ 11
inondation 11
inons 11
inquiètent 11
inquiét@@ 11
inquiété 11
inscr@@ 11
insi@@ 11
instabilité 11
installée 11
insuffisance 11
insur@@ 11
insécurité 11
intement 11
interactifs 11
interagissez 11
intercep@@ 11
interconnexion 11
interroge 11
interrompre 11
interview@@ 11
intestins 11
introverti 11
investissent 11
investment 11
invo@@ 11
inégal@@ 11
irement 11
isco 11
isses 11
itablement 11
italienne 11
itaux 11
iti 11
ition 11
ity 11
ix 11
jar@@ 11
jaun@@ 11
jean 11
jettent 11
jol@@ 11
judiciaires 11
jumelles 11
just@@ 11
juxta@@ 11
laine 11
laisserait 11
laissées 11
lancers 11
lançant 11
laparoscop@@ 11
lapin 11
lexico@@ 11
limitation 11
ling@@ 11
lingu@@ 11
linguistiques 11
lith@@ 11
livr@@ 11
livré 11
lobby 11
long@@ 11
longuement 11
lor@@ 11
lourdes 11
loyer 11
lucioles 11
lutté 11
lycé@@ 11
mach@@ 11
macro@@ 11
manchot 11
manivelle 11
manquante 11
map 11
marges 11
mark 11
masculins 11
mature 11
matérialiste 11
maximiser 11
meme 11
mentation 11
mesurant 11
mesurent 11
mettais 11
mettra 11
mettrai 11
mic@@ 11
microbien 11
militants 11
mineur 11
misérable 11
modelé 11
modernisme 11
montra 11
morph@@ 11
moulage 11
moulin 11
mouv@@ 11
murmur@@ 11
musulmanes 11
mutant 11
mutuelle 11
mènera 11
médiatiques 11
mélangeant 11
mémorable 11
mémétique 11
ménag@@ 11
métallique 11
nan@@ 11
naïf 11
nettoyé 11
neutr@@ 11
nev@@ 11
news 11
nien 11
niques 11
nobles 11
nombr@@ 11
not 11
nuances 11
numéris@@ 11
nylon 11
négligeable 11
obligée 11
obsédée 11
obtenant 11
obtenues 11
obtenus 11
occasi@@ 11
od 11
oléo@@ 11
omètre 11
op 11
ophtal@@ 11
opposés 11
oral 11
orbital 11
orbites 11
ordonnance 11
organisons 11
ori 11
originaux 11
other@@ 11
otique 11
outi 11
ouvrant 11
pH 11
pa 11
pakistan@@ 11
panoplie 11
parade 11
paradigmes 11
parall@@ 11
pareils 11
parenting 11
parlerais 11
paroi 11
pars 11
passifs 11
passionnants 11
pau@@ 11
pauses 11
pavillon 11
peloton 11
penserez 11
perc@@ 11
performants 11
perpétuel 11
phal@@ 11
phares 11
philie 11
photovoltaïques 11
physiologique 11
pie 11
pilier 11
piqué 11
pirez 11
placement 11
plaines 11
plainte 11
plant 11
ple 11
plo@@ 11
plongeant 11
poil 11
pointeur 11
poli 11
pon 11
portées 11
posais 11
poursuites 11
primer 11
princesse 11
priori 11
privilégiés 11
produc@@ 11
product 11
productives 11
programmée 11
progressent 11
prometteur 11
proportionnellement 11
protocoles 11
proton 11
précipité 11
préférons 11
préparons 11
préparée 11
présentateur 11
présu@@ 11
prétendent 11
prétends 11
prévus 11
puise 11
putain 11
péage 11
péch@@ 11
péni@@ 11
pénétration 11
quar@@ 11
querai 11
radiographie 11
ram 11
rampe 11
ramper 11
rati@@ 11
ration@@ 11
ray 11
reau 11
rebel@@ 11
rechange 11
recherchent 11
reconnai@@ 11
recueillies 11
redescend 11
redescendre 11
refroidi 11
refuge 11
regarda 11
relatifs 11
reliées 11
remarquons 11
remontant 11
remontez 11
rendais 11
renom@@ 11
renoncé 11
repart 11
repasser 11
repoussé 11
reptiles 11
requise 11
respectant 11
restants 11
retenti@@ 11
revenaient 11
revers 11
revivre 11
rex 11
reçues 11
rigoureux 11
rires 11
robert 11
robustes 11
roll 11
roman@@ 11
rouleau 11
roulent 11
routier 11
rude 11
rudimentaire 11
ruisseaux 11
rum@@ 11
rup@@ 11
rè@@ 11
règlements 11
réagi 11
réalisa 11
réalisme 11
récipients 11
récompenser 11
récupérés 11
rédig@@ 11
réduisant 11
réduisent 11
réfléchie 11
région@@ 11
régénération 11
rément 11
républicains 11
réservoirs 11
résidenti@@ 11
résine 11
résis@@ 11
résonne 11
résum@@ 11
résumés 11
rétablissement 11
rétrécir 11
réunit 11
réveil 11
réverbération 11
rê@@ 11
sainte 11
saisie 11
san 11
sang@@ 11
satisfaisant 11
sauces 11
sauriez 11
saurons 11
savourer 11
scarabée 11
sch 11
scie 11
scolarité 11
scores 11
script 11
sculpter 11
se.html 11
sensoriels 11
serve 11
sez 11
shares 11
shows 11
sies 11
siffler 11
signifi@@ 11
significativement 11
sis@@ 11
sité 11
soies 11
soigné 11
solidité 11
solu@@ 11
soud@@ 11
soumission 11
souterraine 11
souvenu 11
spirituelles 11
spontanée 11
sportifs 11
spécifications 11
squatters 11
squelettes 11
ss 11
stabilisé 11
statues 11
steven 11
stimuler 11
stratégiques 11
stressé 11
studios 11
stéréo 11
subissent 11
subtil@@ 11
success 11
successifs 11
suggérant 11
surcharge 11
symétriques 11
synagogue 11
synapse 11
syner@@ 11
séduisantes 11
tablettes 11
tac@@ 11
tactiles 11
take 11
tales 11
tali@@ 11
tapisseries 11
tarte 11
temporairement 11
tenus 11
terminal 11
terminale 11
terr@@ 11
teux 11
ther 11
tibles 11
tic 11
tionnistes 11
tirs 11
tisation 11
tit 11
titane 11
toilette 11
toire 11
tomber@@ 11
tomie 11
tornade 11
tors 11
touristique 11
traductions 11
trag@@ 11
transformer@@ 11
transpir@@ 11
transposer 11
travaillions 11
traversait 11
tre@@ 11
triche 11
trichent 11
tricheur 11
triché 11
trix 11
tré 11
tuant 11
tuel 11
tueuse 11
turer 11
tyran@@ 11
télécommunications 11
télés 11
uit 11
ularité 11
ums 11
universalité 11
universels 11
utilisables 11
valises 11
vallées 11
valves 11
vation 11
vedette 11
veines 11
venions 11
verbale 11
verres 11
verrions 11
verrouiller 11
versé 11
vertébrés 11
veuillez 11
vidé@@ 11
visionnaires 11
visu@@ 11
visualisations 11
vitalité 11
volontairement 11
vre 11
vétérinaire 11
vêlage 11
vœux 11
ways 11
wow 11
xéno@@ 11
yan 11
yaourt 11
yoga 11
yor@@ 11
zero 11
zoomez 11
Éthiopie 11
çage 11
çante 11
è 11
éclairée 11
éclats 11
écolo 11
édez 11
édit@@ 11
égouts 11
égoïsme 11
égyptien 11
élarg@@ 11
électrocardiogramme 11
électromagné@@ 11
élue 11
émergente 11
énervé 11
énie 11
épar@@ 11
éper@@ 11
épic@@ 11
épin@@ 11
épon@@ 11
épuisement 11
érence 11
érienne 11
étaler 11
éteignent 11
éternel 11
étiqueté 11
étonne 11
étre@@ 11
étroites 11
évacuer 11
évalue 11
évapor@@ 11
♪ 11
03 10
119@@ 10
1600 10
16ème 10
175 10
1890 10
1908 10
1966 10
2.000 10
2100 10
50.000 10
7000 10
AI 10
Agnes 10
Ah@@ 10
Ai 10
Alban@@ 10
Alhambra 10
Ali@@ 10
Allah 10
Alpes 10
Anna 10
Annie 10
Année 10
Anonymous 10
Ast@@ 10
Aviv 10
Axe 10
BR 10
Ball@@ 10
Baltimore 10
Best 10
Betty 10
Bilbao 10
Bio@@ 10
Bowl 10
Boyle 10
Britannique 10
Bryan 10
Budrus 10
Bâ@@ 10
CO@@ 10
Capitaine 10
Cargill 10
Charlotte 10
Christi@@ 10
Christian 10
Collisionneur 10
Concer@@ 10
Continuez 10
Corporation 10
Coréens 10
Cru@@ 10
Dar@@ 10
Deborah 10
Den@@ 10
Diamandis 10
Diego 10
Dig@@ 10
Digital 10
Divergence 10
Doigt 10
Don 10
Donn@@ 10
Donner 10
Douglas 10
Drake 10
Duolingo 10
Démocrates 10
Dévelop@@ 10
ES@@ 10
Edimbourg 10
Edison 10
Eff@@ 10
Effectivement 10
Enregistr@@ 10
Espagno@@ 10
Etait 10
Eur@@ 10
Extr@@ 10
Ey@@ 10
Ezra 10
FS 10
Fe@@ 10
Fellows 10
Film 10
Fis@@ 10
Fortune 10
Fre@@ 10
Freeman 10
Fri@@ 10
Février 10
GM 10
Graal 10
Gupta 10
Génome 10
Génér@@ 10
Génération 10
HC 10
HIV 10
Hansen 10
Helen 10
Helvetica 10
High 10
Hind@@ 10
Hippo@@ 10
History 10
Holl@@ 10
Homer 10
Hyderabad 10
Ide@@ 10
Il@@ 10
Imp@@ 10
Indiana 10
Industrielle 10
Int@@ 10
Investi@@ 10
Ir@@ 10
Iranien 10
Ivoire 10
Ja@@ 10
Jac@@ 10
Jamaïque 10
Jesus 10
Jeu@@ 10
Jordan 10
Jour@@ 10
Judy 10
Juliette 10
Kaluza 10
Kinsey 10
Kofi 10
LC 10
LI@@ 10
Laboratoire 10
Laquelle 10
Lauren 10
Laurie 10
Liberté 10
Lindbergh 10
Linus 10
Littéralement 10
Livre 10
Liz 10
Lucifer 10
Lucy 10
Lyndon 10
MA@@ 10
Mahomet 10
Mai@@ 10
Mak@@ 10
Maps 10
Marduk 10
Mark@@ 10
Marx 10
Metropolitan 10
Mexicains 10
Milan 10
Mir@@ 10
Missouri 10
Moder@@ 10
Montrez 10
Moon 10
Mozambique 10
NA 10
NA@@ 10
NK 10
NO@@ 10
Naturelle 10
Nav@@ 10
Nigéri@@ 10
Notez 10
Novembre 10
Néanderthal 10
Oakland 10
Occidentale 10
Office 10
Olym@@ 10
Orig@@ 10
Orion 10
Oussama 10
PA 10
PE@@ 10
Pa@@ 10
Packard 10
Palm 10
Papouasie 10
Pareil 10
Particulièrement 10
Plan@@ 10
Pogue 10
Prego 10
Près 10
Question 10
RCA 10
RD 10
Rap@@ 10
Rav@@ 10
Rice 10
Rich@@ 10
Richards 10
Rockefeller 10
Rossy 10
Route 10
Russell 10
Républic@@ 10
Réserve 10
Sau@@ 10
Saul 10
Schwarzschild 10
Serra 10
Shah 10
Shi@@ 10
Sho@@ 10
Sirène 10
Smo@@ 10
Soldat 10
Son@@ 10
Sousa 10
Staline 10
Street@@ 10
Stuart 10
Sun@@ 10
Supposez 10
TD 10
Tata 10
Taylor 10
Temple 10
Tenez 10
Termin@@ 10
Terry 10
Thanksgiving 10
Tiens 10
Town 10
Trai@@ 10
Tribunal 10
Trouver 10
Troy 10
Tulu 10
Tw@@ 10
Up 10
Util@@ 10
Utilisez 10
Victoria 10
Viv@@ 10
Voudriez 10
Warcraft 10
XXe 10
XXeme 10
Yang 10
Yochai 10
You@@ 10
Yougoslavie 10
Ze 10
abattage 10
abdomen 10
abonnés 10
abore 10
aboutiss@@ 10
absent 10
acceptez 10
accomplit 10
accordé 10
accumule 10
achetant 10
acquises 10
acres 10
act 10
activisme 10
adaptations 10
adolescente 10
adorer 10
ados 10
adversaire 10
adéqu@@ 10
ae 10
affam@@ 10
affectées 10
afi 10
ageait 10
agrandi 10
agressive 10
aid 10
aigre 10
ailerons 10
aimée 10
ainteté 10
aisons 10
aissent 10
aitra 10
aj@@ 10
ajoutés 10
algue 10
allemande 10
aller@@ 10
allumez 10
allumée 10
allumées 10
allé@@ 10
alpha 10
altér@@ 10
aléatoirement 10
ambitions 10
amen 10
ames 10
améliorées 10
ander@@ 10
angers 10
anomalie 10
anth@@ 10
antibio@@ 10
antidépresseurs 10
apathie 10
ape 10
aperçoit 10
appelant 10
appellation 10
appendi@@ 10
applaudissements 10
apprenaient 10
appropriées 10
approvisi@@ 10
apprécierez 10
appréhension 10
appâ@@ 10
archi@@ 10
arde 10
argumenter 10
aria 10
aristo@@ 10
arrangement 10
arre 10
arrivions 10
arrêtais 10
arrêts 10
art. 10
arthro@@ 10
artisan 10
ascenseurs 10
asseyent 10
assistants 10
assor@@ 10
assuré 10
astuci@@ 10
atmosphérique 10
atom@@ 10
atouts 10
attentat 10
aty@@ 10
auditives 10
autobiographique 10
avirons 10
avoc@@ 10
avéra 10
az 10
aériens 10
bactériennes 10
balade 10
balein@@ 10
banais 10
bandages 10
batteur 10
baï@@ 10
bent 10
bible 10
bibliothé@@ 10
bidou@@ 10
bill 10
billes 10
ble@@ 10
bloque 10
blou@@ 10
bonn@@ 10
bonté 10
bot@@ 10
botanique 10
bouillie 10
bouleversé 10
bouquins 10
bouscul@@ 10
box 10
brillamment 10
brillance 10
brisée 10
brocolis 10
brow@@ 10
brul@@ 10
bruts 10
bureaucratique 10
butin@@ 10
bénédiction 10
bénévole 10
bû@@ 10
caca 10
cadence 10
caetera 10
cafard 10
calculatrice 10
calibr@@ 10
cambri@@ 10
canadien 10
cancér@@ 10
cancéro@@ 10
canne 10
cannib@@ 10
cap 10
capill@@ 10
capr@@ 10
capturés 10
carapace 10
card 10
caritative 10
carrée 10
cartilage 10
cassée 10
castor 10
catastrophiques 10
causés 10
caval@@ 10
caverne 10
cavernes 10
centrifugeuse 10
cerfs 10
chaines 10
champagne 10
[...]
